{"<s>":0,"<pad>":1,"</s>":2,"<unk>":3,"<mask>":4,"!":5,"\"":6,"#":7,"$":8,"%":9,"&":10,"'":11,"(":12,")":13,"*":14,"+":15,",":16,"-":17,".":18,"/":19,"0":20,"1":21,"2":22,"3":23,"4":24,"5":25,"6":26,"7":27,"8":28,"9":29,":":30,";":31,"<":32,"=":33,">":34,"?":35,"@":36,"A":37,"B":38,"C":39,"D":40,"E":41,"F":42,"G":43,"H":44,"I":45,"J":46,"K":47,"L":48,"M":49,"N":50,"O":51,"P":52,"Q":53,"R":54,"S":55,"T":56,"U":57,"V":58,"W":59,"X":60,"Y":61,"Z":62,"[":63,"\\":64,"]":65,"^":66,"_":67,"`":68,"a":69,"b":70,"c":71,"d":72,"e":73,"f":74,"g":75,"h":76,"i":77,"j":78,"k":79,"l":80,"m":81,"n":82,"o":83,"p":84,"q":85,"r":86,"s":87,"t":88,"u":89,"v":90,"w":91,"x":92,"y":93,"z":94,"{":95,"|":96,"}":97,"~":98,"¡":99,"¢":100,"£":101,"¤":102,"¥":103,"¦":104,"§":105,"¨":106,"©":107,"ª":108,"«":109,"¬":110,"®":111,"¯":112,"°":113,"±":114,"²":115,"³":116,"´":117,"µ":118,"¶":119,"·":120,"¸":121,"¹":122,"º":123,"»":124,"¼":125,"½":126,"¾":127,"¿":128,"À":129,"Á":130,"Â":131,"Ã":132,"Ä":133,"Å":134,"Æ":135,"Ç":136,"È":137,"É":138,"Ê":139,"Ë":140,"Ì":141,"Í":142,"Î":143,"Ï":144,"Ð":145,"Ñ":146,"Ò":147,"Ó":148,"Ô":149,"Õ":150,"Ö":151,"×":152,"Ø":153,"Ù":154,"Ú":155,"Û":156,"Ü":157,"Ý":158,"Þ":159,"ß":160,"à":161,"á":162,"â":163,"ã":164,"ä":165,"å":166,"æ":167,"ç":168,"è":169,"é":170,"ê":171,"ë":172,"ì":173,"í":174,"î":175,"ï":176,"ð":177,"ñ":178,"ò":179,"ó":180,"ô":181,"õ":182,"ö":183,"÷":184,"ø":185,"ù":186,"ú":187,"û":188,"ü":189,"ý":190,"þ":191,"ÿ":192,"Ā":193,"ā":194,"Ă":195,"ă":196,"Ą":197,"ą":198,"Ć":199,"ć":200,"Ĉ":201,"ĉ":202,"Ċ":203,"ċ":204,"Č":205,"č":206,"Ď":207,"ď":208,"Đ":209,"đ":210,"Ē":211,"ē":212,"Ĕ":213,"ĕ":214,"Ė":215,"ė":216,"Ę":217,"ę":218,"Ě":219,"ě":220,"Ĝ":221,"ĝ":222,"Ğ":223,"ğ":224,"Ġ":225,"ġ":226,"Ģ":227,"ģ":228,"Ĥ":229,"ĥ":230,"Ħ":231,"ħ":232,"Ĩ":233,"ĩ":234,"Ī":235,"ī":236,"Ĭ":237,"ĭ":238,"Į":239,"į":240,"İ":241,"ı":242,"Ĳ":243,"ĳ":244,"Ĵ":245,"ĵ":246,"Ķ":247,"ķ":248,"ĸ":249,"Ĺ":250,"ĺ":251,"Ļ":252,"ļ":253,"Ľ":254,"ľ":255,"Ŀ":256,"ŀ":257,"Ł":258,"ł":259,"Ń":260,"38":261,"438":262,"0438":263,"35":264,"435":265,"0435":266,"41":267,"45":268,"42":269,"40":270,"440":271,"0440":272,"045":273,"441":274,"0441":275,"442":276,"0442":277,"32":278,"432":279,"0432":280,"34":281,"434":282,"0434":283,"0458":284,"041":285,"44":286,"044":287,"0443":288,"37":289,"437":290,"0437":291,"33":292,"433":293,"0433":294,"31":295,"431":296,"0431":297,"042":298,"0446":299,"0447":300,"0448":301,"445":302,"0445":303,"36":304,"436":305,"0436":306,"0459":307,"20":308,"0421":309,"201":310,".\\":311,"0444":312,"0410":313,"0452":314,"0418":315,"0414":316,"0411":317,"0420":318,"0422":319,"0423":320,"0412":321,"040":322,"Ġ(":323,"..":324,"Ġ1":325,"0415":326,"02":327,"Ġ(\\":328,"0408":329,"0413":330,"0417":331,"00":332,"-\\":333,"0426":334,"0425":335,"026":336,"2013":337,"\"\\":338,"0424":339,"Ġ2":340,"Ġ-":341,"0428":342,"Ġ19":343,"Ġ20":344,"Ġ201":345,"te":346,"025":347,"),":348,"0427":349,"\":":350,"xt":351,"text":352,"\"}":353,"{\"":354,"čĊ":355,"Ġ\"\\":356,"01":357,"\\\"":358,"03":359,"\\\"\\":360,"Ġ3":361,"Ġ5":362,"Ġ\\\"\\":363,".\"}":364,"202":365,"0416":366,")..":367,"Ġ6":368,",\\":369,":\\":370,")\\":371,"Ġ4":372,"2026":373,"Ġ200":374,"0402":375,"Ġ7":376,"Ġ18":377,").":378,"/\\":379,"0409":380,"19":381,"?\\":382,"Ġ8":383,"Ġ10":384,";\\":385,"0262":386,"Ġ9":387,"Ġ15":388,"ad":389,"!\\":390,"Ġ199":391,"...\\":392,"000":393,"0268":394,"an":395,"21":396,"010":397,"Ġ0":398,"in":399,"Ġ12":400,"2014":401,"[\\":402,"ĠI":403,"Ġ11":404,").\\":405,"on":406,"or":407,"2019":408,"Ġ,":409,"er":410,"]\\":411,"Ġ17":412,".,":413,"\\\",":414,"Ġ16":415,"en":416,"10":417,"...":418,"0267":419,"Ġj":420,"63":421,"ĠS":422,"Ġ30":423,"ar":424,"ti":425,"Ġ14":426,"11":427,"bb":428,"da":429,"Ġ25":430,"Ġ13":431,"Ġo":432,"Ġ/":433,"al":434,"ĠM":435,"12":436,"028":437,"es":438,"0003":439,"ĠC":440,"18":441,"0109":442,"Ġ2018":443,"Ġ2017":444,"Ġ2016":445,"__":446,"'\\":447,"ĠA":448,"Ġ|":449,"Ġ2021":450,"Ġ2014":451,"Ġ2015":452,"06":453,"Ġ198":454,"is":455,"ic":456,"om":457,"Ġ2020":458,"de":459,"05":460,"Ġ2019":461,"Ġ21":462,"ĠP":463,"39":464,"Ġ2013":465,"0163":466,"22":467,"Ġs":468,"Ġp":469,"....":470,"ab":471,"15":472,"ĠX":473,"Ġ24":474,"Ġ40":475,"0264":476,"ĠW":477,"(\\":478,"Ġ2012":479,"ac":480,"re":481,"2018":482,"ĠT":483,"Ġ22":484,"Ġ100":485,"Ġ197":486,"ĠB":487,"Ġ50":488,"2022":489,"25":490,"II":491,"ud":492,"16":493,"Ġ2011":494,"ba":495,"17":496,"14":497,"ed":498,"027":499,"ĠR":500,"Ġ27":501,"0266":502,"il":503,"Ġm":504,"do":505,"ww":506,"Ġ28":507,"Ġt":508,"Ġ26":509,"us":510,"je":511,"he":512,"0269":513,"ol":514,"Ġ23":515,"09":516,"Ġ[\\":517,"0281":518,"uf":519,"Ġ:":520,"ĠK":521,"Ġ.":522,"0265":523,"ao":524,"Ġ2010":525,"as":526,"ĠD":527,"ĠE":528,"le":529,"?.\\":530,"Ġje":531,"ce":532,"Ġ196":533,"ro":534,"\\\".\\":535,"Ġ29":536,"Ġa":537,"13":538,"50":539,"ra":540,"it":541,"ĠL":542,"ĠF":543,"ĠV":544,"27":545,"Ġw":546,"Ġ2008":547,"ov":548,"ĠG":549,"ca":550,"Ġ31":551,"Ġk":552,"--":553,"ja":554,"ĠN":555,"os":556,"Ġ2009":557,"be":558,"07":559,"61":560,"aa":561,"Ġn":562,"08":563,"et":564,"at":565,"ĠO":566,"____":567,"Ġ=":568,"ae":569,"48":570,");":571,"439":572,"Ġ195":573,"0439":574,"26":575,"Ġ60":576,"Ġ2007":577,"ia":578,"Ġ&":579,"ĠH":580,"Ġ...\\":581,"''":582,"fo":583,"ej":584,":.\\":585,"Ġ35":586,"Ġ-\\":587,"29":588,"28":589,".)":590,"24":591,"ri":592,"0261":593,"og":594,"Ġc":595,"Ġ^":596,"tion":597,"46":598,"Ġ2006":599,"ew":600,"49":601,"219":602,"''\\":603,"un":604,"rs":605,"23":606,"ĠJ":607,"el":608,":/":609,"Ġ2004":610,"and":611,"\\\".":612,"Ġ2000":613,"ma":614,"Ġ[":615,"ing":616,"Ġ2005":617,"ik":618,"ee":619,"199":620,"Ġ45":621,"47":622,"ter":623,"ch":624,"Ġ.\\":625,"ĠII":626,"Ġf":627,"Ġ32":628,"Ġ,,\\":629,"Ġof":630,"Ġ1999":631,"www":632,"Ġ+":633,"Ġ2003":634,"Ġi":635,"Ġ70":636,"am":637,"Ġh":638,"ut":639,"Ġ80":640,"2015":641,"):":642,"Ġ36":643,"60":644,"Ġb":645,"Ġ2002":646,"Ġ...":647,"78":648,"Ġv":649,"ur":650,"Ġ01":651,"av":652,"Ġin":653,"Ġ''\\":654,"65":655,"Ġd":656,"Ġ'\\":657,"20131":658,"Ġ90":659,"Ġ\\\"":660,"Ġ1941":661,"ent":662,"bo":663,"Ġ2001":664,"ul":665,"://":666,"Ġ*":667,"........":668,"um":669,"Ġ\"":670,"ĠU":671,"com":672,"80":673,"Ġ500":674,"0161":675,"ĠY":676,"fe":677,"835":678,"op":679,"Ġe":680,"Ġ300":681,"92":682,"2021":683,"Ġ37":684,"200":685,"ff":686,"Ġthe":687,"_\\":688,"70":689,"2191":690,"2016":691,"Ġ38":692,"Ġ33":693,"95":694,"75":695,"Ġ2022":696,"Ġ1991":697,"udc":698,"co":699,"%,":700,"76":701,"by":702,"99":703,"tt":704,"sk":705,"ec":706,"im":707,"Ġl":708,"Ġ42":709,"90":710,"2012":711,"Ġ150":712,"55":713,"bc":714,"2017":715,"0270":716,"st":717,"bd":718,"!.\\":719,"Ġ1992":720,"na":721,"Ġand":722,"67":723,"Ġ34":724,"iv":725,"od":726,"0271":727,"2020":728,"?.":729,"64":730,"Ġ48":731,"Ġ41":732,"53":733,"Ġy":734,"ig":735,"eb":736,"51":737,"66":738,"ore":739,"ta":740,");\\":741,"Ġg":742,"98":743,"Ġ1998":744,"Ġu":745,")\"}":746,"Ġ1995":747,"0283":748,"221":749,"ea":750,"77":751,"024":752,"Ġ1990":753,"ok":754,"ir":755,"%)":756,"________":757,"88":758,"52":759,"ag":760,".),":761,"ttp":762,"83":763,"86":764,":.":765,"Ġ000":766,"ot":767,"ay":768,".)\\":769,"56":770,"id":771,"ine":772,"ĠIII":773,"0272":774,"0107":775,"Ġ%":776,"57":777,"ci":778,"Ġ1996":779,"ĠIn":780,"59":781,"bf":782,"Ġ400":783,"Ġ39":784,"0456":785,"Ġ120":786,"fc":787,"em":788,"fa":789,"Ġ/\\":790,"Ġx":791,"III":792,"500":793,"CE":794,"!!":795,"Ġ--":796,"2010":797,"72":798,"ue":799,"Ġ1997":800,"Ġ44":801,"85":802,"Ġ75":803,"oj":804,"Ġz":805,"cc":806,"ak":807,"ĠXX":808,"Ġde":809,"79":810,"ub":811,"89":812,"aj":813,"017":814,"Ġ55":815,"ers":816,"..\\":817,"Ġ09":818,"68":819,"Ġ02":820,"ey":821,"2011":822,"ite":823,"Ġ65":824,"74":825,"ist":826,"62":827,".{":828,"lo":829,"Ġ08":830,"ess":831,"20141":832,"ian":833,"ep":834,"71":835,"58":836,"----":837,"ap":838,"94":839,"Ġ43":840,"96":841,"023":842,"82":843,"Ġ250":844,"100":845,"Ġ1945":846,"ran":847,"Ġ00":848,"ex":849,"87":850,"84":851,"54":852,"Ġ1994":853,"ni":854,"li":855,"ve":856,"73":857,"Ġ1993":858,"20132":859,"93":860,"Ġq":861,"th":862,"ĠThe":863,"ST":864,"81":865,"Ġ07":866,"Ġon":867,"Ġre":868,"ka":869,"ĠIS":870,"Ġkm":871,"69":872,"Ġto":873,"!\"}":874,"est":875,"...\"}":876,"org":877,"VI":878,"Ġ#":879,"013":880,"Ġ>":881,"ĠQ":882,"Ġ05":883,"Ġhttp":884,"ĠIV":885,"ation":886,"vi":887,"97":888,"hp":889,"91":890,"Ġ1944":891,"Ġ)":892,"Ġ06":893,"Ġ46":894,"Ġ03":895,"up":896,"Ġ*\\":897,"mail":898,"463":899,"0449":900,"Ġ1989":901,"ow":902,"2009":903,"Ġ,\\":904,"Ġwww":905,"Ġ{":906,"ef":907,"Ġ---":908,"Ġ04":909,"0463":910,"Ġ600":911,"iz":912,"Ġ95":913,"Ġ47":914,".:":915,"ufff":916,"ob":917,"ĠSt":918,"0284":919,"Ġ1918":920,"ufffd":921,"af":922,"ou":923,"*\\":924,"0260":925,"ead":926,"Ġ180":927,".\\\"":928,"................":929,"ija":930,"Ġ72":931,"ion":932,"Ġ53":933,".\\\"\\":934,"%),":935,"Ġ54":936,"ted":937,"Ġ64":938,"Ġ51":939,"),\\":940,"omm":941,"Ġr":942,"ĠZ":943,"Ġ194":944,"2192":945,"Ġ49":946,"ip":947,"Ġ140":948,"ev":949,"Ġ52":950,"ond":951,"Ġ1942":952,"Ġ800":953,"Ġda":954,"=\\":955,"la":956,"eg":957,"ĠXI":958,"Ġ1000":959,"ost":960,"Ġ1980":961,"ĠĠ":962,"nik":963,"ĠCh":964,"301":965,"Ġ63":966,"2212":967,"Ġ56":968,"Ġ---\\":969,"0282":970,"Ġ1914":971,"ht":972,";.":973,"ica":974,"for":975,"Ġ..":976,"ru":977,"Ġst":978,"Ġ<":979,"Ġ57":980,"2008":981,"ity":982,",.":983,"0301":984,"BN":985,"Ġ85":986,"Ġ1988":987,"Ġ;":988,"]\"}":989,"ina":990,"'',":991,"tu":992,"uss":993,"+\\":994,"io":995,"pa":996,"ĠISBN":997,"Ġ[...":998,"%..":999,"?!":1000,"ogle":1001,"300":1002,"Ġ58":1003,"Ġ1986":1004,"://\\":1005,"Ġ101":1006,"ĠAn":1007,"Ġ1943":1008,"Ġ1981":1009,"BB":1010,".)..":1011,"oogle":1012,"tic":1013,"Ġ62":1014,".).":1015,"cy":1016,"ack":1017,"Ġ----\\":1018,"Ġ99":1019,"all":1020,"pe":1021,"4301":1022,"0000":1023,"Ġ110":1024,"no":1025,"04301":1026,"dy":1027,"ne":1028,"Ġ1970":1029,"ge":1030,"Ġ700":1031,".-":1032,"Ġ1985":1033,"Ġ\"-":1034,"Ġ61":1035,"rad":1036,"ard":1037,"2005":1038,"ace":1039,"Ġ68":1040,"Ġ1987":1041,"`\\":1042,"2006":1043,"2007":1044,"Ġfor":1045,"erb":1046,"AT":1047,"ij":1048,">\\":1049,"to":1050,"va":1051,"Ġ86":1052,"Ġ73":1053,"Ġ59":1054,"nA":1055,"ord":1056,"hpBB":1057,"ĠMore":1058,"ie":1059,"Ġna":1060,"Ġ1984":1061,"ĠXV":1062,"IN":1063,"Ġ130":1064,"04131":1065,"ts":1066,"Ġ1971":1067,"gov":1068,"ĠCO":1069,"ish":1070,"CEST":1071,"Ġ66":1072,"Ġ67":1073,"....\\":1074,"Ġ1948":1075,"oc":1076,"Ġpro":1077,"'s":1078,"Ġ145":1079,"**":1080,"Ġ1979":1081,"Ġ(\\\"\\":1082,"ĠGoogle":1083,"iti":1084,"&\\":1085,"Ġ1912":1086,"ĠSp":1087,"001":1088,"ib":1089,"0451":1090,"ĠRuss":1091,"ens":1092,"Ġ78":1093,"ric":1094,"Ġ$":1095,"0627":1096,"ati":1097,"Ġ83":1098,"014":1099,"Ġ88":1100,"ĠUn":1101,"AN":1102,"Ġ1974":1103,"201319":1104,"ije":1105,"ate":1106,"Ġ76":1107,"und":1108,"Ġ1982":1109,"400":1110,"Ġ69":1111,"ress":1112,"Ġ160":1113,"Ġ77":1114,"Ġ1960":1115,"\\\\":1116,"Ġ193":1117,"ĠAl":1118,"0455":1119,"ĠAr":1120,"ko":1121,"Ġ1975":1122,"Ġdo":1123,"ski":1124,"041192":1125,"ER":1126,"________________":1127,"ly":1128,"??":1129,"Ġ1983":1130,"me":1131,"our":1132,"ont":1133,"ons":1134,"Ġ--\\":1135,"nO":1136,"Ġ1968":1137,"ks":1138,"Ġ1961":1139,"ach":1140,"ĠRussia":1141,").\"}":1142,"Ġ1978":1143,"ast":1144,"lic":1145,"Ġse":1146,"red":1147,"Ġ1972":1148,"ten":1149,"ct":1150,"ovi":1151,"ust":1152,"nT":1153,"Ġ190":1154,"aoj":1155,"Ġ((":1156,"art":1157,"Ġ71":1158,"IV":1159,"Ġ1939":1160,"Ġ84":1161,"ort":1162,"SS":1163,"ill":1164,"%.":1165,"ĠVI":1166,"Ġ1976":1167,"net":1168,"az":1169,"Ġ1950":1170,"ufb":1171,"Ġ74":1172,"2032":1173,"olog":1174,"AR":1175,"Ġ138":1176,"Ġ1977":1177,"ĠPro":1178,"2004":1179,"Ġ105":1180,".;":1181,"Ġ98":1182,"ug":1183,"mp":1184,"Ġ978":1185,"Ġ1940":1186,"Ġ135":1187,"nC":1188,"Ġ1973":1189,"nK":1190,"--------":1191,"?!\\":1192,"ĠBey":1193,"Ġ1969":1194,"ice":1195,"Ġ350":1196,"Ġ125":1197,"Ġ97":1198,"2000":1199,"ĠBeyond":1200,"Ġ81":1201,"ĠEn":1202,"Ġ1920":1203,"edia":1204,"Ġ96":1205,"Ġ79":1206,"lan":1207,"Ġ93":1208,"020":1209,"are":1210,"sr":1211,"Ġ87":1212,"Ġ82":1213,"Ġ?\\":1214,"ĠNew":1215,"ment":1216,"Ġne":1217,"Ġ'":1218,"Ġ[...]\\":1219,"Read":1220,"uro":1221,"Ġ}":1222,"Ġ91":1223,"041317":1224,"\\\":":1225,"))":1226,"ho":1227,"0144":1228,"Ġ1946":1229,"man":1230,"04252":1231,"qu":1232,"2003":1233,"Ġ1967":1234,"Ġ1953":1235,"!.":1236,"OR":1237,"Ġ:\\":1238,"ĠphpBB":1239,"Ġ92":1240,"Ġza":1241,"ke":1242,"ys":1243,"DF":1244,"CET":1245,"302":1246,"Ġ->":1247,"0457":1248,"ory":1249,"vo":1250,"rip":1251,"rom":1252,"ss":1253,"Ġby":1254,"',":1255,"|\\":1256,"Ġ1915":1257,"VID":1258,"Ġ137":1259,"@\\":1260,"Ġ104":1261,"Ġ!":1262,"2002":1263,"ass":1264,"fd":1265,"ĠComm":1266,"030":1267,"utnik":1268,"Ġ1917":1269,"Ġ1938":1270,"Ġ1965":1271,"book":1272,"Ġ89":1273,"ary":1274,"Ġ170":1275,"uc":1276,"%)..":1277,"ber":1278,"Ġ)\\":1279,"ph":1280,"Ġ106":1281,"Ġ220":1282,"):\\":1283,"go":1284,"Ġhttps":1285,"Ġ1964":1286,"rav":1287,"ki":1288,"}}":1289,":\"}":1290,"ana":1291,"tes":1292,"ich":1293,"Ġ1929":1294,"ld":1295,"1999":1296,"Ġ119":1297,"Ġan":1298,"end":1299,"ree":1300,"oz":1301,"ĠXIX":1302,"log":1303,"2001":1304,"]]":1305,"Ġ1930":1306,"Ġ1966":1307,"df":1308,"ĠVII":1309,"tional":1310,"4302":1311,"Ġ132":1312,"nM":1313,"04302":1314,"gl":1315,"http":1316,"0249":1317,"Ġ1963":1318,"nj":1319,"Ġ[+":1320,"Ġ1919":1321,"Ġ121":1322,"04281":1323,"nI":1324,"ĠMar":1325,"Ġ142":1326,"Ġ94":1327,"ence":1328,"aw":1329,"Ġ108":1330,"Ġbe":1331,"AL":1332,"Ġ102":1333,"...)":1334,"Ġ`\\":1335,"Ġal":1336,"fy":1337,"Ġ1937":1338,"pp":1339,"ĠInter":1340,"Ġ\\\".\\":1341,"Ġ1936":1342,"Ġ||":1343,"her":1344,"Ġ1947":1345,"Ġte":1346,"Ġ1962":1347,"Ġis":1348,"?\"}":1349,",,\\":1350,"Ġ011":1351,"Ġ103":1352,"203":1353,"eT":1354,"ft":1355,"!)":1356,"ĠVIII":1357,"sp":1358,"Ġ107":1359,"nP":1360,"ska":1361,"062":1362,"cf":1363,"ire":1364,"ĠCo":1365,"mer":1366,"220":1367,"lav":1368,"0454":1369,"Ġ1921":1370,"eo":1371,"nS":1372,"hel":1373,"ies":1374,"RA":1375,"Ġ900":1376,"ĠCOVID":1377,"0002":1378,"ry":1379,"Ġ\".":1380,"line":1381,"Ġ131":1382,"Ġ1956":1383,"More":1384,"ju":1385,",...\\":1386,"anje":1387,"osted":1388,"ide":1389,"IC":1390,"rb":1391,"EN":1392,"crip":1393,"Ġ240":1394,"ivers":1395,"Ġ1959":1396,"%.\\":1397,"aB":1398,"064":1399,"Ġ115":1400,"Ġ1935":1401,"Ġ1244":1402,"Ġ134":1403,"Ġ1949":1404,"Ġ1954":1405,"Ġ?":1406,"ĠSerb":1407,"Ġth":1408,"ĠOp":1409,"037":1410,"011":1411,"Ġ1958":1412,"Ġ1934":1413,"Ġ1957":1414,"Ġ111":1415,"Ġ141":1416,"acebook":1417,"Ġ112":1418,"mation":1419,"Ġce":1420,"ear":1421,"ung":1422,"ver":1423,"Ġ450":1424,"ava":1425,"IS":1426,"Ġod":1427,"Ġiz":1428,"Ġ[+]\\":1429,"ih":1430,"php":1431,"Ġ1955":1432,"ude":1433,"Ġ1916":1434,"national":1435,"305":1436,"015":1437,"049":1438,"out":1439,"Ġ1952":1440,"Ġ109":1441,"Ġ[[\\":1442,"Hz":1443,"Ġ136":1444,"ith":1445,"0001":1446,"ork":1447,"ccte":1448,".[\\":1449,"Ġ113":1450,"Ġmm":1451,"cctepa":1452,"%\\":1453,"ll":1454,"201419":1455,"tit":1456,"ĠTe":1457,"ant":1458,"oje":1459,"111":1460,"ON":1461,"20133":1462,"ang":1463,"ws":1464,"orld":1465,"ĠRe":1466,"................................":1467,"Ġ1928":1468,"formation":1469,"0011":1470,"eS":1471,"Ġ1923":1472,"Ġ1913":1473,"EC":1474,"Ġ133":1475,"ĠRead":1476,"raz":1477,"cd":1478,"0138":1479,"Ġpo":1480,"cript":1481,"306":1482,"04101":1483,"PDF":1484,"Ġ1924":1485,"800":1486,"Ġ1931":1487,"ED":1488,"ĠTh":1489,"Ġ144":1490,"ĠAd":1491,"600":1492,"ua":1493,"tis":1494,"ĠDe":1495,".).\\":1496,"ena":1497,"ure":1498,"Ġ1922":1499,"Ġ124":1500,"ron":1501,"Ġ1933":1502,"old":1503,"Ġ1900":1504,"1995":1505,"!\\\"":1506,"ram":1507,"ora":1508,"Ġsp":1509,"].":1510,"Ġ1951":1511,"lj":1512,"ovic":1513,"ell":1514,"SA":1515,"Ġ1903":1516,"Ġ1878":1517,"Ġ114":1518,"land":1519,",,":1520,"Ġ1910":1521,"Ġpol":1522,"101":1523,"ents":1524,"0111":1525,"Ġ128":1526,"rp":1527,"ari":1528,"age":1529,"ara":1530,"Ġ117":1531,"omp":1532,"Ġ210":1533,"Ġ183":1534,"Ġ116":1535,"tem":1536,"RO":1537,"!?":1538,"IT":1539,"Ġ129":1540,"ris":1541,"021":1542,"Ġ1925":1543,"min":1544,"res":1545,"04141":1546,"Ġ118":1547,"ID":1548,"Ġ>>":1549,"ES":1550,"di":1551,"dex":1552,"150":1553,"Ġ(*":1554,"\\\")":1555,"Ġ1932":1556,"ili":1557,"uk":1558,"Ġ),":1559,"XX":1560,"Ġ123":1561,"ĠEuro":1562,"load":1563,"009":1564,"ika":1565,"Ġ!\\":1566,"ĠPl":1567,"120":1568,"ical":1569,"!!!":1570,"Ġ203":1571,"ere":1572,"ube":1573,"Ġinformation":1574,"Ġ1908":1575,"ain":1576,"ĠPh":1577,"ĠJo":1578,"aao":1579,"ren":1580,"ET":1581,"!!!\\":1582,"rig":1583,"20135":1584,"ubl":1585,"0153":1586,"eC":1587,"ros":1588,"1998":1589,"ĠVi":1590,"Ġ212":1591,"ile":1592,"ĠUnivers":1593,"Ġ//":1594,"ĠBo":1595,"Ġ1905":1596,"Ġ@":1597,"pl":1598,"ave":1599,"rac":1600,"Ġ{{":1601,"ĠTo":1602,"iss":1603,"ight":1604,"eA":1605,"tom":1606,"Ġad":1607,"uz":1608,"012":1609,"Ġcm":1610,"ult":1611,"2033":1612,"Ġle":1613,"OS":1614,"ĠSh":1615,"In":1616,"Ġ...\"}":1617,"Ġago":1618,"oci":1619,"ĠWin":1620,"110":1621,"By":1622,"Ġ#\\":1623,"0145":1624,"AD":1625,"sch":1626,"Ġ1927":1627,"ative":1628,"039":1629,"anja":1630,"Ġ122":1631,"--\\":1632,"ven":1633,"Ġ126":1634,"ited":1635,"ĠMob":1636,"0246":1637,"700":1638,"1997":1639,"ans":1640,"Ġ1926":1641,"ĠFacebook":1642,"./":1643,"nal":1644,"osti":1645,"],":1646,"Ġ1911":1647,"per":1648,"nH":1649,"ĠBe":1650,"wit":1651,"ĠCon":1652,"ori":1653,"AC":1654,"ikip":1655,"))\\":1656,"IL":1657,"Ġ175":1658,"Ġja":1659,"0146":1660,"lov":1661,"117":1662,"\\\",\\":1663,"Ġ[-":1664,"0131":1665,"ĠOn":1666,"itel":1667,"own":1668,"ĠEx":1669,"one":1670,"1990":1671,"0631":1672,"Posted":1673,"1945":1674,"0152":1675,"Ġ360":1676,"1996":1677,"Ġet":1678,"0646":1679,"eX":1680,"?)":1681,"Vi":1682,"tal":1683,"ĠRep":1684,"AM":1685,"0142":1686,"Ġsu":1687,"ĠXVIII":1688,")-\\":1689,"381":1690,"Ġ''":1691,"Ġ....":1692,"Ġ(''\\":1693,"0247":1694,"Ġ127":1695,"0405":1696,"ĠMa":1697,"1991":1698,"0244":1699,"04111":1700,"daj":1701,"ontin":1702,"tor":1703,"20136":1704,"Ġ1500":1705,"eM":1706,"ive":1707,"04351":1708,"ĠMo":1709,"erv":1710,"Ġ230":1711,"ĠCre":1712,"che":1713,"rin":1714,"CO":1715,"esti":1716,"Ġen":1717,"ĠMobitel":1718,"ĠMe":1719,"ath":1720,"ĠFor":1721,"sz":1722,"back":1723,"cW":1724,"ada":1725,"307":1726,"04202":1727,"JA":1728,"dows":1729,"Ġar":1730,"04221":1731,"!?\\":1732,"Ġ1848":1733,"lin":1734,"109":1735,"OL":1736,"\\\".\"}":1737,"0248":1738,"Ġ\\\\":1739,"The":1740,"ĠIX":1741,"ata":1742,"ale":1743,"ern":1744,"ani":1745,"107":1746,"ous":1747,"AS":1748,"con":1749,"04381":1750,"ark":1751,"Ġ3000":1752,"eW":1753,"Ġpre":1754,"ton":1755,"witter":1756,"Ġsa":1757,"Ġ185":1758,"04241":1759,"Ġ155":1760,"title":1761,"180":1762,"?\\\"":1763,"308":1764,"ĠXVI":1765,"ikipedia":1766,"les":1767,"alk":1768,"ĠXIV":1769,"BI":1770,"EM":1771,"ĠInternational":1772,"ome":1773,"0644":1774,"achine":1775,"250":1776,"ublic":1777,"gmail":1778,"Ġ165":1779,"~$":1780,"137":1781,"AP":1782,"063":1783,"Ġ2023":1784,"20134":1785,"0101":1786,"1992":1787,"ash":1788,"ance":1789,"Atom":1790,"112":1791,"108":1792,"Ġ1909":1793,"lu":1794,"Ġ153":1795,"Ġ143":1796,"ny":1797,"1918":1798,"ĠJava":1799,"20142":1800,"EL":1801,"ĠUniversity":1802,"ĠWay":1803,"Ġpri":1804,"04142":1805,"==":1806,"Ġpp":1807,"ĠYou":1808,"0103":1809,"125":1810,"Ġ750":1811,"Sp":1812,"ola":1813,"Ġ1904":1814,"Ġun":1815,"ĠIP":1816,"se":1817,"ova":1818,"dd":1819,"0242":1820,"ici":1821,"ĠSch":1822,"Ġ1906":1823,"nD":1824,"lip":1825,"/,":1826,".-\\":1827,"men":1828,"ĠLe":1829,"ign":1830,"ĠRT":1831,"ces":1832,"ĠXII":1833,")[\\":1834,"118":1835,"Ġ139":1836,"Ġ270":1837,"hn":1838,"ams":1839,"ĠFree":1840,"''.":1841,"MD":1842,"Ġ202":1843,"Ġ260":1844,"ull":1845,"tel":1846,"ĠSputnik":1847,"04102":1848,"ai":1849,"04352":1850,"cp":1851,"mo":1852,"Ġ(...)":1853,"ĠMachine":1854,"121":1855,"Ġ~":1856,"Ġ156":1857,"Script":1858,"rat":1859,"ali":1860,"Ġ1876":1861,"Ġla":1862,"https":1863,"016":1864,"ener":1865,"able":1866,"ĠWorld":1867,"Ġ[-]\\":1868,"Ġca":1869,"Ġ1907":1870,"Ġ,,":1871,"fer":1872,"fb":1873,"1994":1874,"Ġ147":1875,"0151":1876,"ontinue":1877,"Ġsam":1878,"nV":1879,"ong":1880,"ml":1881,"ĠMan":1882,"ĠJavaScript":1883,"ML":1884,"ng":1885,"Ġex":1886,"237":1887,"Ġ205":1888,"ĠPol":1889,"Ġob":1890,"eB":1891,"122":1892,"104":1893,"ews":1894,"Ġ152":1895,"ĠCommons":1896,"ini":1897,"ux":1898,"US":1899,"...,":1900,"Ġweb":1901,"ĠĠĠĠ":1902,"ĠWayback":1903,"rag":1904,"eP":1905,"enti":1906,"ĠPress":1907,"ĠCreative":1908,"Ġti":1909,"nN":1910,"132":1911,"04222":1912,"Ġ146":1913,"Ġ184":1914,"ction":1915,"za":1916,"1941":1917,"ĠWindows":1918,"po":1919,"Ġvi":1920,"ATO":1921,"ert":1922,"002":1923,"oft":1924,"sh":1925,"ĠSta":1926,"119":1927,"20137":1928,"right":1929,"Ġ149":1930,"Ġch":1931,"Ġ280":1932,"046":1933,"Ġ1200":1934,"Ġor":1935,"Ġ1896":1936,"105":1937,"102":1938,"ze":1939,"4305":1940,"04353":1941,"Ġjez":1942,"ĠEurope":1943,"ĠTwitter":1944,"cHz":1945,"04305":1946,"okia":1947,"450":1948,"fcr":1949,"135":1950,"ĠTim":1951,"ĠAnd":1952,"Ġ320":1953,"ah":1954,"Ġ154":1955,"Ġ1902":1956,"ck":1957,"ular":1958,"Ġ1901":1959,"ĠHe":1960,"253":1961,"Ġpoliti":1962,"129":1963,"RE":1964,"aA":1965,"0160":1966,"Ġ148":1967,"Ġ173":1968,"ako":1969,"04112":1970,"ima":1971,"!\\\"\\":1972,"glish":1973,"cija":1974,"ene":1975,"123":1976,"ail":1977,"ĠNokia":1978,"Ġ[&":1979,"Ġsv":1980,"lad":1981,"ĠOr":1982,"Ġ163":1983,"248":1984,"142":1985,"ĠNe":1986,"ĠOpen":1987,"ology":1988,"140":1989,"ove":1990,"04211":1991,"ĠIN":1992,"Ġat":1993,"Ġ151":1994,"ownload":1995,"Comm":1996,"130":1997,"dit":1998,"INE":1999,"113":2000,"Ġ650":2001,"ske":2002,"Ġpost":2003,"ogra":2004,"----------------":2005,"hellip":2006,"cl":2007,"PS":2008,"1993":2009,"index":2010,"eK":2011,"ĠXL":2012,"0259":2013,"Ġ1890":2014,"rans":2015,"''.\\":2016,"ĠPop":2017,"ĠRes":2018,"...\\\"":2019,"Ġ159":2020,">>":2021,"193":2022,"Ġ162":2023,"if":2024,"303":2025,"ĠLa":2026,"nW":2027,"aje":2028,"131":2029,"Ġ158":2030,"ters":2031,"Ġ157":2032,"Ġ(+":2033,"Ġ1895":2034,"eD":2035,"Ġ5000":2036,"Ġ550":2037,"ala":2038,"106":2039,"Ġdes":2040,"ĠMil":2041,"ĠMus":2042,"ms":2043,"ture":2044,"Ġwith":2045,"ann":2046,"ĠIns":2047,"ournal":2048,"du":2049,"gy":2050,"::":2051,"istory":2052,"-,":2053,".(":2054,"145":2055,"Ġ161":2056,"Ġ167":2057,"nE":2058,"Ġdi":2059,"320":2060,"nAU":2061,"ase":2062,"ual":2063,"ĠPar":2064,"Ġno":2065,"orn":2066,"Ġ186":2067,"0394":2068,"RI":2069,"Ġ168":2070,"kt":2071,"ograd":2072,"093":2073,"cphpBB":2074,"210":2075,"que":2076,"OM":2077,"Ġ166":2078,"Ġkg":2079,"Ġ1804":2080,"Ġ164":2081,"ind":2082,"ame":2083,"ĠCol":2084,"Ġfrom":2085,"ood":2086,"ike":2087,"eq":2088,"1989":2089,"son":2090,"20138":2091,"350":2092,"ku":2093,"Ġsh":2094,"Ġit":2095,"rv":2096,"04212":2097,"138":2098,"era":2099,"Ġpar":2100,"124":2101,"ations":2102,"\\\"..":2103,"nJ":2104,"Ġ1880":2105,")-":2106,"ĠSci":2107,"por":2108,"Ġ192":2109,"116":2110,"ĠXIII":2111,"ild":2112,"ĠFran":2113,"ords":2114,"gor":2115,"Ġ-----\\":2116,"ational":2117,"0148":2118,"201318":2119,"Ġ177":2120,"aho":2121,"Ġ172":2122,"!),":2123,"Ġas":2124,"Ġ[...]":2125,"ank":2126,"can":2127,"ĠGu":2128,"Ġ174":2129,"EO":2130,"ĠSrb":2131,"ower":2132,"141":2133,"ier":2134,"Ġ169":2135,"Ġ1898":2136,"Ġ(-":2137,"Ġmore":2138,"ĠUN":2139,"161":2140,"4432":2141,"Ġ176":2142,"ones":2143,"ĠXVII":2144,"04432":2145,"Ġ1899":2146,"ĠCar":2147,"ĠNo":2148,"Ġ225":2149,"184":2150,"aster":2151,"0628":2152,"ink":2153,"ĠISO":2154,"ahoo":2155,"ĠNews":2156,"Ġ?.\\":2157,"Ġ178":2158,"Ġ204":2159,"ĠPri":2160,"nov":2161,"rit":2162,"Ġ1897":2163,"nije":2164,"165":2165,"211":2166,"04253":2167,"ese":2168,"04201":2169,"226":2170,"nost":2171,"234":2172,"ick":2173,"Ġ215":2174,"Ġ1867":2175,"ral":2176,")).":2177,"\\\"),":2178,"IA":2179,"BC":2180,"Ġ\"\\\"\\":2181,"Ġ179":2182,"ĠIMD":2183,"bal":2184,"Ġ1892":2185,"ĠAmer":2186,"Ġ2025":2187,"04261":2188,"Ġ211":2189,"139":2190,"0007":2191,"Ġro":2192,"ock":2193,"160":2194,"EE":2195,"Ġac":2196,"194":2197,"ĠON":2198,"eni":2199,"au":2200,"Ġus":2201,"dA":2202,"ĠCl":2203,"Ġph":2204,"MS":2205,"rop":2206,"pdf":2207,"ĠIs":2208,"1985":2209,"Ġcomm":2210,"ics":2211,"opy":2212,"uth":2213,"oja":2214,"254":2215,"Ġ064":2216,"ĠIMDb":2217,"134":2218,"Ġ330":2219,".+":2220,"0147":2221,"ĠDownload":2222,"0395":2223,"ĠAg":2224,"tions":2225,"tics":2226,"Ġ171":2227,"900":2228,"'.":2229,"int":2230,"Ġ1882":2231,"Ġist":2232,"1988":2233,"ĠLim":2234,"04223":2235,"utsch":2236,"Ġop":2237,"387":2238,"214":2239,"eri":2240,"672":2241,"341":2242,"of":2243,"unt":2244,"1986":2245,"Ġme":2246,"eL":2247,"0565":2248,"136":2249,"332":2250,"Ġ1875":2251,"Ġ1894":2252,"aja":2253,"Ġ340":2254,"114":2255,"Ġ181":2256,"Ġ1870":2257,"Ġ:)":2258,"las":2259,"Ġ1889":2260,"170":2261,"Ġ..\\":2262,"wikipedia":2263,"2605":2264,"iet":2265,"103":2266,"031":2267,"Ġ1885":2268,"ĠPe":2269,"udf":2270,"003":2271,"240":2272,"Ġpolitika":2273,"oris":2274,"ins":2275,"Ġ1888":2276,",\\\"":2277,"enje":2278,"dak":2279,"Ġ187":2280,"________________________________":2281,"RS":2282,"Ġkoj":2283,"Ġ).":2284,"ĠAc":2285,"04262":2286,"Ġ365":2287,"aoje":2288,"Ġrad":2289,"ings":2290,"Ġ182":2291,"22121":2292,"IP":2293,"Ġ235":2294,"eF":2295,"ele":2296,"168":2297,"ĠSte":2298,"ĠRom":2299,"115":2300,"html":2301,"ystem":2302,"189":2303,"1984":2304,"eThe":2305,"Ġ1860":2306,"Ġ4000":2307,"cq":2308,"ublish":2309,"ole":2310,"133":2311,"Ġhe":2312,"UN":2313,"232":2314,"eE":2315,"hr":2316,"mi":2317,"ĠComp":2318,"Ġ1893":2319,"Ġ2030":2320,"nd":2321,"Ġ1389":2322,"?,":2323,"ĠHT":2324,"ĠWar":2325,"Ġknj":2326,"TA":2327,"Ġjezik":2328,"Ġ021":2329,"Sub":2330,"ĠDis":2331,"Ġ1881":2332,"ĠBlog":2333,"tiv":2334,".(\\":2335,"Ġ::":2336,"info":2337,"^\\":2338,"Ġ189":2339,"nB":2340,"ĠRo":2341,"nF":2342,"ool":2343,"1987":2344,"Ġ206":2345,"amp":2346,"Ġ1868":2347,"Ġcon":2348,"igh":2349,"Ġ188":2350,"mb":2351,"Ġsrp":2352,"340":2353,"ĠSerbia":2354,"ila":2355,"Sputnik":2356,"xx":2357,"2265":2358,"0019":2359,"127":2360,"titu":2361,".]\\":2362,"309":2363,"IM":2364,"gu":2365,"rba":2366,"Ġ222":2367,"Ġ232":2368,"Ġ1830":2369,"hat":2370,"342":2371,"Ġ840":2372,"Ġ1884":2373,"Ġve":2374,"Ġ241":2375,"Ġ1800":2376,"dc":2377,"...{":2378,"Ġha":2379,"iji":2380,"Ġ%,":2381,"+,":2382,"ĠBl":2383,"edu":2384,"earch":2385,"SubComm":2386,"ĠLimited":2387,"VIII":2388,"van":2389,"gram":2390,"ĠNov":2391,"eN":2392,"ha":2393,"ĠXXX":2394,"ras":2395,"RL":2396,"LINE":2397,"ĠMic":2398,"ĠMon":2399,"1980":2400,"ĠAir":2401,"1981":2402,"Ġder":2403,"Ġ\\\",":2404,"175":2405,"ino":2406,"1983":2407,"190":2408,"ei":2409,"04224":2410,"ames":2411,"215":2412,"ĠMA":2413,"ning":2414,"ĠOnline":2415,"Ġ:.\\":2416,"ional":2417,"143":2418,"Ġund":2419,"ital":2420,"0645":2421,"DA":2422,"Ġsz":2423,"ery":2424,"163":2425,"0141":2426,"4303":2427,"1982":2428,"Ġ=>":2429,"Ġ290":2430,"ix":2431,"04303":2432,".[":2433,"TS":2434,"Ġ191":2435,"ĠDO":2436,"Ġup":2437,"4306":2438,"rid":2439,"Ġ1815":2440,"04306":2441,"ĠMag":2442,"rz":2443,"port":2444,"230":2445,"ĠArch":2446,"ĠEU":2447,"nih":2448,"158":2449,"%).":2450,"Ġ208":2451,"ii":2452,"dw":2453,"eR":2454,"Ġmil":2455,"Ġ207":2456,"Ġ226":2457,"Ġ11000":2458,"Ġmon":2459,"Ġ&\\":2460,"wn":2461,"nR":2462,"erson":2463,"Ġ238":2464,"nG":2465,"242":2466,"04143":2467,"roup":2468,"Ġgod":2469,"ony":2470,"Ġ218":2471,"ĠPre":2472,"ĠGe":2473,"Ġ221":2474,"pr":2475,"ors":2476,"047":2477,"KA":2478,"0192":2479,"375":2480,"/.":2481,".);":2482,"Ġ1877":2483,"Ġ1883":2484,"Ġ217":2485,"159":2486,"eO":2487,"ovo":2488,"eta":2489,"Ġos":2490,"phpbb":2491,"ement":2492,"irnije":2493,"128":2494,"Ġ;\\":2495,"239":2496,"tive":2497,"ufe":2498,"ĠAss":2499,"Ġ1871":2500,"#\\":2501,"rest":2502,"edi":2503,"ĠNATO":2504,"ĠONLINE":2505,"Ġ***":2506,"mes":2507,"Ġ256":2508,"Ġ1886":2509,"Ġwee":2510,"ga":2511,"ĠStud":2512,"ax":2513,"Ġ(.":2514,"bor":2515,"155":2516,"yn":2517,"185":2518,"acija":2519,"CI":2520,"eu":2521,"205":2522,"Ġli":2523,"Ġmo":2524,"Ġ209":2525,"Ġdel":2526,"Ġ213":2527,"nII":2528,"oll":2529,"Ġ216":2530,"ĠFil":2531,"0149":2532,"0648":2533,"iki":2534,"0561":2535,"ars":2536,"ria":2537,"ĠYork":2538,"1979":2539,"Ġpos":2540,"nog":2541,"ato":2542,"\\\";":2543,"ĠBel":2544,"ais":2545,"201418":2546,"Ġba":2547,"1978":2548,"ky":2549,"241":2550,"Ġinter":2551,"Ġov":2552,"}}\\":2553,"Ġ1861":2554,"ĠSoci":2555,"oph":2556,"ĠRad":2557,"0633":2558,"RC":2559,"Ġ1869":2560,"irs":2561,"Ġ.\"}":2562,")?":2563,"Ġread":2564,"ĠApp":2565,"cE":2566,"urg":2567,"alis":2568,"Ġ@\\":2569,"JE":2570,"0639":2571,"0304":2572,"Ġ214":2573,"IX":2574,"grad":2575,"pro":2576,"ĠPlus":2577,"eH":2578,"04283":2579,"opyright":2580,"ĠSR":2581,"zi":2582,"Ġili":2583,"}\\":2584,"yle":2585,"Ġ1879":2586,"Ġ219":2587,"eder":2588,"DE":2589,"Fran":2590,"ĠTop":2591,"1000":2592,"low":2593,"ense":2594,"eG":2595,"Ġ380":2596,"ĠJe":2597,"04144":2598,".....":2599,"{{":2600,"0010":2601,"04382":2602,"Ġ850":2603,"Ġqu":2604,"ano":2605,"207":2606,"844":2607,"nL":2608,"288":2609,"mm":2610,"2116":2611,"Ġ1891":2612,"ĠWeb":2613,"Ġ245":2614,"vic":2615,"Ġ|\\":2616,"doj":2617,"04251":2618,"ade":2619,"217":2620,"vod":2621,"1970":2622,"Ġ1887":2623,"oslav":2624,"erman":2625,"OP":2626,"!{":2627,"2122":2628,"ek":2629,"ner":2630,"Ġyou":2631,"ĠOff":2632,"ns":2633,"ĠGre":2634,"rist":2635,"ehttps":2636,"04282":2637,"Ġpod":2638,"ps":2639,"Ġmi":2640,"04132":2641,"144":2642,"ĠAll":2643,"val":2644,"Ġ234":2645,"2208":2646,"ĠCS":2647,"BA":2648,"oldid":2649,"Ġ1813":2650,"257":2651,"iju":2652,"VII":2653,"iam":2654,"St":2655,"Ġ310":2656,"ĠCent":2657,"qus":2658,"olu":2659,"Ġ237":2660,"eas":2661,"018":2662,"Ġka":2663,"UT":2664,"243":2665,"vor":2666,"Ġ233":2667,"day":2668,"lex":2669,"ION":2670,"HE":2671,"042650":2672,"Ġvo":2673,"Ġco":2674,"038":2675,"rosoft":2676,"iel":2677,"view":2678,"ĠVol":2679,"fx":2680,"Ġ223":2681,"0129":2682,"261":2683,"dakcija":2684,"?\\\"\\":2685,"Ġ231":2686,"rib":2687,"Ġbi":2688,"461":2689,"Ġ1850":2690,"280":2691,"1975":2692,"005":2693,"lobal":2694,"ĠPor":2695,"area":2696,"04263":2697,"290":2698,"ĠYahoo":2699,"Ġ236":2700,"ban":2701,"Ġsi":2702,"ĠIC":2703,"ĠView":2704,"Ġrep":2705,"Ġraz":2706,"ĠHTML":2707,"ium":2708,"ĠLi":2709,"0143":2710,"De":2711,"ĠHistory":2712,"1914":2713,"ona":2714,"eneral":2715,"126":2716,"236":2717,"Ġpl":2718,"04152":2719,"Ġres":2720,"260":2721,"Ġdis":2722,"156":2723,"04242":2724,"022":2725,"ĠQu":2726,"Ġredakcija":2727,"048":2728,"187":2729,"164":2730,"ING":2731,"Ġ239":2732,"Ġ).\\":2733,"ĠNational":2734,"Ġ227":2735,"Ġ420":2736,"148":2737,"act":2738,"ĠPC":2739,"1969":2740,"Ġ1872":2741,"Pol":2742,"223":2743,"146":2744,"Ġ........":2745,"NU":2746,"nX":2747,"rain":2748,"fr":2749,"Pro":2750,"Ġ242":2751,"Ġ275":2752,"Ġstran":2753,"ĠRSS":2754,"ĠEl":2755,"ĠSerbian":2756,"*,":2757,"0576":2758,"tese":2759,"Ġ440":2760,"Ġ1863":2761,"Ġ224":2762,"amster":2763,"SD":2764,"vet":2765,"Ġaut":2766,"192":2767,"0139":2768,"oto":2769,"1974":2770,"LA":2771,"ĠWord":2772,"ĠST":2773,"Ġ1866":2774,"ler":2775,"den":2776,"cG":2777,"268":2778,"1976":2779,"277":2780,"form":2781,"1972":2782,"ĠHIV":2783,"vis":2784,"Ġ1864":2785,"Hamster":2786,"Ġfull":2787,"Ġ1862":2788,"1977":2789,"del":2790,"Ġ1700":2791,"rt":2792,"SN":2793,"ger":2794,"ĠMy":2795,"ican":2796,"ĠJohn":2797,"Ġdu":2798,"04213":2799,"nosti":2800,"0108":2801,"ĠSc":2802,"1971":2803,"ricted":2804,"aW":2805,"Ġ251":2806,"152":2807,"ietu":2808,"0241":2809,"ĠLib":2810,"ĠCom":2811,"let":2812,"195":2813,"has":2814,"Ġdr":2815,"ĠInd":2816,"adem":2817,"ĠPDF":2818,"alo":2819,".,\\":2820,"restricted":2821,"dae":2822,"Ġ:)\\":2823,"ĠFE":2824,"cj":2825,"1973":2826,"Ġper":2827,"restrictedarea":2828,"ĠBeograd":2829,"ound":2830,",+":2831,"bg":2832,"ĠSy":2833,"Ġ370":2834,"ĠURL":2835,"1968":2836,"we":2837,"amb":2838,"any":2839,"Co":2840,"ita":2841,"008":2842,"1944":2843,"0580":2844,"km":2845,"169":2846,"AF":2847,"ĠHer":2848,"mus":2849,"Ġ1300":2850,"nHD":2851,"sa":2852,"Ġ265":2853,"uman":2854,"jen":2855,"ural":2856,"Ġel":2857,"atvi":2858,"Ġ228":2859,"Ġ325":2860,"149":2861,"press":2862,"1967":2863,"ator":2864,"2264":2865,"elop":2866,"ĠKB":2867,"din":2868,"Ġmet":2869,"SP":2870,"0641":2871,"CC":2872,"2248":2873,"Ġab":2874,"2206":2875,"ula":2876,"Ġ255":2877,"ĠBro":2878,"tent":2879,"Ġ1600":2880,"ote":2881,"Ġthat":2882,"))\"}":2883,"Ġ404":2884,"ĠDes":2885,"].\\":2886,"2023":2887,"321":2888,"ĠEnglish":2889,"Ġ229":2890,"Ġ480":2891,"Ital":2892,"ovan":2893,"iano":2894,"Tube":2895,"bar":2896,"183":2897,"Ġ253":2898,"Ġ244":2899,"dq":2900,"157":2901,"atch":2902,"Ġbro":2903,"ĠSan":2904,"Ġoff":2905,"ĠPet":2906,"der":2907,"ĠPo":2908,"OV":2909,"ater":2910,"224":2911,"04104":2912,"ograph":2913,"ĠCor":2914,"Ġ305":2915,"IF":2916,"ĠCan":2917,"84433":2918,"222":2919,"lje":2920,"Ġ1865":2921,"213":2922,"chn":2923,"Press":2924,"Ġfil":2925,"Ġ1873":2926,"04284":2927,"skog":2928,"roid":2929,"ĠSec":2930,");.":2931,"omen":2932,")),":2933,"ĠContinue":2934,"lick":2935,"..\"}":2936,"oli":2937,"loven":2938,"Ġ243":2939,"209":2940,"eY":2941,"etn":2942,"ake":2943,"Ġreading":2944,"ĠEuropean":2945,"????":2946,"0406":2947,"Ġ1835":2948,"...\\\"\\":2949,"ĠTimes":2950,"./\\":2951,"0419":2952,"/.\\":2953,"OT":2954,"?!.\\":2955,"Ġdru":2956,"Ġ1839":2957,"blog":2958,"jer":2959,"Ġ246":2960,"04103":2961,"Ġ1874":2962,"ondon":2963,"ĠXXI":2964,"cation":2965,"ycan":2966,"jave":2967,"ĠScience":2968,"Ġweeks":2969,"238":2970,"LE":2971,"bben":2972,"Ġ313":2973,"rbaycan":2974,"ĠNor":2975,"ĠBi":2976,"srb":2977,"outube":2978,"147":2979,"\\\").":2980,"SR":2981,"ĠTrav":2982,"1964":2983,"Dis":2984,"ook":2985,"004":2986,"Ġwh":2987,"Ġ1840":2988,"Ġ2500":2989,"lect":2990,"aoja":2991,"nIII":2992,"Ġ301":2993,"1939":2994,"ZS":2995,"1966":2996,"Ġ259":2997,"szle":2998,"Ġkom":2999,"Ġ1812":3000,"Ġ1857":3001,"Ġ]":3002,"04355":3003,"das":3004,"nu":3005,"cs":3006,"att":3007,"Ġ252":3008,"1960":3009,"007":3010,"Ġ249":3011,"szletese":3012,"szletesebben":3013,"153":3014,"gi":3015,")?\\":3016,"ovid":3017,"'.\\":3018,"ufeff":3019,"Ġ1849":3020,"Ġ1847":3021,"Ġ247":3022,"anu":3023,"229":3024,"tura":3025,"ĠBar":3026,"ety":3027,"rvat":3028,"uthor":3029,"gra":3030,"cus":3031,"OG":3032,"251":3033,"Ġ316":3034,"AG":3035,"Ġima":3036,"Ġ%)":3037,"ret":3038,"BISS":3039,"irst":3040,"orum":3041,"1878":3042,"oth":3043,"Ch":3044,"Ġjo":3045,"oran":3046,"04121":3047,"ĠSer":3048,"208":3049,"151":3050,"ĠJournal":3051,"hem":3052,"ĠCD":3053,"iked":3054,"dan":3055,"Ġkoji":3056,"ĠBook":3057,"?),":3058,"`,":3059,"nja":3060,"outh":3061,"206":3062,"Ġ1858":3063,"Ġjed":3064,"Id":3065,"urs":3066,"1961":3067,"\\\"\"}":3068,"Ġ285":3069,"275":3070,"154":3071,"ley":3072,"Ġ263":3073,"Ġkao":3074,"ox":3075,"Ġ254":3076,"0233":3077,"Words":3078,"led":3079,"uri":3080,"04254":3081,"cb":3082,"ura":3083,"Ġ{{\\":3084,"365":3085,"jan":3086,"ĠNet":3087,"way":3088,"330":3089,"ĠDan":3090,"MoreSubComm":3091,"hasMoreSubComm":3092,"hasMoreSubComments":3093,".]":3094,"jo":3095,"Ġnov":3096,"opis":3097,"249":3098,"oldo":3099,"Ġer":3100,"!,":3101,"Ġfac":3102,"ĠTr":3103,"ĠMed":3104,"ĠPa":3105,"1929":3106,"360":3107,"196":3108,"ĠPopular":3109,"ĠJa":3110,"042817":3111,"ĠPublic":3112,"264":3113,"En":3114,"272":3115,"497":3116,"\\\")\\":3117,"ĠEN":3118,"ref":3119,"Ġ1859":3120,"reb":3121,"212":3122,"iva":3123,"Ġ1806":3124,"rem":3125,"bA":3126,"166":3127,"0162":3128,"162":3129,"dal":3130,"ĠSm":3131,"................................................................":3132,"PL":3133,"ĠReg":3134,"ĠSim":3135,"245":3136,"Ġreg":3137,"Ġra":3138,"als":3139,"ius":3140,"Ġsk":3141,"1965":3142,"++":3143,"Ġpr":3144,"ĠInstitu":3145,"ĠReading":3146,"IG":3147,"Ġ264":3148,"ĠMicrosoft":3149,"exy":3150,"Ġstud":3151,"2030":3152,"ĠSi":3153,"iness":3154,"Ġ248":3155,"ĠLondon":3156,"ĠAs":3157,"Ġ303":3158,"ji":3159,"work":3160,"...)\\":3161,"056":3162,"167":3163,"019":3164,"Lietu":3165,"eno":3166,"ise":3167,"atin":3168,"ternational":3169,"ward":3170,"ĠSystem":3171,"CH":3172,"ject":3173,"cA":3174,"Ġ%..":3175,"Ġ271":3176,"Latvi":3177,"Ġ262":3178,"ĠUSA":3179,"ĠAdWords":3180,"265":3181,"enn":3182,"ĠMAIL":3183,"...),":3184,"Ġ1838":3185,"ĠUnited":3186,"ĠLin":3187,"IR":3188,"jp":3189,"Ġmed":3190,"ĠFEED":3191,"Ġ430":3192,"ĠGeneral":3193,",/":3194,"duc":3195,"Ġ1833":3196,"1963":3197,"arod":3198,"Ġmin":3199,"Ġ063":3200,"forum":3201,"ĠSup":3202,"Ġ6000":3203,"ilo":3204,"ĠTer":3205,"Ġ1856":3206,"fi":3207,"ĠGr":3208,"izjave":3209,"ocia":3210,"omo":3211,"ĠPM":3212,"arm":3213,"EF":3214,"Ġ304":3215,"Ġ`":3216,"ĠDev":3217,"076":3218,"oma":3219,"angu":3220,"ty":3221,"Th":3222,"ĠOpenId":3223,"avas":3224,"Disqus":3225,"ĠMet":3226,"CD":3227,"dis":3228,"ĠKos":3229,"Ġ**":3230,"Ġ(@\\":3231,"uts":3232,"Ġpe":3233,"nos":3234,"4307":3235,"Ġare":3236,"pol":3237,"252":3238,"Moldo":3239,"MA":3240,"322":3241,"Ġ257":3242,"04307":3243,"Ġ268":3244,"Ġsta":3245,"asa":3246,"04151":3247,"Ġ1844":3248,"enja":3249,"Ġ(=":3250,"bek":3251,"ARS":3252,"Ġ306":3253,"ism":3254,"np":3255,"Ġthis":3256,"Ġ_":3257,"ĠFl":3258,"1920":3259,"6587":3260,"Ġ261":3261,"Ġ401":3262,"UL":3263,"Ġplan":3264,"%).\\":3265,".--":3266,"ĠAm":3267,"Ġ315":3268,"Ġ1100":3269,"rick":3270,"ever":3271,"Ġimp":3272,"))).":3273,"0245":3274,"xy":3275,"usiness":3276,"!)\\":3277,"ĠGroup":3278,"Ġ272":3279,"Ġbr":3280,"afa":3281,"Ġ273":3282,"ĠXHamster":3283,"ĠMac":3284,"cess":3285,"cted":3286,"ges":3287,"1950":3288,"ane":3289,"cegov":3290,"Ġonline":3291,"ĠIma":3292,"ther":3293,"641":3294,"370":3295,"ĠISSN":3296,"092":3297,"Ġ1841":3298,"ĠPost":3299,"PA":3300,"Ġ298":3301,"ange":3302,"Ġ266":3303,"04182":3304,"Ġfo":3305,"Ġ288":3306,"atest":3307,"ĠBu":3308,"451":3309,"Ġ1846":3310,"Ġ307":3311,"Ġ311":3312,"ĠPhil":3313,"Ġam":3314,"ĠMedia":3315,"ize":3316,"gar":3317,"1948":3318,"app":3319,"ĠYouTube":3320,"cm":3321,"ĠBest":3322,"Ġ{\\":3323,"Ġ2024":3324,"\\\"\\\"":3325,"______":3326,"Ġval":3327,"Ġ0007":3328,"Ġ258":3329,"Ġ1842":3330,"Ġperson":3331,"Ġ1834":3332,"1933":3333,"4341":3334,"0461":3335,"IK":3336,"rome":3337,"171":3338,"comm":3339,"310":3340,"Ġman":3341,"04341":3342,")...\\":3343,"pri":3344,"Ġ1814":3345,"Ar":3346,"istor":3347,"ford":3348,"Ġ269":3349,"1912":3350,"Ġ381":3351,"Ġ283":3352,"Ġcol":3353,"ĠNat":3354,"233":3355,"ĠSw":3356,"avascript":3357,"fcrk":3358,"ien":3359,"188":3360,"Ġ323":3361,"Ġcan":3362,"ATAL":3363,"ĠAndroid":3364,"Ġprote":3365,"los":3366,"Ġ267":3367,"CP":3368,"380":3369,"rol":3370,"178":3371,"spa":3372,"ures":3373,"1938":3374,"179":3375,"750":3376,"entar":3377,"~\\":3378,"282":3379,"1962":3380,"Ġ324":3381,"323":3382,"caj":3383,"Ġ299":3384,"iana":3385,"Ġ308":3386,"Ġag":3387,"enter":3388,"Ġ333":3389,"258":3390,"var":3391,"Ġvide":3392,"ald":3393,"its":3394,"266":3395,"Ġ1852":3396,"Ġ312":3397,"stat":3398,"Un":3399,"0176":3400,"Ġadmin":3401,".);\\":3402,"04402":3403,"Ġter":3404,"ĠPer":3405,"270":3406,"ĠMusic":3407,"Ġ1809":3408,"235":3409,"tr":3410,"ĠLAP":3411,"0012":3412,"333":3413,"04113":3414,"eJ":3415,"ĠBos":3416,"ĠBr":3417,"Ġ293":3418,"drav":3419,"ĠPlay":3420,"acije":3421,"Ġ335":3422,"ĠHIVATAL":3423,"tina":3424,"uns":3425,"tain":3426,"Det":3427,"ĠOF":3428,"231":3429,"ble":3430,"04214":3431,"ĠChar":3432,"284":3433,"ĠHIVATALOS":3434,"Ġ309":3435,"une":3436,"Ġ281":3437,"Ġ276":3438,"Ġ279":3439,"alth":3440,"Ġcomp":3441,"0004":3442,"204":3443,"nIn":3444,"nZ":3445,"ware":3446,"1954":3447,"ĠLAPJA":3448,"ĠOffice":3449,"0398":3450,"650":3451,"Ġsup":3452,"cep":3453,"1959":3454,"ĠRec":3455,"274":3456,"ĠBer":3457,"izev":3458,"ĠInstitute":3459,"{\\":3460,"Ġ286":3461,"Ġpra":3462,"]]\\":3463,"Ġ]\\":3464,"get":3465,"033":3466,"Ġvon":3467,"Ġ278":3468,"0110":3469,"Ġ295":3470,"Ġ355":3471,"fic":3472,"ĠDr":3473,"aq":3474,"ĠSP":3475,"Ġuz":3476,"4308":3477,"0119":3478,"alkan":3479,"Ġnis":3480,"1940":3481,"Ġ287":3482,"ute":3483,"Ġ1690":3484,"Ġpdf":3485,"04308":3486,"grade":3487,"ĠSz":3488,"ICA":3489,"04122":3490,"ĠYU":3491,"Ġ277":3492,"ĠDo":3493,"lja":3494,"UR":3495,"ract":3496,"EG":3497,"1958":3498,"ĠAmerican":3499,"]],":3500,"1934":3501,"ĠUS":3502,"****":3503,"296":3504,"ĠTravian":3505,"292":3506,"329":3507,"Ġ540":3508,"unc":3509,"ervice":3510,"voj":3511,"conom":3512,"ĠBy":3513,"Ġ>>\\":3514,"ym":3515,"ĠMin":3516,"nom":3517,"tical":3518,"arch":3519,"nv":3520,"lim":3521,"391":3522,"Ġ274":3523,"ulture":3524,"345":3525,"\\\"?":3526,"ologija":3527,"evic":3528,"191":3529,"redi":3530,"Ġ+\\":3531,"0164":3532,"04431":3533,"\\\").\\":3534,"inter":3535,"317":3536,"Ġpop":3537,"iver":3538,"%;":3539,"bi":3540,"182":3541,"Ġ460":3542,"006":3543,"Ġ284":3544,"Ġ1818":3545,"Ġps":3546,"Ġ390":3547,"225":3548,"Ġ318":3549,"Ġ1836":3550,"ĠLu":3551,"eV":3552,"174":3553,"1953":3554,"kg":3555,"247":3556,"teri":3557,"Ġ282":3558,"NA":3559,"ĠAP":3560,"Ġ375":3561,"041112":3562,"ĠFire":3563,"ditaj":3564,"Ġ1853":3565,"1930":3566,"row":3567,"04354":3568,"Ġ302":3569,"04385":3570,".'\\":3571,"uff":3572,"ument":3573,"chen":3574,"ĠCity":3575,"Ġ410":3576,"ĠItal":3577,"OD":3578,"176":3579,"181":3580,"Ġ451":3581,"04383":3582,"Ġ________________":3583,"ĠMi":3584,"otor":3585,"ĠDav":3586,"ĠWh":3587,"ĠRob":3588,"Ġ1827":3589,"198":3590,"094":3591,"jpg":3592,"$\\":3593,"EP":3594,"!).":3595,")(\\":3596,"/-":3597,"ez":3598,"0491":3599,"Serb":3600,"Ġ520":3601,"ĠGerman":3602,"lag":3603,"risti":3604,"nIV":3605,"ĠHar":3606,"lat":3607,"kom":3608,"177":3609,"Ġ1400":3610,"Ġkon":3611,"173":3612,"Ġ342":3613,"ulti":3614,"Ġ289":3615,"ultura":3616,"412":3617,"ĠMB":3618,"umb":3619,"ime":3620,"Ġmonth":3621,"Ġ337":3622,"ĠResearch":3623,"4300":3624,")=":3625,"???":3626,"Ġ950":3627,"Ġ________":3628,"olo":3629,",...":3630,"ury":3631,"4342":3632,"216":3633,"IST":3634,"197":3635,"218":3636,"Ġ1837":3637,",\"}":3638,"04116":3639,"Ġpa":3640,"reme":3641,"eiv":3642,"help":3643,"0629":3644,"Ġpoz":3645,"04105":3646,"cu":3647,"ester":3648,"ĠAN":3649,"ĠKo":3650,"04342":3651,"Ġtr":3652,"ring":3653,"tio":3654,"1921":3655,"eje":3656,"uch":3657,"MHz":3658,"0106":3659,"316":3660,"ield":3661,"))..":3662,"Al":3663,"0393":3664,"odo":3665,"eja":3666,"ial":3667,"eng":3668,"ĠFo":3669,"0465":3670,"nCopyright":3671,"1952":3672,"tet":3673,"ĠUni":3674,"ugoslav":3675,"stvo":3676,"Ġsrb":3677,"ĠIT":3678,"1936":3679,"Ġknjizev":3680,"ya":3681,"186":3682,"ael":3683,"cegovina":3684,"kl":3685,"ĠWe":3686,"Ġmere":3687,"1935":3688,"ĠSal":3689,"Ġ\"(\\":3690,"04219":3691,"Ġ720":3692,"play":3693,"Ġ470":3694,"elopment":3695,"ĠAR":3696,"1946":3697,"ĠNA":3698,"Ġed":3699,"1955":3700,"unda":3701,"si":3702,"par":3703,"04300":3704,"iko":3705,"Ġ297":3706,"......":3707,"ĠReal":3708,"Ġsve":3709,"ition":3710,"1956":3711,"jed":3712,"cycl":3713,"04285":3714,"ero":3715,"Ġ294":3716,"4309":3717,"zab":3718,"050":3719,"1957":3720,"2013199":3721,"Ġ395":3722,"ico":3723,"illa":3724,"04309":3725,"BS":3726,"Ġ1854":3727,"inal":3728,"Ġnije":3729,"ized":3730,"Ġ(@":3731,"Ġmem":3732,"ision":3733,"Ġpred":3734,"ĠPower":3735,"Ġ321":3736,"Ġ1851":3737,"ĠAssocia":3738,"Ġtre":3739,"mar":3740,"319":3741,"atal":3742,"ĠDV":3743,"ose":3744,"uje":3745,"Ġ0006":3746,"Ġ9001":3747,"ĠAt":3748,"atri":3749,"MP":3750,"0173":3751,"ĠSo":3752,"295":3753,"Ġvel":3754,"vious":3755,"ĠSu":3756,"ĠTele":3757,"456":3758,"cyclop":3759,"here":3760,"dE":3761,"Ġ560":3762,"Ph":3763,"Ġaz":3764,"rk":3765,"Ġpor":3766,"ridge":3767,"Ġall":3768,"!...\\":3769,"BR":3770,"Ġ317":3771,"ross":3772,"osa":3773,"0250":3774,"DP":3775,"ĠWill":3776,"Ġ296":3777,"Ġ334":3778,"1947":3779,"=.":3780,"====":3781,"unk":3782,"gen":3783,"ĠDel":3784,"Sh":3785,"vel":3786,"dx":3787,"Ġapp":3788,"hercegovina":3789,"eI":3790,"win":3791,"PH":3792,"udi":3793,"04411":3794,"228":3795,"04356":3796,"Ġ060":3797,"ĠCons":3798,"ĠHa":3799,"Ġ322":3800,"oni":3801,"nt":3802,"berg":3803,"Ġ1845":3804,"astav":3805,".''":3806,"Ġ1789":3807,"Ġ1805":3808,"ĠPublish":3809,"igital":3810,"cB":3811,"DC":3812,"cK":3813,"ĠTa":3814,"04421":3815,"ĠTrans":3816,"Ġ1855":3817,"Ġ(%)":3818,"ĠTechn":3819,"VF":3820,"-(":3821,"ream":3822,"Ġsc":3823,"Ġ345":3824,"Ġ291":3825,"Ġ343":3826,"ĠMal":3827,".'":3828,"Ġ1820":3829,"oga":3830,"mat":3831,"ogu":3832,"ĠDOI":3833,"420":3834,"OLY":3835,"olje":3836,"ORT":3837,"2714":3838,"ĠGeorg":3839,"wp":3840,"-)":3841,"UP":3842,"2190":3843,"bq":3844,"Ġmob":3845,"ĠKar":3846,"ask":3847,"govor":3848,"ograf":3849,"Ġ1832":3850,"ista":3851,"asp":3852,"Ġ1831":3853,"ĠCOBISS":3854,"ĠTur":3855,"NO":3856,"313":3857,"ages":3858,"ett":3859,"172":3860,"use":3861,"Ġ1807":3862,"1927":3863,"Ġ338":3864,"710":3865,"tica":3866,"TP":3867,"ities":3868,"Ġ329":3869,"Ġ336":3870,"wv":3871,"now":3872,"ĠProf":3873,"jub":3874,"eQ":3875,"Ġyour":3876,"ĠVal":3877,"bQ":3878,"Ġwas":3879,"OC":3880,"ced":3881,"Ġ2050":3882,"ĠLG":3883,"yp":3884,"nb":3885,"=\\\"":3886,"ille":3887,"dlan":3888,"ĠCovid":3889,"ĠArt":3890,"Ġkv":3891,"ira":3892,"255":3893,"ĠEv":3894,"atus":3895,"311":3896,"1924":3897,"Ġnap":3898,"kov":3899,"04181":3900,"Ġ1810":3901,"ĠSRPS":3902,"ĠPlan":3903,"Ġ341":3904,"dn":3905,"227":3906,"550":3907,"Ġ314":3908,"ĠNa":3909,"tika":3910,"ĠGo":3911,"ĠVer":3912,"ĠIRC":3913,"ĠRoman":3914,"apt":3915,"Ġmod":3916,"1928":3917,"!...":3918,"itt":3919,"over":3920,"1913":3921,"\\\"...\\":3922,"Ġim":3923,"201315":3924,"gan":3925,"1932":3926,"Ġali":3927,"246":3928,"ĠSZ":3929,"1949":3930,"Ġdoi":3931,"rich":3932,"andard":3933,"agement":3934,".;\\":3935,"ĠBre":3936,"Ġ7000":3937,"nThe":3938,"0240":3939,"259":3940,"UM":3941,"256":3942,"?{":3943,"Ġsoci":3944,"ĠPan":3945,"Ġgr":3946,"orm":3947,"eptem":3948,"[[\\":3949,"udio":3950,"ĠHo":3951,"ebf":3952,"1931":3953,"Ġnaj":3954,"?\\\",":3955,"ext":3956,"ĠAut":3957,"Ġ292":3958,"ays":3959,"bw":3960,"content":3961,"!!!!":3962,"325":3963,"Ġnot":3964,"ĠStates":3965,"ĠWordPress":3966,"__\\":3967,"Ġ319":3968,"1937":3969,"EX":3970,"1925":3971,"ĠStar":3972,"oug":3973,"App":3974,"kon":3975,"nia":3976,"061":3977,"ĠWhat":3978,"ĠSchool":3979,"Ġ1826":3980,"ility":3981,"Ġ371":3982,"Ġ507":3983,"ĠEC":3984,"rov":3985,"Ġ1821":3986,"ĠUp":3987,"nTag":3988,"315":3989,"ally":3990,"04286":3991,"Ġ530":3992,"ulation":3993,"ĠkW":3994,"col":3995,"Ġes":3996,"ĠAp":3997,"Ġ331":3998,"Ġsaj":3999,"ĠColle":4000,"cate":4001,"idd":4002,"Ġ369":4003,"Ġ368":4004,"ĠComment":4005,"355":4006,"0014":4007,"ĠTV":4008,"eek":4009,"Liked":4010,"ĠLove":4011,"pril":4012,"ives":4013,"Ġmar":4014,"TV":4015,"2013195":4016,"666":4017,"Ġ326":4018,"the":4019,"Ġko":4020,"ebfng":4021,"jav":4022,"ĠVic":4023,"385":4024,"ions":4025,"ĠImp":4026,"908":4027,"ĠOb":4028,"1942":4029,"Le":4030,"fox":4031,"ĠChrome":4032,"Ġnas":4033,"1919":4034,"ela":4035,"ego":4036,"opic":4037,"Ġ630":4038,"</":4039,"2217":4040,"tv":4041,"0216":4042,";/\\":4043,"nSp":4044,"04215":4045,"Ġ327":4046,"cje":4047,"620":4048,"ĠAb":4049,"sko":4050,"Ġ332":4051,"351":4052,"Ġ425":4053,"334":4054,"nBy":4055,"Ġ415":4056,"Ġ361":4057,"Ġ8000":4058,"doc":4059,"ategor":4060,"Ġsl":4061,"abic":4062,"CoV":4063,"VFOLY":4064,"......\\":4065,"stract":4066,"news":4067,"ĠPH":4068,"VFOLYAM":4069,"urope":4070,"Ġ1790":4071,"unic":4072,"ĠJu":4073,"ser":4074,"ĠEast":4075,"Ġvol":4076,"ĠEncyclop":4077,"337":4078,"tim":4079,"318":4080,"ĠNik":4081,"rada":4082,"ĠCri":4083,"rate":4084,"eth":4085,"Ġ405":4086,"ect":4087,"04264":4088,"ded":4089,"ĠBrit":4090,"amo":4091,"arh":4092,"04384":4093,"480":4094,"Ġprotected":4095,"ror":4096,"1951":4097,"Ġ465":4098,"201310":4099,"Ġline":4100,"Ġ351":4101,"***":4102,"Ġ1808":4103,"mil":4104,"289":4105,"ĠCN":4106,"iber":4107,"ĠSrp":4108,"rzs":4109,"0113":4110,"Ġ353":4111,"2219":4112,"ĠEdu":4113,"Ġ512":4114,"ves":4115,"edn":4116,"yar":4117,"1922":4118,"SM":4119,"ĠLic":4120,"ublika":4121,"Ġni":4122,".)\"}":4123,":...\\":4124,"ĠCont":4125,"ublisher":4126,"cel":4127,"ĠGlobal":4128,"04380":4129,"ĠBlack":4130,"AV":4131,")]":4132,"ets":4133,"070":4134,"On":4135,"Ġ328":4136,"4332":4137,"TI":4138,"Ġ352":4139,"Ġ344":4140,"036":4141,"ĠSe":4142,"Ġprav":4143,"raft":4144,"ortal":4145,"543":4146,"chttp":4147,"English":4148,"04332":4149,"ency":4150,"Ġ359":4151,"amil":4152,"Map":4153,"Ġ(=\\":4154,"BE":4155,"ĠEng":4156,"ĠPRO":4157,"isk":4158,"1926":4159,"aE":4160,"lor":4161,"540":4162,"car":4163,"aci":4164,"ibli":4165,"ĠLatest":4166,"ĠBBC":4167,"04183":4168,"nPosted":4169,"zbek":4170,"ĠSk":4171,"ĠInternet":4172,"ouse":4173,".--\\":4174,"olution":4175,"ĠAug":4176,"0105":4177,"Ġ339":4178,"amsung":4179,"ĠMotor":4180,"so":4181,"urn":4182,"ĠMat":4183,"ĠAust":4184,"=-":4185,"ĠHol":4186,"ĠSociety":4187,"ĠFin":4188,"0575":4189,"ush":4190,"ORE":4191,"ĠCa":4192,"cwww":4193,"ister":4194,"itte":4195,"ĠMay":4196,"Ġ610":4197,"ĠPrin":4198,"ĠJE":4199,"SC":4200,"Detal":4201,"ĠInst":4202,"ington":4203,"Ġ620":4204,"ham":4205,"ule":4206,"Ġ385":4207,"Ġ-.":4208,"reet":4209,"asti":4210,"XXX":4211,"2666":4212,"ological":4213,".''\\":4214,"335":4215,"Ġ(\\\"":4216,"sl":4217,"2500":4218,"Ġsamo":4219,"lement":4220,"060":4221,"Ġ1843":4222,"nm":4223,"1923":4224,"1943":4225,"date":4226,"Ġ347":4227,"Ġpot":4228,"yl":4229,"urch":4230,"Ġ357":4231,"326":4232,"\\\"-\\":4233,"Ġ>>>\\":4234,"vir":4235,"ume":4236,"Ġ[[":4237,"Ġsm":4238,"Ġev":4239,"nU":4240,"Ġ435":4241,"dki":4242,"Ġap":4243,"ĠMark":4244,"Ġ510":4245,"ĠMer":4246,"Ġ403":4247,"ĠIt":4248,"TO":4249,"Ġ\\\".":4250,"An":4251,"Ġ^\\":4252,"0928":4253,"ference":4254,"wood":4255,"isa":4256,"ĠWW":4257,"nSputnik":4258,"Ġ441":4259,"Ġmag":4260,"ĠAward":4261,"IEC":4262,"{:":4263,"Ġ348":4264,"lands":4265,"zs":4266,"ember":4267,"353":4268,"osp":4269,"lied":4270,"rd":4271,"ration":4272,"04287":4273,"aca":4274,"yy":4275,"ĠkV":4276,"Ġkoje":4277,"262":4278,"ĠDu":4279,"omb":4280,"Ġ354":4281,"tak":4282,"Ġ455":4283,"ird":4284,"IZ":4285,"ĠLaw":4286,"Ġ640":4287,"ĠPal":4288,"orts":4289,"Ġ(<":4290,"oss":4291,"Ġ_\\":4292,"Ġ356":4293,"ugh":4294,"leks":4295,"nab":4296,"ĠCap":4297,"chttps":4298,"Ġ387":4299,"ĠMor":4300,"rary":4301,"reen":4302,"294":4303,"bX":4304,"lass":4305,"):.":4306,"1911":4307,"Deutsch":4308,"Ġ1828":4309,"pain":4310,"314":4311,"04452":4312,"1916":4313,"460":4314,"1905":4315,"eli":4316,"ECT":4317,"263":4318,"CR":4319,"269":4320,"Ġdob":4321,"Ġgra":4322,"Ġ366":4323,"950":4324,"gory":4325,"0391":4326,"organ":4327,"BM":4328,"els":4329,"ball":4330,"ines":4331,"SI":4332,"Ġ501":4333,"312":4334,"244":4335,"Be":4336,"Ti":4337,"ĠLife":4338,"\\\"?\\":4339,"Ġste":4340,"ĠDi":4341,"bY":4342,"Ġcar":4343,"ĠJul":4344,"rava":4345,"Ġanal":4346,"Ġ570":4347,"999":4348,"ĠRed":4349,"2013198":4350,"657":4351,"Ġ(,,\\":4352,"Ġ[...]\"}":4353,"ĠEric":4354,"04401":4355,"ĠRev":4356,"Ġ)..":4357,"ichael":4358,"331":4359,"Ġ%),":4360,"Ġsec":4361,"site":4362,"404":4363,"emens":4364,"=\\\"\\\"":4365,"Ġ363":4366,"Ġ________________________________":4367,"299":4368,"undo":4369,"utschland":4370,"Ġ580":4371,"ĠFirefox":4372,"acional":4373,"Ġtrans":4374,"nika":4375,"029":4376,"ĠProgram":4377,"mann":4378,"ĠKosovo":4379,"ĠBelgrade":4380,"ĠCr":4381,"air":4382,"415":4383,"ĠLab":4384,"346":4385,"ĠChrist":4386,"ĠSamsung":4387,"0015":4388,"undi":4389,"ĠInc":4390,"Ġmobile":4391,"ĠGra":4392,"ĠSARS":4393,"Ġ1829":4394,"ĠElect":4395,"267":4396,"Ġ%\\":4397,"ĠOut":4398,"uer":4399,"ĠJavascript":4400,"ĠDavid":4401,"1016":4402,"utsche":4403,"bel":4404,"Ġ1453":4405,"201317":4406,"Ġ373":4407,"Ġ1811":4408,"ople":4409,"0647":4410,"ĠBri":4411,"389":4412,"anj":4413,"20121":4414,"Ġver":4415,")...":4416,"ĠGree":4417,"med":4418,"Ġ-----------------":4419,"276":4420,"...).":4421,"nje":4422,"gr":4423,"ĠThis":4424,"ĠOx":4425,"Ġak":4426,"pi":4427,"cX":4428,"4435":4429,"Ġ433":4430,"vez":4431,"Ġ384":4432,"ization":4433,"512":4434,"ices":4435,"Ġ378":4436,"zer":4437,"ĠSony":4438,"skom":4439,"Ġ412":4440,"0940":4441,"aO":4442,"style":4443,"Ġ490":4444,"04435":4445,"ource":4446,"271":4447,"NI":4448,"Ġinfo":4449,"lobo":4450,"ĠDie":4451,"Ġ367":4452,"0540":4453,"ĠWi":4454,"0171":4455,"0219":4456,"ĠFre":4457,"cz":4458,"035":4459,"!\\\",":4460,"1903":4461,"273":4462,"Ġft":4463,"0159":4464,"sson":4465,"!!\\":4466,"UC":4467,"ĠDesign":4468,"ĠAM":4469,"410":4470,"ĠNam":4471,"ĠGal":4472,"ĠSS":4473,"La":4474,"ensis":4475,"Ġ737":4476,"OK":4477,"ĠPart":4478,"vin":4479,"279":4480,"ution":4481,"ĠLinux":4482,"!?.\\":4483,"AA":4484,"04451":4485,"Ġ392":4486,"eda":4487,"ĠSun":4488,"zo":4489,"Ġ349":4490,"Ġ411":4491,"ĠChem":4492,"Detaljer":4493,"anguage":4494,"ĠBas":4495,"ĠEdi":4496,"orks":4497,"Ġum":4498,"dO":4499,"Ġcont":4500,"Ġri":4501,"Ġnew":4502,"ĠTom":4503,".):":4504,"round":4505,"wo":4506,"ĠReply":4507,"285":4508,"Ġ680":4509,"1900":4510,"lig":4511,"Ġ10000":4512,"0200":4513,"pos":4514,"my":4515,"04203":4516,"ĠAssociation":4517,"+)":4518,"348":4519,"ito":4520,"Ġ1219":4521,"nY":4522,"Mar":4523,"Ġcri":4524,"032":4525,"ativ":4526,"ĠOs":4527,"Ġpower":4528,"uka":4529,"Ġ1791":4530,"1915":4531,"Ġ$\\":4532,"youtube":4533,"04288":4534,"ych":4535,"Ġ406":4536,"ĠSiemens":4537,"ĠCC":4538,"516":4539,"PUS":4540,"04244":4541,"Ġ364":4542,"0373":4543,"nDe":4544,"Ġ(!)":4545,"aptrick":4546,"fil":4547,"kol":4548,"tice":4549,"kovic":4550,"uld":4551,"ENT":4552,"850":4553,"Ġ()":4554,"Ġworld":4555,"Continue":4556,"bba":4557,"kst":4558,"Ġstrane":4559,"1910":4560,"ĠDon":4561,"Espa":4562,"Ġcomments":4563,"336":4564,"Ġ>\\":4565,"Ġbo":4566,"box":4567,"!\\\".\\":4568,"Ġwebrzs":4569,"201316":4570,"pre":4571,"dk":4572,"GRA":4573,"Ġ1825":4574,"deo":4575,"Ġ362":4576,"inus":4577,"Italiano":4578,"Ġ346":4579,"ESCO":4580,"lock":4581,"oman":4582,"bornik":4583,"Ġest":4584,"20139":4585,"ĠMart":4586,"04412":4587,"LU":4588,"ĠMoja":4589,"/\"}":4590,"nim":4591,"293":4592,"ditajte":4593,"04312":4594,"inar":4595,"nVI":4596,"ebru":4597,"Ġ1793":4598,"ider":4599,"iddle":4600,"fW":4601,"Ġoffice":4602,"ple":4603,"ĠFri":4604,"343":4605,"EST":4606,"ĠNetwork":4607,"dam":4608,"ĠBul":4609,"tugu":4610,"word":4611,"Ġhave":4612,"ĠJames":4613,"yal":4614,"Ġ397":4615,"ĠTHE":4616,"Polski":4617,"aka":4618,"Ġ377":4619,"utu":4620,"0453":4621,"Ġ386":4622,"ĠState":4623,"cM":4624,"categor":4625,"etnica":4626,"ĠAD":4627,"ĠBusiness":4628,"425":4629,"ristian":4630,"ling":4631,"Ġ1817":4632,"lam":4633,"386":4634,"Ġ407":4635,"ĠFe":4636,"ĠCate":4637,"Ġsrpski":4638,"udd":4639,"Ġ065":4640,"04266":4641,"Ġ379":4642,"1917":4643,"!).\\":4644,"icus":4645,"elf":4646,"0210":4647,"ĠAmerica":4648,"ĠKa":4649,"cia":4650,"ission":4651,"ĠRA":4652,"ben":4653,"petnica":4654,"oh":4655,"enes":4656,"tra":4657,"Ġ1822":4658,"ĠImage":4659,"mon":4660,"1908":4661,"quest":4662,"'''":4663,"dka":4664,"ultur":4665,"04321":4666,"),.":4667,"Ġ...]\\":4668,"olf":4669,"uj":4670,"ĠAcadem":4671,"1907":4672,"Ġcom":4673,"osh":4674,"1899":4675,"Ġmeg":4676,"328":4677,"ĠWil":4678,"Ġ1080":4679,"ĠRepublic":4680,"rum":4681,"ely":4682,"Ġ383":4683,"urity":4684,"iction":4685,"Ġ388":4686,"04265":4687,"categorized":4688,"TH":4689,"vac":4690,"imo":4691,"aceae":4692,"067":4693,"email":4694,"burg":4695,"ĠSlav":4696,"Ġvreme":4697,"nis":4698,"redit":4699,"Ġnon":4700,"Ġ(>":4701,"Ġlog":4702,"irect":4703,"ĠTime":4704,"057":4705,"apan":4706,"357":4707,"Ġ413":4708,"324":4709,"ĠParis":4710,"uter":4711,"Ġdan":4712,"344":4713,"ible":4714,"ker":4715,"286":4716,"nPre":4717,"erite":4718,"ĠAf":4719,"ĠADA":4720,"vesti":4721,"Ġvid":4722,"ours":4723,"ojan":4724,"sc":4725,"0574":4726,"/)":4727,"ĠAcc":4728,"Ġ0015":4729,"Ġgodine":4730,"ĠCenter":4731,"nWikipedia":4732,"icy":4733,"ĠBal":4734,"ĠHot":4735,"354":4736,"Ġ372":4737,"iste":4738,"BL":4739,"Ġkako":4740,"ĠĠĠ":4741,"ict":4742,"073":4743,"ĠUk":4744,")(":4745,"Ġ376":4746,"04204":4747,"ĠDevelopment":4748,"Ġ374":4749,"ĠLo":4750,"Ġrat":4751,"347":4752,"ĠEr":4753,"371":4754,"upload":4755,"yd":4756,"ĠEdition":4757,"04463":4758,"Ġ456":4759,"wser":4760,"\\\"...":4761,"cial":4762,"\\\"!":4763,"stru":4764,"287":4765,"br":4766,"aris":4767,"072":4768,"ĠPaul":4769,"20145":4770,"ĠLeg":4771,"ĠMotorola":4772,"Ġmonths":4773,"278":4774,"ĠOxford":4775,"Ġout":4776,"Ġ421":4777,"uni":4778,"ĠAng":4779,"560":4780,"LC":4781,"ĠHel":4782,"New":4783,"2103":4784,"Ġ555":4785,"Ġ1521":4786,"Ġ660":4787,":\\\"\\":4788,"ticle":4789,"Ġ1371":4790,"Ġ860":4791,"ĠDep":4792,"Ġol":4793,"Ġ399":4794,"ography":4795,"Ġ431":4796,"359":4797,"ozof":4798,"Ġwe":4799,"ffe":4800,"04137":4801,"commend":4802,"ĠOne":4803,"raj":4804,"ls":4805,"?...":4806,"ences":4807,"Ġdie":4808,"ambridge":4809,"444":4810,"aro":4811,"405":4812,"SE":4813,"Ġwar":4814,"Italia":4815,"sed":4816,"Az":4817,"Ġ1824":4818,"ĠKing":4819,"?)\\":4820,"jek":4821,"ersian":4822,"ights":4823,"Ġ423":4824,"ander":4825,"ĠĠĠĠĠĠĠĠ":4826,"1896":4827,"Ġrepublika":4828,"ĠFac":4829,"dr":4830,"''..":4831,"Ġshare":4832,"tein":4833,"Ġ432":4834,"ĠLog":4835,"eIn":4836,"Ġhelp":4837,",.\\":4838,"0531":4839,"change":4840,"395":4841,"cw":4842,"cije":4843,"Ġ391":4844,"408":4845,"042810":4846,"Ġ1776":4847,"evi":4848,"403":4849,"ĠCompany":4850,"unter":4851,"Ġ402":4852,"onia":4853,"itz":4854,"France":4855,"\\\"'":4856,"avanja":4857,"aint":4858,"Ġ525":4859,"Ġ358":4860,"04350":4861,".\\\",\\":4862,"Ġ1801":4863,"tera":4864,"201320":4865,"sApp":4866,"Ġmis":4867,"iga":4868,"Ġ!!!\\":4869,"356":4870,"630":4871,"ties":4872,"):.\\":4873,"ĠApple":4874,"zaberite":4875,"Ġ408":4876,"ART":4877,"0013":4878,"Ġav":4879,"oji":4880,"ship":4881,"JI":4882,"Ġcs":4883,"kiy":4884,"Ġ426":4885,"04148":4886,"Ġ3500":4887,"Ġ1459":4888,"Ġ{{#":4889,"ĠSrbije":4890,"ĠAB":4891,"ĠEp":4892,"ĠLicense":4893,"ĠVictor":4894,"cer":4895,"ĠDVD":4896,"cesk":4897,"ĠAlca":4898,"ĠSrbija":4899,"tish":4900,"Ġso":4901,"Ġpublic":4902,"ntitle":4903,"Ġ{{/":4904,"{{/":4905,"ĠDem":4906,"04289":4907,"recommend":4908,"Ġbolje":4909,"Ġ409":4910,"AK":4911,"392":4912,"SubComment":4913,"Ġ013":4914,"Ġlj":4915,"This":4916,"ĠPres":4917,"338":4918,")!":4919,"379":4920,"estival":4921,"Ġ389":4922,"nauthor":4923,"------------":4924,"Ġ414":4925,"ĠEconom":4926,"db":4927,"QL":4928,"Ġover":4929,"Ġ[-]\"}":4930,"kovi":4931,"074":4932,"Ġ0012":4933,"04232":4934,"ultural":4935,"Ġ9000":4936,"ĠAlex":4937,"Ġ\\\\(":4938,"nVi":4939,".,&":4940,"298":4941,"Ġ780":4942,"iston":4943,"cS":4944,"edce":4945,"610":4946,"Ġmus":4947,"ĠEar":4948,"Ġ1792":4949,"Ġins":4950,"Lietuvi":4951,"065":4952,"uo":4953,"349":4954,"ĠMod":4955,"fan":4956,"ĠPR":4957,"04243":4958,"0404":4959,"fp":4960,"Ġfak":4961,"Ġjer":4962,"bit":4963,"npublisher":4964,"nPB":4965,"ĠVo":4966,"Ġ393":4967,"04255":4968,"njournal":4969,"ella":4970,"Ġsin":4971,"una":4972,"Ġ445":4973,"mu":4974,"ĠXP":4975,"ilj":4976,"aju":4977,"Persian":4978,"Latvie":4979,"367":4980,"uncil":4981,"yr":4982,"UD":4983,"ustom":4984,"361":4985,"ĠAnti":4986,"055":4987,"reg":4988,"vu":4989,"04422":4990,"ĠUncategorized":4991,"Ġzn":4992,"bbo":4993,"ĠCH":4994,"ĠEricsson":4995,"ICE":4996,"Sc":4997,"vest":4998,"ĠHrvat":4999,"Ġ382":5000,"rabic":5001,"458":5002,"Ġ424":5003,"Ġcons":5004,"390":5005,"NS":5006,"GL":5007,"ĠTE":5008,"042812":5009,"Ġsub":5010,"Ġ1455":5011,"4442":5012,"283":5013,"ĠSad":5014,"nAB":5015,"AB":5016,"MX":5017,"ysis":5018,"Ġhar":5019,"ĠCambridge":5020,"ĠIL":5021,"Ġ1718":5022,"339":5023,"Ġ{\\\\":5024,"0252":5025,"Op":5026,"bbzbek":5027,"530":5028,"fcrkiy":5029,"ĠIz":5030,"511":5031,"rench":5032,"04106":5033,"cem":5034,"406":5035,"Ġpok":5036,"ĠEducation":5037,"ĠRobert":5038,"457":5039,"ĠSerbs":5040,"Ġ1816":5041,"nContinue":5042,"ĠSa":5043,"ĠMojahercegovina":5044,"tell":5045,"avi":5046,"ĠAlcatel":5047,"1868":5048,"wiki":5049,"iro":5050,"nabstract":5051,"<\\":5052,"Ġ396":5053,"nInternational":5054,"Ġprof":5055,"ĠLibrary":5056,"Ġfe":5057,"titut":5058,"Ġ!!!":5059,"Ġdev":5060,"ĠSloven":5061,"Ġmaj":5062,"382":5063,"imir":5064,"04442":5065,"ĠJos":5066,"Ġhas":5067,"-(\\":5068,"fin":5069,"ĠReview":5070,"loud":5071,"352":5072,"ĠOf":5073,"ĠRadio":5074,"dATO":5075,"=\\\"\\\">":5076,"ĠSol":5077,"402":5078,"042811":5079,"CA":5080,"fq":5081,"ales":5082,"/-\\":5083,"455":5084,"Ġtrad":5085,"Ġ475":5086,"Ġfacto":5087,"duction":5088,"Ġser":5089,"Ġ1346":5090,"tro":5091,"362":5092,"til":5093,"count":5094,"Ġ1204":5095,"281":5096,"EB":5097,"Ġaudio":5098,"Ġ0011":5099,"Ġwork":5100,"plor":5101,"ills":5102,"388":5103,"04386":5104,"Car":5105,"lar":5106,"Ġ535":5107,"ffer":5108,"eU":5109,"ago":5110,"fO":5111,"ĠZe":5112,"Ġrec":5113,"Ġ1788":5114,"401":5115,"ĠDrag":5116,"Ġ1750":5117,"eev":5118,"427":5119,"cher":5120,"080":5121,"late":5122,"Ġabout":5123,"Ġ505":5124,"Ġdom":5125,"::::":5126,"Ġpsih":5127,"Ġsav":5128,"Ġkori":5129,"kp":5130,"Ġ1803":5131,"yu":5132,"1876":5133,"han":5134,"ĠBa":5135,"interest":5136,"FC":5137,"ĠCodex":5138,"Dari":5139,"ĠPhys":5140,"Ġ422":5141,"Ġknjizevnost":5142,"war":5143,"428":5144,"ness":5145,"ĠForum":5146,"Ġ!!":5147,"Ġspec":5148,"ĠStandard":5149,"ouis":5150,"423":5151,"20131918":5152,"ĠRel":5153,"Ġ442":5154,"Ġ444":5155,"ĠClass":5156,"327":5157,".:\\":5158,"ategories":5159,"easc":5160,"ovanje":5161,"]].":5162,"Polska":5163,"Ġcor":5164,".....\\":5165,"nes":5166,"irus":5167,"veneasc":5168,"dom":5169,"enz":5170,"*)":5171,"ĠRich":5172,"skoj":5173,"Moldova":5174,".],":5175,"num":5176,"Ġhis":5177,"rbaycanca":5178,"remen":5179,"Mundo":5180,"bbzbekiston":5181,"ĠHuman":5182,"Lietuva":5183,"nDeutschland":5184,"ĠLes":5185,"Ġwill":5186,"lik":5187,"Latvija":5188,"aArabic":5189,"Moldoveneasc":5190,"ĠNamTi":5191,"ItaliaItaliano":5192,"FranceFran":5193,"fcrkiyeT":5194,"nInternationalEnglish":5195,"PolskaPolski":5196,"MoldovaMoldoveneasc":5197,"MundoEspa":5198,"LietuvaLietuvi":5199,"nDeutschlandDeutsch":5200,"LatvijaLatvie":5201,"04433":5202,"Ġ747":5203,"met":5204,"042815":5205,"ĠIsland":5206,"_____":5207,"Ġone":5208,"0643":5209,"ado":5210,"DR":5211,"2502":5212,"gin":5213,"Ġ21000":5214,"Ġistor":5215,"tn":5216,"eh":5217,"358":5218,"ĠGreen":5219,"Ġmilos":5220,"Ġ416":5221,"yth":5222,"rew":5223,"843":5224,"Ġ670":5225,"ĠPs":5226,"ĠDef":5227,"Ġpode":5228,"lack":5229,"Ġ::\\":5230,"Ġ476":5231,"ĠMaster":5232,"ĠAC":5233,"Po":5234,"IO":5235,"Ġ394":5236,"Ġ485":5237,"pan":5238,"Ġsize":5239,"04153":5240,"042814":5241,"ĠService":5242,"uropean":5243,"ĠSvet":5244,"ĠPinterest":5245,"Ġ438":5246,"ĠEst":5247,"418":5248,"377":5249,"YS":5250,"nVII":5251,"isti":5252,"Ġ....\\":5253,"1906":5254,"zn":5255,"297":5256,"ĠSM":5257,"515":5258,"470":5259,"estern":5260,"Pal":5261,"ĠDay":5262,"bus":5263,"0313":5264,"Ġ428":5265,"eting":5266,"skih":5267,"ĠCool":5268,"ostok":5269,"042813":5270,"uel":5271,"uma":5272,"1904":5273,"Ġ439":5274,"vr":5275,"Ġide":5276,"Ġautora":5277,"vn":5278,"Ġ437":5279,"uck":5280,"742":5281,"042818":5282,"0399":5283,"srp":5284,"kype":5285,"ĠCro":5286,"ĠPhoto":5287,"uploads":5288,"369":5289,"Ġ417":5290,"uredi":5291,"Ġlo":5292,"Ġsvet":5293,"Ġprogram":5294,"04280":5295,"Ġ777":5296,"1909":5297,"Ġost":5298,"ged":5299,"eds":5300,"zt":5301,"ĠMel":5302,"04115":5303,"oper":5304,"ques":5305,"?).":5306,"ama":5307,"Ġ1783":5308,"Ġ418":5309,"Re":5310,"ĠXML":5311,"291":5312,")\\\"":5313,"201312":5314,"SK":5315,"ĠID":5316,"2551":5317,"Ġ684":5318,"990":5319,"ĠMen":5320,"Ġsajta":5321,"Ġ398":5322,"Por":5323,"612":5324,"Ġnj":5325,"Ġ427":5326,"363":5327,"Ġur":5328,"ĠCam":5329,"ivanje":5330,"0632":5331,"366":5332,"ĠMiddle":5333,"Ġ1774":5334,"ANG":5335,"mark":5336,"Ġfirst":5337,"Ġgrad":5338,"spot":5339,"cis":5340,"426":5341,"\\\":\\":5342,"eum":5343,"ĠLink":5344,"Ġfran":5345,"OVI":5346,"dasopis":5347,"Ġher":5348,"378":5349,"0130":5350,"Ġzdrav":5351,"mit":5352,"ĠMichael":5353,"ĠData":5354,"ats":5355,"???\\":5356,"ering":5357,"cul":5358,"cle":5359,"ĠDom":5360,"201417":5361,"ĠKon":5362,"hip":5363,"Ġemail":5364,"Ġwaptrick":5365,"google":5366,"odi":5367,"201313":5368,"1879":5369,"uality":5370,"kurs":5371,"411":5372,"]\\\"":5373,"undation":5374,"Ġ511":5375,"Ġ1770":5376,"ody":5377,"ainst":5378,"Ġgov":5379,"rati":5380,"abe":5381,"zan":5382,"453":5383,"Ġid":5384,"Ġ018":5385,"Ġ960":5386,"ĠBan":5387,"Ġmg":5388,"ĠEd":5389,"ĠJot":5390,"eep":5391,"nHub":5392,"hu":5393,"ĠManagement":5394,"04216":5395,"Fi":5396,"Ġ1797":5397,"Ġ//\\":5398,"board":5399,"oftware":5400,"ils":5401,"ids":5402,"Ġ590":5403,"ĠHD":5404,"Ġ1787":5405,"04114":5406,"ĠPornHub":5407,"display":5408,"ession":5409,"2126":5410,"ĠCV":5411,"201314":5412,"nZa":5413,"omas":5414,"viron":5415,"ray":5416,"Ġstar":5417,"376":5418,"serb":5419,"itan":5420,"ĠOrgan":5421,"ERS":5422,"tens":5423,"383":5424,"ĠPay":5425,"393":5426,"Ġ434":5427,"nClick":5428,"itor":5429,"thers":5430,"1848":5431,"Ġkvad":5432,"OVID":5433,"Ġ429":5434,">>>":5435,"ĠRE":5436,"Ġvs":5437,")!\\":5438,"ĠTrad":5439,"??\\":5440,"ĠRef":5441,"ĠMov":5442,"watch":5443,"ober":5444,"dW":5445,"Ġ-),":5446,"Ġ499":5447,"Ġ1819":5448,"Ġ820":5449,"ĠEngine":5450,"ĠSpec":5451,"nCategories":5452,"042816":5453,"INA":5454,"Ġ925":5455,"ashington":5456,"Ġml":5457,"Jo":5458,"ĠEX":5459,"4441":5460,"vas":5461,"Ġ666":5462,"atur":5463,"\\\";\\":5464,"364":5465,"Ġ730":5466,"ope":5467,"ĠBalk":5468,"Ġback":5469,"ĠAst":5470,"ating":5471,"Ġnje":5472,"Ġbez":5473,"ĠTor":5474,"Ġ419":5475,"091":5476,"ĠHealth":5477,"ivil":5478,"490":5479,"ĠSuper":5480,"ĠSport":5481,"Ġ612":5482,"0243":5483,"0251":5484,"ears":5485,"mate":5486,"Ġ1780":5487,"cC":5488,"ĠAG":5489,"Ġvan":5490,"2705":5491,"Ġ1823":5492,"ologia":5493,"rive":5494,"?\\\".\\":5495,"div":5496,"sec":5497,"eph":5498,"Ġ===":5499,"04441":5500,"384":5501,"ĠPath":5502,"Ġwhich":5503,"ĠEncyclopedia":5504,"ĠGeorge":5505,"421":5506,"rial":5507,"Ġ515":5508,"istry":5509,"jal":5510,"409":5511,"368":5512,"ĠTre":5513,"ctions":5514,"]\\\",\\":5515,"esite":5516,"Ġhistory":5517,"web":5518,"kan":5519,"Ġ802":5520,"aria":5521,"Ġ549":5522,"rasmus":5523,"ratnih":5524,"osoph":5525,"ype":5526,"ĠGen":5527,"ĠOct":5528,"zen":5529,"ĠPr":5530,"04404":5531,"tia":5532,"ental":5533,"Ġmetara":5534,"igro":5535,"displaystyle":5536,"cT":5537,"uta":5538,"ĠHor":5539,"Ġ448":5540,"ĠCouncil":5541,"___":5542,"INGER":5543,"pt":5544,"\\\"-":5545,"Ġ911":5546,"ĠFrance":5547,"419":5548,"dno":5549,"ĠSO":5550,"ĠUNESCO":5551,"413":5552,"Ġ**\\":5553,"Ġstr":5554,"ĠVictoria":5555,"jet":5556,"aft":5557,"ĠNi":5558,"ĠNovi":5559,"TER":5560,"ĠBank":5561,"erg":5562,"04322":5563,"omi":5564,"Ġnarod":5565,"Ġ449":5566,"media":5567,"ĠFrench":5568,"Ġprin":5569,"201330":5570,"tif":5571,"Ġ484":5572,"ĠDa":5573,"ĠMem":5574,"ĠCup":5575,"ĠClub":5576,")/":5577,"Ġmor":5578,"OW":5579,"Ġ504":5580,"nod":5581,"396":5582,"ides":5583,"Ġ-----------------------------":5584,"ĠOS":5585,"Ġ457":5586,"bol":5587,"vironment":5588,"life":5589,"gn":5590,"422":5591,"boj":5592,"ift":5593,"thodo":5594,"Ġ532":5595,"Ġfol":5596,"1902":5597,"053":5598,"Ġkvadratnih":5599,"Ġright":5600,"Ġtako":5601,"elle":5602,"04133":5603,"1895":5604,"985":5605,"ĠStreet":5606,"0208":5607,"443":5608,"ronic":5609,"ENI":5610,",-":5611,"Ġpodesite":5612,"Ġako":5613,"ĠMad":5614,"Ġzna":5615,"Ġsystem":5616,"Ġname":5617,"Ġvalutu":5618,"ĠRealigro":5619,"ĠftC":5620,"ussia":5621,"Ġmark":5622,"0016":5623,"ĠIst":5624,"ĠMih":5625,"ĠCli":5626,"ĠOP":5627,"prav":5628,"0203":5629,"vent":5630,"EU":5631,"Ġ1794":5632,"ĠFeder":5633,"andar":5634,"485":5635,"Ġ474":5636,"ĠEdit":5637,"aks":5638,"Ġits":5639,"inu":5640,"ĠSW":5641,"ĠSur":5642,"1880":5643,"Ġ481":5644,"allen":5645,"elt":5646,"ĠWhatsApp":5647,"Ġzbornik":5648,"0215":5649,"ATION":5650,"ney":5651,"Ġ436":5652,"ische":5653,"nc":5654,"ĠLive":5655,"rovi":5656,"Ġ1796":5657,"gal":5658,"well":5659,"ĠCopyright":5660,"ĠSouth":5661,"Ġ022":5662,"373":5663,"ĠDer":5664,"0005":5665,"njak":5666,"720":5667,"Ġkoris":5668,"Ġ740":5669,"XII":5670,"'t":5671,"372":5672,"Ġtar":5673,"pend":5674,"Ġvideo":5675,"Ġ1795":5676,"ather":5677,"bl":5678,"ransp":5679,"Ġproble":5680,"ĠNorth":5681,"04145":5682,"ĠSINGER":5683,"awes":5684,"ĠAND":5685,"ĠSINGERICA":5686,"Ġ1739":5687,"041320":5688,"ĠCal":5689,"1901":5690,"Ġphones":5691,"0479":5692,"0374":5693,"Ġ601":5694,"Ġ463":5695,"nji":5696,"lation":5697,"ific":5698,"Ġbrowser":5699,"ye":5700,"ĠFun":5701,"ĠMax":5702,"more":5703,"Ġtitle":5704,"ared":5705,"riv":5706,"Ġ479":5707,"blogspot":5708,"ĠTour":5709,"hi":5710,"068":5711,">>\\":5712,"ĠSCI":5713,"042820":5714,"Ġcit":5715,"oriam":5716,"ries":5717,"ĠRock":5718,"ĠStudies":5719,"oung":5720,"ature":5721,"usa":5722,"Ġ453":5723,"Ġ062":5724,"04082":5725,"less":5726,"Ġmogu":5727,"mal":5728,"esta":5729,"ĠAnal":5730,"ĠSER":5731,"EA":5732,"wik":5733,"Ġga":5734,"`.":5735,"Porn":5736,"uring":5737,"bW":5738,"429":5739,";\"}":5740,"Ġlow":5741,"ĠOd":5742,"ĠPHP":5743,"Ġmade":5744,"ĠProject":5745,")/\\":5746,"\\\"!\\":5747,"+-\\":5748,"ots":5749,"1898":5750,"0930":5751,"oundw":5752,"Ġ1683":5753,"ĠIF":5754,"1867":5755,"ruc":5756,".[/":5757,"ĠHow":5758,"....\"}":5759,"Ġkoja":5760,"esto":5761,"ente":5762,"aba":5763,"Ġfakul":5764,"Ġ1737":5765,"Ġovde":5766,"post":5767,"inese":5768,"Ġsite":5769,"Ġ447":5770,"rus":5771,"ĠCIA":5772,"071":5773,"aweserb":5774,"aily":5775,"1881":5776,"Ġinto":5777,"449":5778,"oundwaweserb":5779,"ĠSH":5780,"mpeg":5781,"374":5782,"Ġmundi":5783,"ĠWest":5784,"504":5785,"414":5786,"1894":5787,"ige":5788,"OST":5789,"Ġ636":5790,"')":5791,"Te":5792,"Ġmy":5793,"TY":5794,"04225":5795,"ĠMuz":5796,"oo":5797,"0128":5798,"Ġ760":5799,"ĠCatal":5800,"090":5801,"dat":5802,"ĠTechnology":5803,"International":5804,"Ġviews":5805,"417":5806,"rey":5807,"rug":5808,"yw":5809,"ĠWall":5810,"ORI":5811,"Ġtime":5812,"asy":5813,"ĠHouse":5814,"416":5815,"dav":5816,"isi":5817,"RU":5818,"lay":5819,"agreb":5820,"Ġ454":5821,"Ġass":5822,"ĠAv":5823,"Ġsch":5824,"Ġ1766":5825,"***\\":5826,"LD":5827,"Ġ1798":5828,"Ġil":5829,"20131945":5830,"04186":5831,"ikl":5832,"osit":5833,"->":5834,"Ġ502":5835,"Serbian":5836,"ĠJan":5837,"ĠOV":5838,"Ġ464":5839,"2709":5840,"cD":5841,"ĠBig":5842,"facebook":5843,"ĠSA":5844,"ĠDC":5845,"ĠDoc":5846,"glas":5847,"ĠHistor":5848,"chi":5849,"RAM":5850,"............":5851,"ĠAz":5852,"473":5853,"hen":5854,"nak":5855,"Ġpi":5856,"//":5857,"baj":5858,"619":5859,"467":5860,"521":5861,"Ġ538":5862,"ĠIBM":5863,"042819":5864,"ĠLand":5865,"?...\\":5866,"jev":5867,"640":5868,"ĠSum":5869,"Ġknji":5870,"cY":5871,"Ġbut":5872,"4434":5873,"448":5874,"minist":5875,"ĠWilliam":5876,"cts":5877,"ĠIl":5878,"jedor":5879,"ĠWeek":5880,"424":5881,"051":5882,"Ġsvoj":5883,"fj":5884,"IB":5885,"Ġ1802":5886,"ender":5887,"562":5888,"Ġ[+]":5889,"itas":5890,"ĠGar":5891,"yahoo":5892,"ĠAugust":5893,"ĠHu":5894,"obi":5895,"Ġ1054":5896,"465":5897,"Ġ443":5898,"untu":5899,"Ġ===>":5900,"ĠRussian":5901,"Ġtu":5902,"Ġdown":5903,"ĠFoundation":5904,"407":5905,"enov":5906,"nCOVID":5907,"Ġot":5908,"780":5909,"cip":5910,"cGPL":5911,"winning":5912,"Ġ527":5913,"AND":5914,"astern":5915,"tar":5916,"Pa":5917,"OJ":5918,"Ġ1250":5919,"ĠAtt":5920,"craft":5921,"ĠVlad":5922,".\\\"\"}":5923,"ĠGold":5924,"Ġ...,":5925,"802":5926,"dY":5927,"570":5928,"ĠWal":5929,"**\\":5930,"time":5931,"omy":5932,"cion":5933,"ĠUnion":5934,"04434":5935,"Ġ625":5936,"ergy":5937,"TE":5938,"ster":5939,"Ġsur":5940,"04123":5941,"501":5942,"ĠEmp":5943,"Ġ565":5944,"662":5945,"stva":5946,"azine":5947,"ĠBalkans":5948,"958":5949,"aking":5950,"Ġfree":5951,"Ġ<\\":5952,"2713":5953,"cBlog":5954,"0375":5955,"075":5956,"Ġ452":5957,"Ġ487":5958,"artment":5959,"ĠCNN":5960,"ĠCentral":5961,"cBlogThis":5962,"ĠChe":5963,"Ġ\"-\\":5964,"Ġgo":5965,"nIzaberite":5966,"nk":5967,"ĠCorpor":5968,".\\\",":5969,"ĠXLVIII":5970,"pec":5971,"abl":5972,"Ġ458":5973,"}-":5974,"ĠYugoslav":5975,"730":5976,"0127":5977,"nn":5978,"%)\\":5979,"Ġ551":5980,"indows":5981,"489":5982,"ĠMS":5983,"ĠChurch":5984,"0642":5985,"cent":5986,"201219":5987,"NE":5988,"'..":5989,"upa":5990,"ĠEnter":5991,"04461":5992,"bXX":5993,"042822":5994,"order":5995,"487":5996,"ĠMaj":5997,"ĠPrijedor":5998,"Ġmail":5999,"Ġbu":6000,"itet":6001,"22640":6002,"0165":6003,"ĠJapan":6004,"ijal":6005,"042825":6006,"ribution":6007,"ĠDal":6008,"Ġmu":6009,"468":6010,"Ġ522":6011,"ĠBalkan":6012,"cience":6013,"mas":6014,"TC":6015,"Ġ533":6016,"Ġcent":6017,"Spain":6018,"cGNU":6019,"nici":6020,"ean":6021,"5937":6022,"ĠDA":6023,"Ġcap":6024,"Ġ472":6025,"ĠAleks":6026,"1889":6027,"Ġobraz":6028,"ĠSil":6029,"520":6030,"...).\\":6031,"ĠCollege":6032,"ĠWashington":6033,"onic":6034,"hema":6035,"495":6036,"042821":6037,"1500":6038,"cember":6039,"042824":6040,"Ġ1350":6041,"GC":6042,"1877":6043,"ĠHung":6044,"Ġ1492":6045,"ennis":6046,"Ġ468":6047,"ĠHigh":6048,"555":6049,"ervices":6050,"Ġtreba":6051,"lovi":6052,"526":6053,"temp":6054,"ĠVis":6055,"ĠUl":6056,"ROP":6057,"nVIII":6058,"ĠCas":6059,"Ġ690":6060,"ĠVel":6061,"Ġorgan":6062,"Ġcas":6063,"0157":6064,"ĠSpace":6065,"399":6066,"565":6067,"042823":6068,"ĠGi":6069,"gent":6070,"umber":6071,"Ġvers":6072,"ĠBooks":6073,"Ġ(?)":6074,"Ġ865":6075,"itika":6076,"201311":6077,"1864":6078,"des":6079,"Ġ616":6080,"ĠExplor":6081,"Ġjezika":6082,"ildren":6083,"ĠNovosti":6084,"04453":6085,"398":6086,"Ġ483":6087,"ĠMaria":6088,"Ġvelika":6089,"Ġ461":6090,"Ġbet":6091,"201324":6092,"Ġ0800":6093,"ĠRaz":6094,"459":6095,"Ġposted":6096,"olos":6097,"ĠHP":6098,"obar":6099,"Ġ446":6100,"Ġta":6101,"eptember":6102,"Ġ(:":6103,"thodox":6104,"VA":6105,"621":6106,"Ġ1799":6107,"ists":6108,"alling":6109,"zz":6110,"Ġ1526":6111,"ĠLatin":6112,"2606":6113,"beograd":6114,"_______":6115,"Ġ051":6116,"ĠHy":6117,"ĠAdo":6118,"Fil":6119,"Ġ;)\\":6120,"454":6121,"ibliote":6122,"leg":6123,"ivo":6124,"lywood":6125,"1891":6126,"034":6127,"icu":6128,"oriste":6129,"vij":6130,"ĠFirst":6131,"888":6132,"~~":6133,"COM":6134,"dovod":6135,"izz":6136,"{{\\":6137,"NET":6138,"eter":6139,"mis":6140,"nf":6141,"1892":6142,"1882":6143,"stant":6144,"ĠPark":6145,">>>\\":6146,"usan":6147,"0006":6148,"len":6149,"Ġ495":6150,"Ġ462":6151,"510":6152,"Ġclass":6153,"ĠSave":6154,"ĠGames":6155,"Ġpit":6156,"Ġbroj":6157,"Ġnema":6158,"042830":6159,"Ġ-,":6160,"gress":6161,"avlje":6162,"ernment":6163,"Phone":6164,"[/":6165,"Ġ563":6166,"ĠPat":6167,"entific":6168,"077":6169,"Ġ467":6170,"ĠFer":6171,"arian":6172,"tik":6173,"ĠDigital":6174,"481":6175,"Ġ1402":6176,"479":6177,"uture":6178,"447":6179,"0939":6180,"ĠConference":6181,"Ġnet":6182,"Ġcre":6183,"493":6184,"054":6185,"icial":6186,"ĠUSAID":6187,"ĠPublishing":6188,"1890":6189,"ĠAL":6190,"484":6191,"Ġbook":6192,"BD":6193,"olic":6194,"ĠBen":6195,"Ġ575":6196,"ĠGrand":6197,"ĠIndones":6198,")?.":6199,"Ġ1775":6200,"tual":6201,"ete":6202,"Ġpon":6203,"ĠNav":6204,"Ġ488":6205,"486":6206,"mag":6207,"ought":6208,"Ġles":6209,"20131914":6210,"ĠCy":6211,"ropol":6212,"Mapquest":6213,"vers":6214,"Ġ770":6215,"bert":6216,"ĠPage":6217,"ĠRichard":6218,"Ġut":6219,"ega":6220,"0372":6221,"Ġradova":6222,"04331":6223,"cal":6224,"sky":6225,"Ġ......":6226,"ĠVir":6227,"Ġ.....":6228,"European":6229,"Ġ2100":6230,"Ġ459":6231,"Ġblog":6232,"ictionary":6233,"1875":6234,"Ġ588":6235,"Ġ466":6236,"note":6237,"nwww":6238,"*.":6239,"Ex":6240,"fX":6241,"Ġ1717":6242,"online":6243,"ĠArh":6244,"PG":6245,"Ġdrust":6246,"830":6247,"{:}":6248,"Con":6249,"397":6250,"ĠZoran":6251,"bog":6252,"ĠInformation":6253,"ĠCON":6254,"ideo":6255,"ĠPeter":6256,"1893":6257,"other":6258,"760":6259,"ĠMulti":6260,"Ġvoda":6261,"htm":6262,"04140":6263,"tz":6264,"ette":6265,"Ġslu":6266,"ĠReport":6267,"Ġorig":6268,"ĠCustom":6269,"dalus":6270,"FOR":6271,"cin":6272,"452":6273,"...)..":6274,"emo":6275,"Ġnad":6276,"amily":6277,"Ġ539":6278,"OH":6279,"ĠArchives":6280,"mos":6281,"Ġud":6282,"20131941":6283,"kn":6284,"Ġ1768":6285,"Ġ1689":6286,"ĠNext":6287,"Ġ710":6288,"ager":6289,"ĠMartin":6290,"ĠDec":6291,"uad":6292,"Inter":6293,"Ġkultura":6294,"Ġ1777":6295,"MB":6296,"kar":6297,"ipl":6298,"roslav":6299,"ĠHal":6300,"Ġ1450":6301,"Ġpres":6302,"Ġnever":6303,"Ġnast":6304,"bat":6305,"Ġmemoriam":6306,":-":6307,"Ġ626":6308,"ĠIPA":6309,"ĠBor":6310,"ĠPand":6311,"ĠMarch":6312,"Ġtheir":6313,"nPrevious":6314,"Ġ2026":6315,"ĠOl":6316,"appy":6317,"Ġ012":6318,"1804":6319,"446":6320,"ffice":6321,"sm":6322,"Ġ651":6323,"042826":6324,"Ġ1520":6325,"rn":6326,"ĠMP":6327,"gle":6328,"ein":6329,"ios":6330,"Ġ711":6331,"Ġtalk":6332,"679":6333,"Ġplana":6334,"'-\\":6335,"ump":6336,"Ġlib":6337,"Ġfilozof":6338,"04081":6339,"Ġhigh":6340,"Ġgre":6341,"851":6342,"Ad":6343,"ĠTra":6344,"annica":6345,"read":6346,"url":6347,"668":6348,"etad":6349,"519":6350,"Ġtemp":6351,"042828":6352,"ĠECTS":6353,"cev":6354,"CS":6355,"201325":6356,"Ġ585":6357,"Ġ536":6358,"ĠSD":6359,"ĠJust":6360,"Ġair":6361,"ĠShow":6362,"066":6363,"enta":6364,"fw":6365,"aper":6366,"ĠMuseum":6367,"ĠAustral":6368,"Ġ1550":6369,"ĠAct":6370,"Ġ518":6371,"ĠLanguage":6372,"()":6373,"su":6374,"488":6375,"527":6376,"TT":6377,"Ġlife":6378,"isnjak":6379,"Ġbar":6380,"Ġvostok":6381,"Ġgu":6382,"Ġvodovod":6383,"dress":6384,"Soundwaweserb":6385,"td":6386,"Ġ880":6387,"1884":6388,"Ġdin":6389,"20130":6390,"Ġtopic":6391,"Ġ%)..":6392,"Ġ471":6393,"dke":6394,"042831":6395,"04107":6396,"ĠKi":6397,"irl":6398,"lion":6399,"!!??":6400,"/]":6401,"Ġolga":6402,"kup":6403,"ĠCA":6404,"ĠPortugu":6405,"ĠBritish":6406,"ĠIndex":6407,"Ġ661":6408,"Ġdrug":6409,"ĠSwed":6410,"een":6411,"2014199":6412,"iverz":6413,"edt":6414,"ĠSE":6415,"Ġbilo":6416,"Ġden":6417,"raw":6418,"Ġ482":6419,"agram":6420,"rovic":6421,"otball":6422,"pus":6423,"Ġ473":6424,"Ġ1699":6425,"ĠDownloadable":6426,"abor":6427,"skim":6428,"onesi":6429,"dina":6430,"Ġ478":6431,"Ġdon":6432,"0175":6433,"Ġsome":6434,"ĠTem":6435,"!...{":6436,"andra":6437,"Ġmilosevic":6438,"Ġpozoriste":6439,"660":6440,"ĠFilip":6441,"Ġsr":6442,"ogy":6443,"noj":6444,"0401":6445,"042835":6446,"ends":6447,"0218":6448,"Ġ509":6449,"ĠFile":6450,"ĠEngl":6451,"Ġ529":6452,"ĠFel":6453,"\\\\\\\"\\":6454,"Ġodnos":6455,"ĠDiv":6456,"Ġ486":6457,"ederlands":6458,"zna":6459,"Ġhrvat":6460,"ĠEA":6461,"Ġ%.":6462,"Ġtra":6463,"ĠGod":6464,"lickr":6465,"Mil":6466,"pis":6467,"Ġ1282":6468,"ĠBran":6469,"ĠRS":6470,"ĠStan":6471,"Ġ1330":6472,"042827":6473,"Ġ477":6474,"IAN":6475,"ĠSam":6476,"AO":6477,"ĠPCR":6478,"725":6479,"uan":6480,"java":6481,"ository":6482,"ĠZagreb":6483,"ida":6484,"ĠSin":6485,"akon":6486,"Ġarch":6487,"ĠMagyar":6488,"gue":6489,"04231":6490,"ĠBlo":6491,"0915":6492,"Ġ',":6493,"lease":6494,"XI":6495,"ĠRa":6496,"ĠStrate":6497,"04311":6498,"3020":6499,"vision":6500,"ĠCL":6501,"590":6502,"Ġmit":6503,"042829":6504,"476":6505,"agy":6506,"Ġfin":6507,"ĠBab":6508,"wordpress":6509,"04226":6510,"Ġwere":6511,"929":6512,"0926":6513,"Ġdella":6514,":-\\":6515,"671":6516,"471":6517,"1888":6518,"475":6519,"ĠBulgar":6520,"043011":6521,"tre":6522,"azz":6523,"njkp":6524,"nTags":6525,"ground":6526,"stav":6527,"ĠLouis":6528,"ĠGym":6529,"rednik":6530,"ĠDeutsch":6531,"042618":6532,"ĠSports":6533,"Ġ=\\":6534,"!\\\".":6535,"bra":6536,"uli":6537,"ĠCer":6538,"711":6539,"Ġ494":6540,"ode":6541,"Ġbio":6542,"Ġrelig":6543,"Ġ493":6544,"2298":6545,"venska":6546,"464":6547,"acv":6548,".%":6549,"vid":6550,"Ġ508":6551,"jevo":6552,"xxx":6553,"2014198":6554,"ĠSMS":6555,"ĠRh":6556,"raine":6557,"ĠTi":6558,"Ġ526":6559,"novosti":6560,"1871":6561,"ĠHall":6562,"221219":6563,"Univers":6564,"PO":6565,"639":6566,"Ġtak":6567,"043019":6568,"dar":6569,"Ġ1772":6570,"1835":6571,"3010":6572,"HT":6573,"YU":6574,"ĠHome":6575,"ĠMHz":6576,"Ġpog":6577,"olar":6578,"ĠCorporation":6579,"nas":6580,"-%":6581,"Ġsred":6582,"ĠJovan":6583,"ĠEUR":6584,"ledge":6585,"ĠiPhone":6586,"591":6587,"ĠCel":6588,"Ġpowered":6589,"EW":6590,"Ġ611":6591,"Ġ506":6592,"Ġ595":6593,"1200":6594,"474":6595,"Sense":6596,"Ġreplied":6597,"ĠAndalus":6598,"Ġtekst":6599,"ĠCIT":6600,"OB":6601,"uters":6602,"Ġcomment":6603,"768":6604,"iner":6605,"Ġcr":6606,"Ġprom":6607,"Ġek":6608,"Ġrus":6609,"ĠRepository":6610,"ĠAndalusia":6611,"kultura":6612,"042840":6613,"Ġphil":6614,"ME":6615,"Ġ513":6616,"iller":6617,"ĠCommun":6618,"ĠPG":6619,"ĠGes":6620,"ĠGreek":6621,"ota":6622,"tig":6623,"Ġ704":6624,"ĠProte":6625,"04124":6626,"Ġliked":6627,"nw":6628,"Ġ537":6629,"Ġ552":6630,"rong":6631,"cO":6632,"bas":6633,"Ġ633":6634,"Ġnik":6635,"0467":6636,"ighter":6637,"Ġpic":6638,"ĠMuzika":6639,"Ġ................................................................":6640,"2039":6641,"Ġaf":6642,"Ġ521":6643,"ĠChinese":6644,"201416":6645,"ĠJotform":6646,"840":6647,"Net":6648,"Ġ543":6649,"394":6650,"930":6651,"04134":6652,"Ġ523":6653,"Ġ023":6654,"ĠSC":6655,"zam":6656,"Ġ492":6657,"Ġ516":6658,"ISH":6659,"Ġsrpska":6660,"+/\\":6661,"inger":6662,"Ġ469":6663,"ĠCount":6664,"razetad":6665,"ĠStatis":6666,"777":6667,"ds":6668,"wy":6669,"Ġ534":6670,"ĠDE":6671,"anov":6672,"ĠAk":6673,"ĠLeave":6674,"jem":6675,"ĠAcademy":6676,"JU":6677,"0634":6678,"``":6679,"fcl":6680,">\"}":6681,"VO":6682,"ĠFr":6683,"Ġ830":6684,"ĠPandora":6685,"042837":6686,"ĠGreat":6687,"774":6688,"ĠZA":6689,"arad":6690,"nby":6691,"Ġ528":6692,"fault":6693,"ATA":6694,"ĠBet":6695,"767":6696,"data":6697,"TR":6698,"ĠMir":6699,"1897":6700,"Ġ001":6701,"cha":6702,"042834":6703,"'''\\":6704,"ĠExchange":6705,"Ġ``\\":6706,"lete":6707,"atory":6708,"ocal":6709,"770":6710,"Ġ517":6711,"506":6712,"Ġ1758":6713,"acy":6714,"969":6715,"763":6716,"042832":6717,"cell":6718,"cre":6719,"1885":6720,"04246":6721,"Ġ491":6722,"Ġ568":6723,"Ġvis":6724,"469":6725,"allery":6726,"580":6727,"MO":6728,"oreign":6729,"Wh":6730,"Ġ((\\":6731,"Ġvia":6732,"466":6733,"ĠGran":6734,"Ġdem":6735,"uec":6736,"Ġ870":6737,"ĠShe":6738,"499":6739,":)":6740,"0096":6741,"Ġ498":6742,"nica":6743,"ĠHen":6744,"Ġzav":6745,"ĠBritannica":6746,"ĠPos":6747,"3001":6748,"DK":6749,"Ġsvi":6750,"UAG":6751,"04387":6752,"itu":6753,"Ġ1648":6754,"ĠAlban":6755,"ĠCP":6756,"Ġ553":6757,"ĠTri":6758,"ĠBW":6759,"Serbia":6760,"Ġul":6761,"Ġ821":6762,"Ġ531":6763,".),\\":6764,"ĠTube":6765,"Ġ980":6766,"-)\\":6767,"513":6768,"ments":6769,"..,":6770,"472":6771,"ĠOVDE":6772,"201323":6773,"ARD":6774,"cemb":6775,"ĠCanada":6776,"ĠIslandora":6777,"dem":6778,"ĠEqu":6779,"ĠAre":6780,"ĠEs":6781,"ĠDisqus":6782,"ĠDepartment":6783,"Ġ2027":6784,"Ġ1220":6785,"airs":6786,"Drazetad":6787,"1849":6788,"ols":6789,"ĠSyria":6790,"inj":6791,"nblog":6792,"Ġ999":6793,"Ġunder":6794,"Ġ489":6795,"1883":6796,"rh":6797,"Ġ545":6798,"otal":6799,"ĠTurk":6800,"Ġche":6801,"ident":6802,"...\\\",":6803,"680":6804,"edija":6805,"ĠVoj":6806,"ANGUAG":6807,"maz":6808,"HO":6809,"MC":6810,"ljeno":6811,"Ġother":6812,"ui":6813,"ticles":6814,"042838":6815,"ĠNBA":6816,"icine":6817,"Ġweek":6818,"0100":6819,"Ġsim":6820,"Ġ4500":6821,"ĠControl":6822,"Ġ541":6823,"Ġ1688":6824,"ĠSocial":6825,"fol":6826,"Ġjun":6827,"NUMX":6828,"3057":6829,"Ġbud":6830,"Ġ(?!":6831,"Ġ561":6832,"erus":6833,"740":6834,"onda":6835,"ĠMit":6836,"KO":6837,"ĠpH":6838,"43010":6839,"nek":6840,"ĠUb":6841,"ades":6842,"orth":6843,"code":6844,"Ġpoli":6845,"Ġ............":6846,"Ġwho":6847,"Ġ1765":6848,"ĠGNU":6849,"ĠFilm":6850,"043010":6851,"ĠTheme":6852,"ĠRoyal":6853,"GB":6854,"Ġmic":6855,"886":6856,"751":6857,"delj":6858,"498":6859,"Ġ1784":6860,"anjem":6861,"erved":6862,"Ġ503":6863,"Ġgen":6864,"ived":6865,"ĠCR":6866,"ĠAli":6867,"ĠCode":6868,"ĠGuide":6869,"Ġ(.\\":6870,"ĠIAF":6871,"sta":6872,"Ġ1720":6873,"Ġ1650":6874,"Ġokt":6875,"0220":6876,"Ġ1687":6877,"juba":6878,"ĠPen":6879,"ĠFlickr":6880,"Ġ(-\\":6881,"Ġ888":6882,"ken":6883,"Ġ581":6884,"Ġ1716":6885,"ands":6886,"3000":6887,"04138":6888,"itary":6889,"042833":6890,"Ġ1440":6891,"Ġ496":6892,"ĠYour":6893,"ione":6894,"201328":6895,"ĠSV":6896,"ĠDaily":6897,"nMil":6898,"ĠItalian":6899,"eZ":6900,"Ġ576":6901,"ipp":6902,"ĠFBR":6903,"624":6904,"042839":6905,"adv":6906,"atis":6907,"ĠSY":6908,"ĠSecurity":6909,"IJA":6910,"ĠErasmus":6911,"ĠYouPorn":6912,"ĠEm":6913,"ĠHR":6914,"ĠPolicy":6915,"Ġdiffer":6916,"\\\"?.\\":6917,"ĠBI":6918,"wa":6919,"ario":6920,"0429":6921,"505":6922,"bE":6923,"Ġ562":6924,"Ġleg":6925,"611":6926,"Ġ920":6927,"ND":6928,"Ġ628":6929,"ĠRos":6930,"rie":6931,"Ġseks":6932,"2764":6933,"523":6934,"Ġ685":6935,"itera":6936,"ĠPetrovi":6937,"Ġcrimes":6938,"ĠUK":6939,"uv":6940,"Ġ843":6941,"ĠJean":6942,"Ġreal":6943,"04217":6944,"iril":6945,"Ġ514":6946,"ĠVan":6947,"PP":6948,"bbe":6949,"--------------------------------":6950,"nRe":6951,"960":6952,"pred":6953,"lear":6954,"Ġ557":6955,"1886":6956,"Ġsmo":6957,"Ġgener":6958,"Ġ544":6959,"Ġ1456":6960,"ĠAth":6961,"502":6962,"ĠFi":6963,"ĠApril":6964,"vol":6965,"},":6966,"Ġ586":6967,"uber":6968,"Ġnastav":6969,"645":6970,"GY":6971,"04136":6972,"04250":6973,"885":6974,"ĠUs":6975,"04403":6976,"irth":6977,".*":6978,"Ġ1463":6979,"Ġpis":6980,"ĠTA":6981,"ĠGRA":6982,"lie":6983,"ittle":6984,"ĠLIST":6985,"Ġ567":6986,"Add":6987,"rent":6988,"22122":6989,"ĠQR":6990,"Ġ547":6991,"Ġvoj":6992,"Ġinst":6993,"ĠDecember":6994,"twitter":6995,"Ġru":6996,"har":6997,"953":6998,"Ġkri":6999,"ĠWhite":7000,"abs":7001,"Ġanti":7002,"Ġ069":7003,"telj":7004,"Ġnam":7005,"Ġ1764":7006,"ĠPsych":7007,"Ġtri":7008,"ĠLANGUAG":7009,"085":7010,"Ġ930":7011,"Ġ2400":7012,"Ġ................................":7013,"Ġ767":7014,"Ġnem":7015,"ĠCatena":7016,"ĠIll":7017,"496":7018,"Ġzem":7019,"ores":7020,"Ġpart":7021,"755":7022,"HS":7023,"(...)":7024,"ĠUDC":7025,"oom":7026,"042848":7027,"ĠLast":7028,"Ġ615":7029,"042836":7030,"essional":7031,"face":7032,"adi":7033,"Ġ1557":7034,",..":7035,"042850":7036,"Ġalso":7037,"tvo":7038,"ziv":7039,"rod":7040,"Ġkod":7041,"Ġ1331":7042,"TeX":7043,"anju":7044,"ĠEnvironment":7045,"Ġ1150":7046,"ĠMORE":7047,"078":7048,"%;\\":7049,"042849":7050,"ĠLtd":7051,"Ġkomun":7052,"608":7053,"Ġ1778":7054,"rough":7055,"ĠEspa":7056,"04358":7057,"mati":7058,"Ġind":7059,"otre":7060,"625":7061,"ĠThomas":7062,"Ġ]\"}":7063,"0018":7064,"2025":7065,"aylor":7066,"Ġnego":7067,"556":7068,"ĠMED":7069,"Ġpov":7070,"ĠExplorer":7071,"820":7072,"MT":7073,"Ġ1001":7074,"483":7075,"ĠPRI":7076,"Ġour":7077,"Ġ1785":7078,"ĠDonesi":7079,"ĠWith":7080,"Ġcentar":7081,"Ġva":7082,"ĠSco":7083,"ĠAngel":7084,"ĠDet":7085,"Ġcy":7086,"684":7087,"Ġ1348":7088,"ografija":7089,"ues":7090,"ĠRem":7091,"Ġagainst":7092,"ĠEL":7093,":...":7094,"0263":7095,"Ġ578":7096,"0102":7097,"ĠMak":7098,"ĠForce":7099,"Ġgodisnjak":7100,"ĠSwedish":7101,"ĠEastern":7102,"wer":7103,"Ġ605":7104,"Ġ787":7105,"Ġ0000":7106,"oki":7107,"vanced":7108,"Ġ1740":7109,"ĠRecords":7110,"Ġ524":7111,"PRO":7112,"Ġep":7113,"1856":7114,"ĠBox":7115,"bn":7116,"itus":7117,"ambo":7118,"Ġbiti":7119,"Ġ546":7120,"urt":7121,"ival":7122,"Ġ602":7123,"hl":7124,"Ġ...)":7125,"889":7126,"+..":7127,"ĠLight":7128,"zav":7129,"042841":7130,"ando":7131,"201321":7132,"525":7133,"Ġ1439":7134,"724":7135,"Ġ-{":7136,"Ġglas":7137,"ĠMoz":7138,"477":7139,"ustra":7140,"/:":7141,"ied":7142,"ĠAdminist":7143,"ĠPMID":7144,"bx":7145,"Ġ1451":7146,"ĠNatural":7147,"Ġsavremen":7148,"ĠAndre":7149,"04154":7150,"Ġma":7151,"ĠFestival":7152,"kin":7153,"Ġ519":7154,"789":7155,"ĠGrada":7156,"ĠPoli":7157,"(\\\"\\":7158,"zija":7159,"ĠNato":7160,"ĠSlov":7161,"ĠFOR":7162,"dQ":7163,"ĠBol":7164,"508":7165,"Beam":7166,"1887":7167,"559":7168,"ardian":7169,"COBISS":7170,"eav":7171,"ners":7172,"Ġ1594":7173,"SL":7174,"lymp":7175,"vat":7176,"izlife":7177,"ĠJack":7178,"507":7179,"ĠOctober":7180,"ĠSystems":7181,"ween":7182,"1860":7183,"Ġ020":7184,"ĠIg":7185,"589":7186,"Ġ717":7187,"mina":7188,"943":7189,"ivanja":7190,"Ġ1760":7191,"Ġ1395":7192,"ĠJune":7193,"ĠAgency":7194,"Ġdata":7195,"Ġ1753":7196,"?).\\":7197,"Ġ583":7198,"Ġdok":7199,"Ġ1024":7200,"png":7201,"ĠPav":7202,"rint":7203,"575":7204,"ults":7205,"651":7206,"cThe":7207,"1839":7208,"ĠGmb":7209,"494":7210,"ĠSaint":7211,"cept":7212,"042842":7213,"ĠBur":7214,"//\\":7215,"042845":7216,"Ġ066":7217,"ĠExper":7218,"bbn":7219,"Ġ990":7220,"491":7221,"Ġ\\\"\\\"":7222,"Ġ603":7223,"Ġgodina":7224,"Ġ034":7225,"Ġ768":7226,"Ġ1773":7227,"492":7228,"Ġ1050":7229,"action":7230,"ĠMos":7231,"Ġ1735":7232,"Ġ1763":7233,"ĠSAD":7234,"Ġge":7235,"ĠChina":7236,"Ġ($":7237,"PC":7238,"cr":7239,"cen":7240,"nev":7241,"042844":7242,"Ġ606":7243,"Ġzlo":7244,"oro":7245,"ĠCentre":7246,"atre":7247,".*\\":7248,"509":7249,"Ġkra":7250,"Ġ(...)\\":7251,"897":7252,"Ġslav":7253,"ĠBit":7254,"ĠPOL":7255,"1111":7256,"eto":7257,"088":7258,"Ġbl":7259,"Ġemp":7260,"478":7261,"Ġbran":7262,"656":7263,"uprava":7264,"0392":7265,"Ġ032":7266,"ĠPhilosoph":7267,"ĠEngland":7268,"Ġ799":7269,"ĠAdSense":7270,"ĠUSD":7271,"sv":7272,"bout":7273,"ĠeT":7274,"abil":7275,"810":7276,"Ġfakultet":7277,"Ġ1530":7278,"ĠGov":7279,"foot":7280,"master":7281,"pons":7282,"READ":7283,"ECTION":7284,"0017":7285,"Ġ2200":7286,"Ġplay":7287,"Ġadminist":7288,"Ġ622":7289,"SSY":7290,"790":7291,"04462":7292,"042847":7293,"Ġneed":7294,"617":7295,"tag":7296,"Ġ632":7297,"ocket":7298,"Ġtarget":7299,"ĠGymBeam":7300,"042846":7301,"Ġkr":7302,"ĠNovember":7303,"ĠBack":7304,"ami":7305,"iving":7306,"Ġ548":7307,"Ġ1751":7308,"IVA":7309,"Ġput":7310,"568":7311,"880":7312,"Ġ614":7313,"Ġ1444":7314,"ful":7315,"Ġill":7316,"isch":7317,"XIII":7318,"amen":7319,"bac":7320,"04388":7321,"Ġvlad":7322,"655":7323,"ĠTO":7324,"Ġ584":7325,"ĠHand":7326,"ĠIntel":7327,"ĠKef":7328,"Ġ1355":7329,"Ġrights":7330,"dag":7331,"ming":7332,"Ġ559":7333,"ĠCharles":7334,"GE":7335,"534":7336,"Qu":7337,"042853":7338,"Ġ1321":7339,"ĠLANGUAGES":7340,"ĠDirect":7341,"ĠAgric":7342,"emin":7343,"aps":7344,"ĠFrancis":7345,"Ġ1516":7346,"Ġ1786":7347,"chan":7348,"ccv":7349,"870":7350,"554":7351,"izam":7352,"Ġget":7353,"tation":7354,"FP":7355,"FA":7356,"test":7357,"ĠBY":7358,"ĠLea":7359,"1800":7360,"ischen":7361,"?-":7362,"ĠIvan":7363,",)":7364,"ctive":7365,"ĠAccess":7366,"\\\\)":7367,"fri":7368,"0623":7369,"ĠRet":7370,"ĠSpring":7371,"ĠQue":7372,"BBC":7373,"Ġistra":7374,"715":7375,"ĠDut":7376,"Ġnav":7377,"cx":7378,"ARH":7379,"Ġ582":7380,"868":7381,"eba":7382,"Ġ542":7383,"904":7384,"793":7385,"20141945":7386,"052":7387,"Ġ('\\":7388,"804":7389,"imedia":7390,"anas":7391,"ĠDictionary":7392,"Ġnauc":7393,"Ġ1380":7394,"Ġ~\\":7395,"SO":7396,"Ġ497":7397,"rik":7398,"ĠZeit":7399,"dj":7400,"top":7401,"Ġ655":7402,"529":7403,"Javascript":7404,"pris":7405,"arius":7406,"642":7407,"Ġ(*\\":7408,"Ġ641":7409,"ĠMain":7410,"ĠGmbH":7411,"595":7412,"ĠTvor":7413,"Ġ\\\"...":7414,"042852":7415,"ĠMW":7416,"depend":7417,"Ġkada":7418,"EMPUS":7419,"548":7420,"ules":7421,"ĠFrank":7422,"fel":7423,"Ġ18000":7424,"ĠKefalo":7425,"Ġ589":7426,"ĠBra":7427,"!..":7428,"551":7429,"2070":7430,"ebizlife":7431,"Ġerror":7432,"stan":7433,"fbd":7434,"Ġjav":7435,"Rad":7436,"Ġ1781":7437,"579":7438,"ĠTennis":7439,"Ġ662":7440,"Ġ[].":7441,"978":7442,"Ġ627":7443,"Ġ608":7444,"AZ":7445,"World":7446,"!!!!\\":7447,"bu":7448,"ĠVas":7449,"emb":7450,"674":7451,"pen":7452,",(\\":7453,"EEE":7454,"1080":7455,"ĠKle":7456,"Ġkol":7457,"677":7458,"ĠPL":7459,"ĠED":7460,"ĠFrom":7461,"world":7462,"Ġmal":7463,"Ġdj":7464,"ĠComments":7465,"/?":7466,"uno":7467,"sen":7468,"ĠConf":7469,"893":7470,"mod":7471,"1861":7472,"043524":7473,"4000":7474,"0486":7475,"1841":7476,"FT":7477,"801":7478,"754":7479,"1389":7480,"Ġ639":7481,"920":7482,"042851":7483,"Ġbeing":7484,"earning":7485,"ĠDisc":7486,"ĠPrevious":7487,"606":7488,"uto":7489,"592":7490,"heim":7491,"ulus":7492,"462":7493,"ĠTvorca":7494,"Ru":7495,"hal":7496,"Ġgroup":7497,"anguages":7498,"670":7499,"Bo":7500,"anda":7501,"ĠAT":7502,"Ġ604":7503,"573":7504,"ĠMathema":7505,"ĠxHamster":7506,"ĠOper":7507,"Ġ635":7508,"201322":7509,"Beta":7510,"202019":7511,"Ġ566":7512,"ĠEP":7513,"ĠSub":7514,"ĠMas":7515,"ĠMu":7516,"Ġsig":7517,"ĠWork":7518,"Ġbre":7519,"nec":7520,"042855":7521,"ĠAwards":7522,"idae":7523,"ĠChic":7524,"Ġizvor":7525,"ĠGB":7526,"Cl":7527,"adov":7528,"zl":7529,"zy":7530,"ources":7531,"ĠUkraine":7532,"Ġ940":7533,"Ġsad":7534,"Ġseptem":7535,"Ġ1427":7536,"rbija":7537,"558":7538,"042854":7539,"1815":7540,"No":7541,"itation":7542,"646":7543,"042843":7544,"Ġ??":7545,"Ġmol":7546,"ĠFiles":7547,"ĠLos":7548,"Ġ593":7549,"rike":7550,"cat":7551,"cP":7552,"QU":7553,"561":7554,"ĠGener":7555,"ogue":7556,"04357":7557,"Ġlong":7558,"Ġ????":7559,"0126":7560,"Ġkomp":7561,"ĠRights":7562,"643":7563,"/?\\":7564,"Ġmate":7565,"1870":7566,"ĠSERBI":7567,"1869":7568,"659":7569,"MW":7570,"Ġzap":7571,"ĠAnton":7572,"pou":7573,"ĠHan":7574,"%-":7575,"dia":7576,"04343":7577,"584":7578,"1874":7579,"43020":7580,"043020":7581,"535":7582,"ĠKS":7583,"---":7584,"Ġ++":7585,"Ġ20000":7586,"Ġ599":7587,"<<":7588,"fied":7589,"ĠGer":7590,"ĠDOO":7591,"%);":7592,"Kos":7593,"042865":7594,"0302":7595,"697":7596,"peed":7597,"ĠArts":7598,"Ġ1485":7599,"ĠLaz":7600,"ĠToday":7601,"576":7602,"532":7603,"ĠAff":7604,"069":7605,"Ġ014":7606,"ĠPayPal":7607,"2027":7608,"Ġ577":7609,"god":7610,"lia":7611,"Ġ607":7612,"ĠRu":7613,"ĠSI":7614,"ĠSecond":7615,"ĠART":7616,"agle":7617,"Ġkad":7618,"elect":7619,"514":7620,"1842":7621,"ĠKal":7622,"Ġ________________________":7623,"0336":7624,"nic":7625,"inux":7626,"ĠRepubl":7627,"ĠSF":7628,"roz":7629,"sku":7630,"808":7631,"EK":7632,"dX":7633,"rije":7634,"lies":7635,"ison":7636,"Ġnjegov":7637,"Ġ810":7638,"Ġpes":7639,"okies":7640,"nhttp":7641,"ops":7642,"ĠPA":7643,"602":7644,"hod":7645,"Ġhuman":7646,"Ġ1730":7647,"Ġ1779":7648,"ĠKN":7649,"ĠRoad":7650,"0083":7651,"Ġovo":7652,"Ġmat":7653,"ĠChristian":7654,"nNext":7655,"Ġ631":7656,"itec":7657,"ĠAsia":7658,"04220":7659,"eSt":7660,"482":7661,"Ġran":7662,"ĠAge":7663,"elo":7664,"3046":7665,"Ġ1570":7666,"ĠGPS":7667,"Ġ558":7668,"iza":7669,"882":7670,"?;":7671,"fY":7672,"ĠSara":7673,"596":7674,"ĠXLVI":7675,"Ġuse":7676,"528":7677,"attle":7678,"ĠEF":7679,"Ġanalysis":7680,"557":7681,"Ġ707":7682,"Ġau":7683,"Ġ14001":7684,"1830":7685,"Ġ587":7686,"Ġjanu":7687,"Ġnm":7688,"zu":7689,"pet":7690,"utt":7691,"811":7692,"059":7693,"ĠTar":7694,"Ġkaz":7695,"TD":7696,"Ġfre":7697,"20141918":7698,"Ġmen":7699,"858":7700,"631":7701,"201326":7702,"042858":7703,"/%":7704,"ĠXNUMX":7705,"ĠVolume":7706,"tellig":7707,"Ġ609":7708,"Ġzu":7709,"acion":7710,"ĠNight":7711,"552":7712,"ĠModern":7713,"cap":7714,"vey":7715,"20122":7716,"Ġ613":7717,"BO":7718,"785":7719,"nGoogle":7720,"042856":7721,"cipl":7722,"........................":7723,"712":7724,"Web":7725,"04413":7726,"042859":7727,"Ġ1745":7728,"653":7729,"Ġchar":7730,"light":7731,"ĠCu":7732,"729":7733,"iation":7734,"652":7735,"Ca":7736,"Ġ621":7737,"Ġ11070":7738,"884":7739,"Ġistraz":7740,"089":7741,"ady":7742,"embar":7743,"753":7744,"peti":7745,"ips":7746,"524":7747,"Ġ727":7748,":--":7749,"ĠEth":7750,"ĠSing":7751,"vala":7752,"Ġ1377":7753,"541":7754,"ĠPra":7755,"ĠUrb":7756,"Ġ790":7757,"ories":7758,"Ġlic":7759,"042860":7760,"Ġ675":7761,"!!!\"}":7762,"Ġ826":7763,"omla":7764,"eriod":7765,"ĠBog":7766,"553":7767,"olutions":7768,"inski":7769,"ĠFA":7770,"elj":7771,"ijan":7772,"field":7773,"661":7774,"And":7775,"SH":7776,"uls":7777,"Ġljudi":7778,"mir":7779,"20144":7780,"Ġ556":7781,"587":7782,"531":7783,"anish":7784,"Ġpass":7785,"1282":7786,"ticus":7787,"ittee":7788,"518":7789,"dov":7790,"675":7791,"Ġquality":7792,"ugo":7793,"RAN":7794,"pk":7795,"Address":7796,"ĠMD":7797,"ĠMI":7798,"0947":7799,"eau":7800,"SSN":7801,"ails":7802,"042863":7803,"860":7804,"weg":7805,"Ġ1769":7806,"1872":7807,"========":7808,"980":7809,"Ġ037":7810,"rian":7811,"UTC":7812,"ĠUDK":7813,"042857":7814,"ĠSeptember":7815,"Ġ564":7816,"daja":7817,"Ġcolor":7818,"allenge":7819,"ĠHills":7820,"Share":7821,"Ġ().\\":7822,"ĠSoftware":7823,"Ġ+,":7824,"ĠEnd":7825,"Ġnek":7826,"ough":7827,"lus":7828,"533":7829,"Ġ811":7830,"ĠCEE":7831,"ĠTel":7832,"Ġmediana":7833,"Ġ0001":7834,"Ġcer":7835,"Ġany":7836,"ĠMilan":7837,"UCN":7838,"567":7839,"ĠTro":7840,"IES":7841,"542":7842,"itch":7843,"Ġdef":7844,"NOST":7845,"?'":7846,"Ġlist":7847,"Mag":7848,"till":7849,"nCS":7850,"icrosoft":7851,"quote":7852,"Ġ1660":7853,"955":7854,":----":7855,"off":7856,"onom":7857,"Ġban":7858,"Ġtext":7859,"ĠTaylor":7860,"Ġtn":7861,"opol":7862,"ĠElectric":7863,"Ġ837":7864,"uble":7865,"vek":7866,"Ġ__":7867,"Ġ--:----":7868,"Ġ--:----:--":7869,":.\"}":7870,"04389":7871,"ĠMovie":7872,"Ġent":7873,"ancial":7874,"Ġ1349":7875,"Ġ677":7876,"1866":7877,"istem":7878,"Ġkar":7879,"862":7880,"Ġtele":7881,"BG":7882,"ĠRAM":7883,"Ġ654":7884,"ĠSciences":7885,"ĠMagazine":7886,"Ġ718":7887,"ĠMess":7888,"099":7889,"ĠServer":7890,"Ġ1345":7891,"atar":7892,"673":7893,"ĠUSB":7894,"Ġih":7895,"ache":7896,"Ġegy":7897,"Ġ554":7898,"iblioteka":7899,"Ġku":7900,"Ġ617":7901,"ĠLet":7902,"752":7903,"Ġdownload":7904,"Ġing":7905,"ĠBlue":7906,"3027":7907,"04240":7908,"737":7909,"Ġ579":7910,"Ġgl":7911,"ebruary":7912,"1847":7913,"ĠBosnia":7914,"601":7915,"836":7916,"cL":7917,"cape":7918,"ĠBill":7919,"616":7920,"bre":7921,"806":7922,"Ġosnov":7923,"onian":7924,"ĠEarth":7925,"Ġ573":7926,"!'":7927,"536":7928,"Or":7929,"ĠClin":7930,"2753":7931,"-.":7932,"Ġlike":7933,"582":7934,"Ġok":7935,"aQ":7936,"ĠNic":7937,"tek":7938,"ĠCentury":7939,"ĠWomen":7940,"597":7941,"0311":7942,"042864":7943,"Ġ642":7944,"hout":7945,"Ġ031":7946,"ĠVideo":7947,"********":7948,"Ġpatri":7949,"517":7950,"look":7951,"itis":7952,"?..":7953,"Ġmnog":7954,"704":7955,"867":7956,"zik":7957,"umen":7958,"ĠNature":7959,"cembar":7960,"Ġ1430":7961,"ĠKom":7962,"estra":7963,"Ġfebru":7964,"awei":7965,"Ġ619":7966,"ĠIv":7967,"nMoja":7968,"0212":7969,"utor":7970,"come":7971,"604":7972,"ĠAdobe":7973,"ĠCla":7974,"ĠWestern":7975,"kih":7976,"Ġart":7977,"arka":7978,"nie":7979,"201327":7980,"plan":7981,"ĠSav":7982,"Ġ890":7983,"ĠDun":7984,"04205":7985,"down":7986,"ĠCommunic":7987,"0387":7988,"ĠWater":7989,"086":7990,"bet":7991,"ategory":7992,"ĠMiroslav":7993,"Ġ?!":7994,"tele":7995,"Ġ1741":7996,"ĠBojan":7997,"681":7998,"581":7999,"ites":8000,"ĠAnn":8001,"586":8002,"rts":8003,"ĠEnergy":8004,"zm":8005,"043511":8006,"042866":8007,"ĠGood":8008,"ates":8009,"Ġ572":8010,"1858":8011,"Ġhom":8012,"ĠRAID":8013,"zant":8014,"eCh":8015,"1843":8016,"John":8017,"det":8018,"ĠWEB":8019,"ĠBio":8020,"ĠKn":8021,"HR":8022,".?":8023,"ĠBand":8024,"ĠVers":8025,"phy":8026,"ways":8027,"787":8028,"lines":8029,"Ġpeople":8030,"Ġ623":8031,"ĠCSS":8032,"Ġ715":8033,"Ġ1711":8034,"Ġmost":8035,"571":8036,"Ġ1748":8037,"imus":8038,"Ġ1217":8039,"ĠEurop":8040,"EOGRA":8041,"El":8042,"2222":8043,"aste":8044,"ĠDen":8045,"itar":8046,"very":8047,"Ġpress":8048,"887":8049,"ĠParti":8050,"Ġque":8051,"ĠSanta":8052,"DI":8053,"ĠInstitut":8054,"ĠAttribution":8055,"042861":8056,"042868":8057,"nth":8058,"????\\":8059,"istoc":8060,"04359":8061,"Ġ015":8062,"ĠIndust":8063,"622":8064,"Ġten":8065,"Ġ1756":8066,"Ġif":8067,"aki":8068,"Ġ-(\\":8069,"ĠYoutube":8070,"rice":8071,"anuary":8072,"Ġ757":8073,"Ġ1280":8074,"Ġapril":8075,"042862":8076,"ĠTest":8077,"522":8078,"svet":8079,"zren":8080,"ĠiOS":8081,"{:}{:":8082,"654":8083,"yan":8084,"rija":8085,"spec":8086,"bs":8087,"kos":8088,"Ġ618":8089,"ĠLex":8090,"959":8091,"20132014":8092,"201350":8093,"lean":8094,"Ġincl":8095,"605":8096,"Ġequ":8097,"ĠBon":8098,"Ġ+/-":8099,"632":8100,"PM":8101,"Ġ12000":8102,"ĠLinked":8103,"jana":8104,"Ġ597":8105,"1813":8106,"788":8107,"eak":8108,"Ġ1767":8109,",\\\"\\":8110,"inac":8111,"572":8112,"cht":8113,"ards":8114,"Ġ629":8115,"ĠCur":8116,"obro":8117,"zv":8118,"04423":8119,"oria":8120,"ĠJac":8121,"star":8122,"weet":8123,"Wik":8124,"ĠOri":8125,"891":8126,"0462":8127,"olas":8128,"feren":8129,"jenko":8130,"ported":8131,"ĠGuardian":8132,"str":8133,"WW":8134,"cN":8135,"pha":8136,"cing":8137,"Ġ1692":8138,"1865":8139,"bid":8140,"Ġserb":8141,"ĠBerlin":8142,"ĠNastav":8143,"Ġ571":8144,"]:":8145,"Ġ15000":8146,"Ġhoc":8147,"struction":8148,"api":8149,"Ġnjih":8150,"ability":8151,"766":8152,")))":8153,"nhttps":8154,"784":8155,"mary":8156,"Ġview":8157,"ĠSteph":8158,"042867":8159,"Ġoper":8160,"Ġ569":8161,"ril":8162,"3044":8163,"4438":8164,"jes":8165,"tus":8166,"Ġ725":8167,"Ġsrbija":8168,"Ġproblem":8169,"1821":8170,"lju":8171,"ĠPhot":8172,"ĠPort":8173,"1007":8174,"STEM":8175,"726":8176,"ĠSky":8177,"894":8178,"DIR":8179,"ĠOlymp":8180,"791":8181,"0384":8182,"Ġ665":8183,"ivi":8184,"Ġuredi":8185,":\\\"":8186,"Ġ1560":8187,"oa":8188,"ozic":8189,"lobodan":8190,"eparh":8191,"Ġdoc":8192,"04260":8193,"Ġ1752":8194,"Deutsche":8195,"ĠGreece":8196,"nMiljenko":8197,"821":8198,"ante":8199,"ĠMM":8200,"iku":8201,"ĠChamp":8202,"ljen":8203,"My":8204,"dni":8205,"teneg":8206,"ĠCF":8207,"042870":8208,"-),":8209,"Ġ749":8210,"Ġ1519":8211,"nSrp":8212,"Ġ624":8213,"dlanak":8214,"nMojahercegovina":8215,"667":8216,"iverzitet":8217,"Ġthere":8218,"545":8219,".].":8220,"Kon":8221,"585":8222,"635":8223,"page":8224,"Ġmart":8225,"ologiju":8226,"Man":8227,"Ġ1347":8228,"912":8229,"Ġ007":8230,"odor":8231,"042869":8232,"ĠTw":8233,"Ġ645":8234,"042871":8235,"ĠCs":8236,"ĠPod":8237,"Ġjel":8238,"imen":8239,"iment":8240,"orial":8241,"Sch":8242,"1863":8243,"3013":8244,"ĠPS":8245,"FF":8246,"hol":8247,"ĠEngineering":8248,"istic":8249,"Ġkos":8250,"Ġyear":8251,"EREF":8252,"ĠReuters":8253,"Ġnews":8254,"Ġ574":8255,"593":8256,"ĠSmith":8257,"04135":8258,"ilding":8259,"fl":8260,"04438":8261,"544":8262,"ichte":8263,"vention":8264,"ĠGmail":8265,".../":8266,"icht":8267,"lede":8268,"04125":8269,"Ġsal":8270,"osloven":8271,"983":8272,"201329":8273,"Ġ592":8274,"Ġ1536":8275,"044517":8276,"ĠTEMPUS":8277,"954":8278,"ĠWC":8279,"mg":8280,"Ġedu":8281,"Ġ()\\":8282,"718":8283,"dna":8284,"ĠOC":8285,"ĠXLV":8286,"Ġ732":8287,"Ġbalkan":8288,"Ġ1782":8289,"Ġsy":8290,"flu":8291,"tto":8292,"0201":8293,"628":8294,"ĠFar":8295,"nez":8296,"::\\":8297,"574":8298,"fQ":8299,"ĠXXIII":8300,"FS":8301,"YY":8302,"Ġday":8303,"aniel":8304,"ĠEditor":8305,"775":8306,"Ġ!\"}":8307,"Ġ:.":8308,"IKA":8309,"04268":8310,"ĠDOC":8311,"ĠSORT":8312,"ĠJas":8313,"781":8314,"547":8315,"ires":8316,"Ġharv":8317,"DIRECTION":8318,"Ġ8211":8319,"ader":8320,"dap":8321,"ĠInstagram":8322,"ĠJuly":8323,"ĠIndonesia":8324,"Ġdrag":8325,"ISC":8326,",...\"}":8327,"Ġ1771":8328,"inn":8329,"ĠDeutsche":8330,"ĠJapanese":8331,"\\\"(\\":8332,"Ġ1610":8333,"717":8334,"ĠKM":8335,"869":8336,"nIX":8337,"ourse":8338,"095":8339,"Ġ2300":8340,"Ġ1640":8341,"acter":8342,"OLOG":8343,"Ġ1540":8344,"ĠMedi":8345,"ĠLev":8346,"lt":8347,"Ġ672":8348,"ĠENGL":8349,"Ġ1762":8350,"1300":8351,"852":8352,"Ġkultur":8353,"Ġonda":8354,"ĠStyle":8355,"058":8356,"VM":8357,"881":8358,"3028":8359,"1873":8360,"ĠMihail":8361,"ĠBell":8362,"5000":8363,"539":8364,"634":8365,"mic":8366,"20132016":8367,"201340":8368,"ĠRoll":8369,"Ġtaj":8370,"unch":8371,"bed":8372,"ingu":8373,"cR":8374,"isan":8375,"annel":8376,"714":8377,"Ġlink":8378,"cription":8379,"745":8380,"915":8381,"itage":8382,"LO":8383,"overy":8384,"795":8385,"ĠTeam":8386,"XIV":8387,"fal":8388,"ĠPi":8389,"Ġjul":8390,"Ġmedia":8391,"ĠStudy":8392,"ĠLXX":8393,"eben":8394,"ĠSimon":8395,"042872":8396,"Ġsum":8397,"aker":8398,"875":8399,"04146":8400,"ĠArs":8401,"atio":8402,"hop":8403,"Ġ1749":8404,"ĠCamp":8405,"0450":8406,"anti":8407,"ĠIEEE":8408,"04108":8409,"ĠFood":8410,"ĠViol":8411,".<":8412,"588":8413,"oy":8414,"Ġskype":8415,"Ġljuba":8416,"Ġ1354":8417,"4345":8418,"omet":8419,"ĠLook":8420,"ĠYoung":8421,"04430":8422,"Ġ970":8423,"Ġbude":8424,"ensus":8425,"503":8426,"HA":8427,"py":8428,"px":8429,"1850":8430,"ĠUbuntu":8431,"ĠJESSY":8432,"Ġ(!),":8433,"1844":8434,"ĠOK":8435,"tech":8436,"Ġ591":8437,"Ġpet":8438,"Ġoktobar":8439,"Ġpom":8440,"ĠRus":8441,"Ġradi":8442,"ĠSearch":8443,"ily":8444,"Ġ1199":8445,"ĠDJ":8446,"901":8447,"04184":8448,"Ġ712":8449,"foje":8450,"eck":8451,"ĠSong":8452,"ĠNations":8453,"ounds":8454,"allingrain":8455,"tern":8456,"ikiped":8457,"((":8458,"Ġpal":8459,"Ġvar":8460,"Ġlight":8461,"Ġlatin":8462,"ious":8463,"cuser":8464,"Ġ1571":8465,"Ġ1697":8466,"Ġig":8467,"Ġ1715":8468,"cast":8469,"04245":8470,"ustrated":8471,"Ġkor":8472,"anger":8473,"ĠNASA":8474,"eks":8475,"ĠCommittee":8476,"Ġ1420":8477,"merican":8478,"-..":8479,"3017":8480,"Ġ885":8481,"ĠkB":8482,"ĠText":8483,"sic":8484,"soci":8485,"Ġ724":8486,"izacija":8487,"Ġ\"\"}":8488,"ĠMedical":8489,"ĠENGLISH":8490,"SEE":8491,"inki":8492,"csession":8493,"04155":8494,"...]\\":8495,"ĠCine":8496,"ĠROM":8497,"738":8498,"ĠBlu":8499,"last":8500,"Ġsex":8501,"asc":8502,"ique":8503,"997":8504,",(":8505,"042873":8506,"ĠLy":8507,"594":8508,"Ġ----":8509,"iterature":8510,"Ġpage":8511,"3025":8512,"Ġ1476":8513,"0637":8514,"ĠPers":8515,"ĠWy":8516,"footnote":8517,"Ġom":8518,"rak":8519,"Ġ1403":8520,"News":8521,"cor":8522,"isp":8523,"079":8524,"Ġnep":8525,"Ġ1405":8526,"ĠSU":8527,"Ġkey":8528,"Ġspambo":8529,"546":8530,"pia":8531,"dos":8532,"ĠHollywood":8533,"ĠCITEREF":8534,"islav":8535,"Ġappe":8536,"stven":8537,"Ġnetwork":8538,"04345":8539,"ĠMass":8540,"Ġculture":8541,"ĠExpress":8542,"rand":8543,"ĠCir":8544,"1371":8545,"operation":8546,"825":8547,"cQ":8548,"598":8549,"ĠSon":8550,"1852":8551,"Ġthey":8552,"ĠOrthodox":8553,"bro":8554,"Ġ1458":8555,"Ġsupport":8556,"842":8557,"Ġnow":8558,"serbian":8559,"603":8560,"04147":8561,"ĠGermany":8562,"609":8563,",!\\":8564,"hard":8565,"618":8566,"Ġ1721":8567,"Ġocc":8568,"685":8569,"ĠUnder":8570,"02021":8571,"SQL":8572,"....{":8573,"lio":8574,"Ġ1704":8575,"zech":8576,"nx":8577,"ĠComputer":8578,"Ġaddress":8579,"Ġfilm":8580,"ĠSimp":8581,"626":8582,"])":8583,"spc":8584,"ĠPeople":8585,"!?!":8586,"-/-":8587,"TRA":8588,"nad":8589,"zar":8590,"Ġ1759":8591,"ĠEdw":8592,"Ġem":8593,"ĠTag":8594,"Ġtop":8595,"Ste":8596,"ĠPocket":8597,"bec":8598,"20132010":8599,"302021":8600,"757":8601,"769":8602,"pek":8603,"portal":8604,"ĠSN":8605,"ĠRSD":8606,"IE":8607,"613":8608,"Ġ1714":8609,"inet":8610,"04218":8611,"edom":8612,"Ġisk":8613,"707":8614,"Ġ714":8615,"ĠLong":8616,"rator":8617,"Ġstyle":8618,"ĠPoint":8619,"910":8620,"Ġ598":8621,"okie":8622,"615":8623,"706":8624,"iden":8625,"lub":8626,"ovac":8627,"772":8628,"Ġtou":8629,"607":8630,"042619":8631,"...?\\":8632,"ĠPoz":8633,"042874":8634,"udefc":8635,"Ġ1710":8636,"1859":8637,"669":8638,"3024":8639,"Ġ1390":8640,"faj":8641,"ĠXXII":8642,"bes":8643,"569":8644,"apa":8645,"ĠPack":8646,"Ġele":8647,"ISA":8648,"ife":8649,"Ġ596":8650,"ĠWolf":8651,"ĠBO":8652,"687":8653,"Ġ[+]\"}":8654,"0300":8655,"avez":8656,"inje":8657,"lon":8658,"Ġjoj":8659,"4302021":8660,"04302021":8661,"Ġ?.":8662,"adt":8663,"3398":8664,"Ġhal":8665,"644":8666,"Ġ706":8667,"ĠServices":8668,"ĠCivil":8669,"Ġ1018":8670,"Ġphoto":8671,"Ġ1512":8672,"690":8673,"0213":8674,"Ġsci":8675,"762":8676,"3002":8677,"REM":8678,"Ġ1460":8679,"771":8680,"ĠFox":8681,"Ġkomunik":8682,"549":8683,"Mi":8684,"Ġend":8685,"Ġkomentar":8686,"638":8687,"Ge":8688,"este":8689,"ĠJoseph":8690,"bum":8691,"eparhija":8692,"736":8693,"970":8694,"ĠEss":8695,"682":8696,"IGN":8697,"tegra":8698,"MI":8699,"946":8700,"20143":8701,"747":8702,"dz":8703,"Ġfel":8704,"ayu":8705,"Pre":8706,"ĠFried":8707,"ĠSet":8708,"782":8709,"648":8710,"lit":8711,"2024":8712,"1840":8713,"ĠHuawei":8714,"537":8715,"gg":8716,"042880":8717,"ĠPO":8718,"Ġ100000":8719,"Ġ754":8720,"Office":8721,"Ġoko":8722,"Ġwhat":8723,"hot":8724,"Ġshow":8725,"Ġ1686":8726,"eva":8727,"nMO":8728,"0485":8729,"Ġ1702":8730,"rim":8731,"Ġdana":8732,"entia":8733,"yer":8734,"Ġ1755":8735,"Ġ1498":8736,"ĠFra":8737,"Ġ3200":8738,"ĠKey":8739,"ĠEc":8740,"759":8741,"Ġ765":8742,"troduction":8743,"lication":8744,"1862":8745,"``\\":8746,"ĠSv":8747,"ĠVin":8748,"1002":8749,"ahasa":8750,"ĠJel":8751,"Ġstatus":8752,"landia":8753,"Ġ646":8754,"Next":8755,"iter":8756,"Ġ705":8757,"ĠChildren":8758,"Ġcond":8759,"583":8760,"sup":8761,"uds":8762,"ĠKore":8763,"RIG":8764,"721":8765,"1019":8766,"Ġland":8767,"896":8768,"arum":8769,"iljana":8770,"ables":8771,"Ġ638":8772,"758":8773,"00001":8774,"ĠChicago":8775,"096":8776,"ogni":8777,"ĠSYSTEM":8778,"Ġ(#":8779,"Ġ863":8780,"ĠStart":8781,"Ġknow":8782,"aksim":8783,"ville":8784,"ĠCAN":8785,"ĠBay":8786,"ĠeTwinning":8787,"JO":8788,"764":8789,"773":8790,"ĠBern":8791,"998":8792,"0635":8793,"ĠDra":8794,"Ġhomo":8795,"orge":8796,"ĠILAC":8797,"Ġmoz":8798,"erbia":8799,"ĠCER":8800,"olj":8801,"4340":8802,"042875":8803,"658":8804,"voje":8805,"Ġ1736":8806,"ĠNu":8807,"ramew":8808,")\\\",":8809,"OUT":8810,"cH":8811,"691":8812,"ĠBritain":8813,"ĠHom":8814,"awa":8815,"ACCP":8816,"SPZ":8817,"ĠBrown":8818,"Ġporod":8819,"ĠLeague":8820,"onto":8821,"Ġ637":8822,"inion":8823,"ĠVar":8824,"Ġext":8825,"vari":8826,"ĠIUCN":8827,"Ġbetween":8828,"042876":8829,"Ġ1757":8830,"Ġservice":8831,"fect":8832,"LAT":8833,"04454":8834,"Ġ2700":8835,"ĠDar":8836,"KE":8837,"Ġmulti":8838,"ĠLen":8839,"Ġthan":8840,"vodina":8841,"ĠNikola":8842,"713":8843,"oS":8844,"iklop":8845,"716":8846,"gust":8847,"tium":8848,"rep":8849,"Ġ5500":8850,"...?":8851,"2665":8852,"743":8853,"ĠCloud":8854,"084":8855,"786":8856,"ĠAdvanced":8857,"ĠWik":8858,"Ġhogy":8859,"sve":8860,"Ġ763":8861,"onde":8862,"Ġsada":8863,"rij":8864,"Ġform":8865,"833":8866,"097":8867,"993":8868,"042877":8869,"ĠABC":8870,"PR":8871,"04313":8872,"041411":8873,"uzz":8874,"Ġreserved":8875,"urus":8876,"lain":8877,"ĠPopulation":8878,"aY":8879,"Ġ1528":8880,"resa":8881,"ĠSig":8882,"ĠRat":8883,"ĠOver":8884,"qip":8885,"/(\\":8886,"isto":8887,"732":8888,"Google":8889,"otis":8890,"Ġ825":8891,"esi":8892,"ĠCall":8893,"link":8894,"Ġhow":8895,"/;":8896,"Fallingrain":8897,"cas":8898,"Ġ2035":8899,"Ġ735":8900,"aching":8901,"Ġ742":8902,"ĠProfessional":8903,"Ġann":8904,"?\\\".":8905,"Ġ1701":8906,"avy":8907,"Ins":8908,"566":8909,"ĠSpain":8910,"ĠProtection":8911,"ĠJugoslav":8912,"796":8913,"04340":8914,"cop":8915,"Ġsto":8916,"Ġ1448":8917,"ised":8918,"ĠOR":8919,"ogl":8920,"mbol":8921,"Ġzv":8922,"erial":8923,"Ġfebruar":8924,"afo":8925,"Ġbih":8926,"956":8927,"Ġistrazivanja":8928,"0397":8929,"Ġ722":8930,"Ġbit":8931,"ĠLas":8932,"Ġprofes":8933,"imi":8934,"Ġgot":8935,"Ġ731":8936,"Ġ1396":8937,"eljen":8938,"Ġ634":8939,"ĠHz":8940,"ĠRazgovor":8941,"0235":8942,"042878":8943,"ĠWild":8944,"Ġmov":8945,"XL":8946,"bae":8947,"ĠDist":8948,"aojoj":8949,"815":8950,"naj":8951,"04100":8952,"Ġ1566":8953,"orsk":8954,"ĠGame":8955,"ĠScientific":8956,"ĠFuture":8957,"fcn":8958,"::::::::":8959,"CT":8960,"sg":8961,"Ġ1620":8962,"Ġ1025":8963,"umbers":8964,"ĠEconomic":8965,"':":8966,"irit":8967,"Ġ867":8968,"arp":8969,"ographic":8970,"733":8971,"2588":8972,"201360":8973,"letter":8974,"vezda":8975,"083":8976,"Ġdist":8977,"Ġ\\\"...\\":8978,"799":8979,"Ġprist":8980,"Ġava":8981,"Ġvirus":8982,"04256":8983,"atro":8984,"srbin":8985,"614":8986,"udes":8987,"Ġein":8988,"805":8989,"poz":8990,"words":8991,"042883":8992,"042879":8993,"ĠAuthor":8994,"ĠYouth":8995,"zh":8996,"Ġ649":8997,"Ġ17025":8998,"ĠDays":8999,"rana":9000,"Ġstvar":9001,"ĠModel":9002,"705":9003,"ĠCross":9004,"Ġ1381":9005,"Ġknjizevnosti":9006,"783":9007,"756":9008,"span":9009,"Ġjanuar":9010,"kk":9011,"04171":9012,"ĠAS":9013,"Ġ.......":9014,"\\\\\\\\":9015,"1824":9016,"ĠLj":9017,"04424":9018,"Ġ[*\\":9019,"ADA":9020,"agen":9021,"ĠHam":9022,"04257":9023,"Ġ1725":9024,"ĠCulture":9025,"nTo":9026,"Me":9027,"ĠKnow":9028,"ojo":9029,"ĠDeb":9030,"ĠVu":9031,"ĠHeart":9032,"You":9033,"Ġ656":9034,"ĠCard":9035,",-\\":9036,"Ġdiv":9037,"..)":9038,"04150":9039,"acht":9040,"hell":9041,"vate":9042,"Ġnovembar":9043,"ĠSir":9044,"ĠAction":9045,"043012":9046,"0376":9047,"Ġ912":9048,"ĠYear":9049,"Ġzbog":9050,"43027":9051,"043027":9052,"Ġ751":9053,"Ġ1180":9054,"ercial":9055,"ARI":9056,"oughts":9057,"Ġ1649":9058,"0932":9059,"Ġ644":9060,"ĠDance":9061,"ĠHE":9062,"usion":9063,"Ġ0018":9064,"ĠAbout":9065,"eivot":9066,"%-\\":9067,"access":9068,"ĠHon":9069,"ANJA":9070,"Ġ1630":9071,"957":9072,"ensch":9073,"_{":9074,"Ġ812":9075,"reement":9076,"22123":9077,"vijesti":9078,"Global":9079,"ĠLek":9080,"564":9081,"XV":9082,"ĠHead":9083,"ĠCommission":9084,"XIX":9085,"996":9086,"put":9087,"Ġ1527":9088,"Ġ2600":9089,"794":9090,"ved":9091,"Ġjournal":9092,"IVE":9093,"rkva":9094,"Ġwo":9095,"ĠMail":9096,"##":9097,"BENI":9098,"Ġseptembar":9099,"042882":9100,"Ġ721":9101,"Ġgovor":9102,"ĠAffairs":9103,"Ġcount":9104,"Ġfollow":9105,"adovno":9106,"srem":9107,"ĠCEEPUS":9108,"538":9109,"nROP":9110,"Ġafter":9111,"ĠTool":9112,"ierre":9113,"ĠNederlands":9114,"ĠLjub":9115,"Ġbes":9116,"761":9117,"04323":9118,"Ġ1761":9119,"lix":9120,"archive":9121,"ransport":9122,"04227":9123,"Ġ1722":9124,"Ġcf":9125,"Ġdifferent":9126,"ding":9127,"Ġ988":9128,"ĠRap":9129,"ilable":9130,"IDS":9131,"graph":9132,"Ġ1726":9133,"629":9134,"Ġcal":9135,"989":9136,"kat":9137,"zent":9138,"ĠAqu":9139,"ĠPic":9140,"ROM":9141,"04324":9142,"Ġ910":9143,"ĠGrad":9144,"ĠPhysics":9145,"ĠSl":9146,"ĠMis":9147,"usta":9148,"Ġstart":9149,"Ġ741":9150,"Ġtag":9151,"042884":9152,"Ġ955":9153,"ilic":9154,"ĠEle":9155,"817":9156,"Windows":9157,"Ġpan":9158,"Col":9159,"Ġ708":9160,"Ġ061":9161,"rix":9162,"Ġtoga":9163,"Ġfa":9164,"43013":9165,"Ġ594":9166,"043013":9167,"COVID":9168,"Ġmoder":9169,"his":9170,"Ġ1234":9171,"ĠMO":9172,"Ġparad":9173,"ramework":9174,"Ġ681":9175,"ĠNIS":9176,"ĠTech":9177,"gentina":9178,"812":9179,"Ġ2800":9180,"ĠVen":9181,"lich":9182,"Ġsud":9183,"bot":9184,"988":9185,"ĠCroati":9186,"735":9187,"uu":9188,"nye":9189,"678":9190,"BF":9191,"Ġ1020":9192,"Ġopen":9193,"623":9194,"Ġ1494":9195,"ician":9196,"ĠBut":9197,"ĠZa":9198,"Yo":9199,"dependent":9200,"ĠRepublike":9201,"3093":9202,"TU":9203,"Ġsee":9204,"ĠHappy":9205,"633":9206,"042881":9207,"Ġ648":9208,"dek":9209,"ĠWiki":9210,"ĠNova":9211,"577":9212,"devi":9213,"ioque":9214,"iger":9215,"3031":9216,"ĠField":9217,"Ġ1198":9218,"ĠES":9219,"ĠFest":9220,"rang":9221,"raining":9222,"042886":9223,"0428100":9224,"ontinu":9225,"telligence":9226,"ĠForeign":9227,"ĠInfo":9228,"Ġ667":9229,"Ġ775":9230,"Ġvr":9231,"Ġnau":9232,"________________________________________":9233,"Ġ652":9234,"ĠAuto":9235,"873":9236,"ĠSpanish":9237,"ologie":9238,"alifor":9239,"vaj":9240,"Ġ791":9241,"ĠPRE":9242,"043016":9243,"Ġimage":9244,"976":9245,"NC":9246,"ĠMol":9247,"Ġzaj":9248,"890":9249,"To":9250,"cF":9251,"inary":9252,"Ġmer":9253,"asi":9254,"043014":9255,"wegian":9256,"Ġbeen":9257,"ĠCour":9258,"ĠNow":9259,"ĠStory":9260,"laden":9261,"Ma":9262,"3023":9263,"04267":9264,"isad":9265,"View":9266,"042887":9267,"ĠCast":9268,"Ġ016":9269,",''":9270,":+":9271,"bon":9272,"ulta":9273,"fA":9274,"ĠJones":9275,"201333":9276,"ified":9277,"04464":9278,"ĠMary":9279,"jaj":9280,"ĠUrban":9281,"Ġcall":9282,"law":9283,"578":9284,"807":9285,"Ġ1703":9286,"082":9287,"Ġ..........":9288,"ĠLinkedIn":9289,"ĠGa":9290,"Ġ1190":9291,"Ġparti":9292,"ĠWWW":9293,"Ġ745":9294,"Ġ1733":9295,"ivosti":9296,"LI":9297,"1851":9298,"Ġcu":9299,"orary":9300,"1739":9301,"thur":9302,"0305":9303,"ĠGet":9304,"Ġ643":9305,"itional":9306,"wap":9307,"usk":9308,"Ġcos":9309,"Maplandia":9310,"ĠDat":9311,"kri":9312,"Ġ702":9313,"rium":9314,"ĠNebo":9315,"ads":9316,"amer":9317,"ARE":9318,"ditanjem":9319,"563":9320,"042885":9321,"Ġ663":9322,"Ġ1443":9323,"dow":9324,"ĠDru":9325,"ANI":9326,"Ġ1370":9327,"'')":9328,"627":9329,"dko":9330,"hy":9331,"ĠVa":9332,"Ġ659":9333,"dao":9334,"abase":9335,"idual":9336,"ĠDark":9337,"Ġ[*":9338,"ĠiP":9339,"RAV":9340,"omir":9341,"ĠOrganization":9342,"eave":9343,"ĠFair":9344,"DS":9345,"Ġpm":9346,"ithout":9347,"ologies":9348,"ĠIde":9349,"ashion":9350,"ĠPublished":9351,"848":9352,"Ġ678":9353,"Ġ687":9354,"ĠCAD":9355,"edr":9356,"andi":9357,"Ġinternational":9358,"ĠList":9359,"ĠNem":9360,"Ġdrugi":9361,"Word":9362,"Ġoriginal":9363,"ĠStrategy":9364,"isten":9365,"087":9366,"883":9367,"Ġ.........":9368,"Ġtro":9369,"ĠNO":9370,"Ġsport":9371,"Ġdisc":9372,"arije":9373,"aciju":9374,"chichte":9375,"43028":9376,"Ġpour":9377,"951":9378,"952":9379,"Ġknjiga":9380,"043028":9381,"clan":9382,"0221":9383,"oe":9384,"Ġ891":9385,"ĠStra":9386,"ĠFootball":9387,"Ġ1580":9388,"skenov":9389,"ĠGuy":9390,"ĠTes":9391,"ĠKultur":9392,"dnik":9393,"adu":9394,"ravel":9395,"911":9396,")).\\":9397,"04119":9398,"ĠStand":9399,"Ġistorija":9400,"04248":9401,"ĠFI":9402,"081":9403,"Ġ668":9404,"ĠMont":9405,"ĠOld":9406,"041311":9407,"Ġ(!?":9408,"0214":9409,"ĠME":9410,"He":9411,"Ġ1606":9412,"ĠWorks":9413,"ĠFact":9414,"Ġ78000":9415,"Ġ805":9416,"1833":9417,"ravo":9418,"ĠUP":9419,"ĠKr":9420,"ĠDefault":9421,"0287":9422,"Ġtwo":9423,"ĠGro":9424,"ulty":9425,"042895":9426,"Ġ664":9427,"Ġvit":9428,"1718":9429,"fon":9430,"Ġog":9431,"Ġ1713":9432,"Ġbel":9433,"Ġ1435":9434,"0124":9435,"0649":9436,"lana":9437,"Ġ'''\\":9438,"Ġ1537":9439,"ĠSor":9440,"ĠSLU":9441,"ĠAda":9442,"ynam":9443,"663":9444,"Ġmas":9445,"ĠDYS":9446,"ĠAnth":9447,"/),":9448,"ĠTrib":9449,"edo":9450,"Ġdecembar":9451,"866":9452,"ĠSve":9453,"727":9454,"ĠBat":9455,"1600":9456,"ĠArchive":9457,"Score":9458,"hin":9459,"042888":9460,"gles":9461,"uzej":9462,"722":9463,"GS":9464,"0117":9465,"Ġ657":9466,"Ġoba":9467,"779":9468,"Ġnastava":9469,"0236":9470,"Ġkat":9471,"ĠBulgarian":9472,"ĠNap":9473,"Ġ1412":9474,"Ġeng":9475,"Ġpf":9476,"foja":9477,"ĠMedicine":9478,"ĠVladimir":9479,"845":9480,"20132012":9481,"ĠFlash":9482,"mel":9483,"041019":9484,"orf":9485,"ĠPass":9486,"Ġny":9487,"04326":9488,"Ġ1685":9489,"ĠMate":9490,"\\\">":9491,"Ġ815":9492,"Ġwater":9493,"atz":9494,"Ġbol":9495,"741":9496,"723":9497,"ĠTxxx":9498,"ĠNot":9499,"809":9500,"Up":9501,"enc":9502,"acters":9503,"Ġmog":9504,"tors":9505,":,":9506,"Ġ1441":9507,"Ġ!?\\":9508,"ENCE":9509,"ĠOrto":9510,"eivanja":9511,"ĠStatistics":9512,"1832":9513,"042894":9514,"ĠLearning":9515,"Ġ;)":9516,"imapia":9517,"ĠLuki":9518,"Ne":9519,"1853":9520,"ĠPink":9521,"Ġ1314":9522,"ĠSee":9523,"728":9524,"991":9525,"ktiv":9526,"Ġinform":9527,"Ġ1196":9528,"Ġtest":9529,"838":9530,"article":9531,"reich":9532,"utro":9533,"________________________":9534,"ĠLogo":9535,"Med":9536,"ĠFebruary":9537,"Ġ1404":9538,"Internet":9539,"Ġ845":9540,"acc":9541,"ugar":9542,"Ġ1743":9543,"ĠJanuary":9544,"822":9545,"Ġ653":9546,"DN":9547,"041450":9548,"ĠChemistry":9549,"Ġ862":9550,"imal":9551,"04436":9552,"\\\",\\\"":9553,"ĠDj":9554,"ĠNY":9555,"ibor":9556,"ettings":9557,"43025":9558,"ĠHomo":9559,"043025":9560,"Ġ1707":9561,"0377":9562,"ĠParty":9563,"BEC":9564,"bO":9565,"043811":9566,"Ġ1541":9567,".......":9568,"20141941":9569,"Ġmira":9570,"0924":9571,"mium":9572,"829":9573,"Ġ785":9574,"ĠAko":9575,"ĠStudio":9576,"Ġess":9577,"ĠHill":9578,"Ġobrazovanje":9579,"ĠSqu":9580,"1854":9581,"Ġmes":9582,"797":9583,"ĠMur":9584,"hov":9585,"Ġnag":9586,"ĠDownloads":9587,"43017":9588,"043017":9589,"TF":9590,"Ġ713":9591,"Ġpat":9592,"ĠBA":9593,"open":9594,"ĠSmart":9595,"995":9596,"CL":9597,"anal":9598,"Ġdas":9599,"Ġ1454":9600,"ITY":9601,"iny":9602,"ĠExt":9603,"ractice":9604,"Ġ1325":9605,"940":9606,"922":9607,"ĠSab":9608,"ĠOrig":9609,"Ġquo":9610,"Ġmicro":9611,"ĠBru":9612,"ĠBEOGRA":9613,"udsman":9614,"Ġ1392":9615,"Ġ1415":9616,"695":9617,"Ġperiod":9618,"cho":9619,"nXX":9620,"Ġ1712":9621,"max":9622,"<.":9623,"ĠBad":9624,"Ġprim":9625,"Ġ647":9626,"ĠVes":9627,"ĠForumi":9628,"Bar":9629,"042891":9630,"ALE":9631,")|\\":9632,"KI":9633,"Ġsol":9634,"ĠFant":9635,"Ġ1723":9636,"azi":9637,"201331":9638,"696":9639,"Ġ716":9640,"aven":9641,"Ġwebmaster":9642,"765":9643,"USA":9644,"anovi":9645,"astic":9646,"Ġ1189":9647,"Ġ673":9648,"ĠAnaly":9649,"719":9650,"ĠSem":9651,"1818":9652,"Ġ1410":9653,"ĠICT":9654,"927":9655,"Ġ2028":9656,"43024":9657,"043024":9658,"ĠOT":9659,"698":9660,"ĠIr":9661,"Ġgoran":9662,"20131944":9663,"ĠSpecial":9664,"04420":9665,"Ġ1609":9666,"ĠDrive":9667,"ĠDemoc":9668,"647":9669,"826":9670,"pw":9671,"Ġ688":9672,"ality":9673,"izer":9674,"ukad":9675,"PN":9676,"mond":9677,"bate":9678,"2302":9679,"20132019":9680,"Ġmusic":9681,"Ġ00058":9682,"egel":9683,"+.":9684,"Ġ1391":9685,"ĠMik":9686,"649":9687,"WA":9688,"ste":9689,"coin":9690,"ĠPrav":9691,"ĠZoom":9692,"nKa":9693,"ĠArchived":9694,"vacy":9695,"814":9696,"042889":9697,"Ġ1236":9698,"ĠINTER":9699,"Point":9700,"Ġrazvoj":9701,"Ġ1452":9702,"ĠARM":9703,"846":9704,"ĠJEZ":9705,"Ġ1030":9706,"ĠRam":9707,"cite":9708,"Ġ!!\\":9709,"nthoughts":9710,"098":9711,"Ġnar":9712,"ĠYugoslavia":9713,"skenovine":9714,"Ġ1667":9715,"Ġsek":9716,"ĠLE":9717,"776":9718,"schaft":9719,"Ġgood":9720,"aces":9721,"het":9722,"ĠGR":9723,"0428101":9724,"Mo":9725,"Ġ753":9726,"ĠJer":9727,"Ġsem":9728,"ĠLeh":9729,"nl":9730,"Ġ698":9731,".?\\":9732,"kog":9733,"Ġclan":9734,"abled":9735,"ETA":9736,"665":9737,"ĠSK":9738,"ĠDH":9739,"ĠLittle":9740,"Ġ1316":9741,"unior":9742,"913":9743,"mobi":9744,"Ġ1738":9745,"MM":9746,"ĠPap":9747,"ĠOm":9748,"'),":9749,"key":9750,"041116":9751,"Ġ864":9752,"Ġ+++":9753,"Ġtranslation":9754,"ĠOCLC":9755,"urop":9756,"854":9757,"Ġ1010":9758,"ĠLov":9759,"Ġlos":9760,"enesis":9761,"Par":9762,"Ġ040":9763,"Ġnacional":9764,"ython":9765,"04414":9766,"Ġ879":9767,"imit":9768,"inder":9769,"????????":9770,"Ġ................":9771,"ĠREP":9772,"Ġho":9773,"701":9774,"Ġnat":9775,"Ġzel":9776,"731":9777,"Ġword":9778,"lati":9779,"conomy":9780,"636":9781,"Ġ733":9782,"Ġ1680":9783,"ĠKIS":9784,"matic":9785,"20132013":9786,"04109":9787,"ĠBEL":9788,"ĠTurkish":9789,"739":9790,"04228":9791,"ĠAlexander":9792,"eljenska":9793,"nISSN":9794,"ĠTR":9795,"Ġmoj":9796,"Ġyears":9797,"907":9798,"ilje":9799,"Ġwap":9800,"Ġ\\\"(\\":9801,"Film":9802,"3026":9803,"Ġ1612":9804,"ĠSea":9805,"Ġ1335":9806,"ĠHeb":9807,"eti":9808,"Nov":9809,"enad":9810,"ĠChallenge":9811,"Ġ1015":9812,"pouke":9813,"746":9814,"832":9815,"Met":9816,"pu":9817,"pod":9818,"0938":9819,"Ġki":9820,"ouv":9821,"ĠOutlook":9822,"wah":9823,"FO":9824,"mk":9825,"ĠDNS":9826,"ĠSlovak":9827,"ĠSQL":9828,"Ġ1230":9829,"ĠNastavite":9830,"KB":9831,"Ġves":9832,"Ġ691":9833,"icon":9834,"Ġnauka":9835,"92020":9836,"SARH":9837,"ĠSar":9838,"Pan":9839,"Ġret":9840,"Ġschool":9841,"201335":9842,"042893":9843,"ĠPred":9844,"ĠSpringer":9845,"\\\"(":9846,"temporary":9847,"Linux":9848,"cet":9849,"042892":9850,"rier":9851,"699":9852,"icin":9853,"ĠRIA":9854,"Ġatt":9855,"opular":9856,"<<\\":9857,"Ġ755":9858,"ravi":9859,"Ġfr":9860,"races":9861,"ĠExcel":9862,"Ġtimes":9863,"Com":9864,"gs":9865,"Ġ1595":9866,"ĠBN":9867,"ĠLabor":9868,"2670":9869,"GYES":9870,"vati":9871,"javljeno":9872,"roll":9873,"ructure":9874,"itecture":9875,"sremskenovine":9876,"855":9877,"ĠKarl":9878,"nect":9879,"ilib":9880,"rael":9881,"Ġlanguages":9882,"20132015":9883,"eNew":9884,"alifornia":9885,"mpn":9886,"20131955":9887,"prise":9888,"anus":9889,"Ġljubav":9890,"Val":9891,"04210":9892,"ĠHACCP":9893,"ĠBasic":9894,"ĠARTIC":9895,"876":9896,"denje":9897,"bran":9898,"tw":9899,"Ġ875":9900,"don":9901,"042657":9902,"2193":9903,"Ġappeared":9904,"roach":9905,"Ġduring":9906,"994":9907,"yes":9908,"043510":9909,"Ġrek":9910,"Ġ809":9911,"1855":9912,"1787":9913,"Ġtom":9914,"ĠSty":9915,"rade":9916,"HEGYES":9917,"itions":9918,"042890":9919,"ijana":9920,"tery":9921,"ĠTelegram":9922,"iae":9923,"Ġ703":9924,"637":9925,"?:":9926,"042896":9927,"Ġmax":9928,"ĠDas":9929,"Ġfile":9930,"2013100":9931,"onym":9932,"roris":9933,"reda":9934,"ĠKol":9935,"lem":9936,"744":9937,"Ġ736":9938,"ĠCzech":9939,"Ġtab":9940,"ĠGy":9941,"opa":9942,"ĠCelok":9943,"042897":9944,"ĠIA":9945,"omob":9946,"Ġdevelopment":9947,"Ġ1552":9948,"ĠTheory":9949,"Ġ1386":9950,"Ġ1326":9951,"ĠAPI":9952,"925":9953,"Go":9954,"Ġ699":9955,"ĠAircraft":9956,"aut":9957,"tex":9958,"Ġlaw":9959,"Ġ%.\\":9960,"Ġ1360":9961,"Ġ671":9962,"cookies":9963,"lications":9964,"ĠKe":9965,"ĠXLII":9966,"ĠKISHEGYES":9967,"uh":9968,"ĠAny":9969,"\\\":.\\":9970,"ungen":9971,"ĠLiter":9972,"04247":9973,"Ġ1517":9974,"anski":9975,"ented":9976,"ĠRelig":9977,"ĠSr":9978,"Ġ658":9979,"ronics":9980,"inh":9981,"bcd":9982,"Free":9983,"Ġ876":9984,"Ġ1375":9985,"0428103":9986,"cellence":9987,"Mon":9988,"04128":9989,"tist":9990,"caja":9991,"rite":9992,"INAL":9993,"ĠLiber":9994,"ansk":9995,"ĠSrbiji":9996,"politika":9997,"ĠPhilosophy":9998,"adm":9999,"ĠStefan":10000,"Ġstate":10001,"798":10002,"RED":10003,"Ġ|_":10004,"042898":10005,"Ġ30000":10006,"Wikimapia":10007,"042899":10008,"Dr":10009,"Ġ781":10010,"chestra":10011,"niz":10012,"Ġ1746":10013,"Ġ==":10014,"acher":10015,"osavlje":10016,"irk":10017,"ENA":10018,"ĠCrimes":10019,"eevnost":10020,"ĠMap":10021,"astko":10022,"fch":10023,"Ġ1040":10024,"ĠSyn":10025,"Ġgran":10026,"SARS":10027,"Ġ842":10028,"dovi":10029,"ĠOst":10030,"ruz":10031,"-:":10032,"Ġ1572":10033,"ĠMiss":10034,"Ġwell":10035,"ctor":10036,"aco":10037,"ĠRi":10038,"ĠMonteneg":10039,"ĠIQ":10040,"ĠFol":10041,"Ġuniverzitet":10042,"ĠCos":10043,"oke":10044,"tocol":10045,"ANN":10046,"house":10047,"Ġregion":10048,"pes":10049,"ĠSEO":10050,"ĠSkype":10051,"urd":10052,"Ġ1373":10053,"ĠMLA":10054,"Ġlanguage":10055,"Ġjedan":10056,"ĠDream":10057,"rste":10058,"eller":10059,"LS":10060,"uda":10061,"Ġmir":10062,"ĠTheatre":10063,"Ġstav":10064,"ĠEmpire":10065,"694":10066,"ĠHin":10067,"201380":10068,"srbija":10069,"KS":10070,"ĠUnported":10071,"nOn":10072,"683":10073,"Ġmanagement":10074,"ĠAlbanian":10075,"LY":10076,"Ġ776":10077,"under":10078,"Ġ1320":10079,"778":10080,"895":10081,"042612":10082,"ĠTIM":10083,"Ġtan":10084,"ĠLar":10085,"Ġbor":10086,"0132":10087,"ĠInvest":10088,"676":10089,"803":10090,"861":10091,"knj":10092,"lla":10093,"ĠPhilip":10094,"tainment":10095,".]]":10096,"ĠDeath":10097,"ĠGO":10098,"uris":10099,"688":10100,"Ġ1642":10101,"ĠWars":10102,"0410549":10103,"adian":10104,"Ġ686":10105,"Ġsho":10106,"Ġ3600":10107,"vaseljenska":10108,"599":10109,"749":10110,"702":10111,"CV":10112,"ICAL":10113,"ogledi":10114,"824":10115,"ias":10116,"Ġ701":10117,"Ġtw":10118,"ĠDown":10119,"686":10120,"ĠWatch":10121,"Ġprocess":10122,"9001":10123,"Ġ778":10124,"ĠHA":10125,"Ġ(+)":10126,"rorism":10127,"ĠRot":10128,"ĠICTY":10129,"via":10130,"Ġ2040":10131,"ĠSolutions":10132,"Ġkome":10133,"ĠLaTeX":10134,"ĠGovernment":10135,"689":10136,"dT":10137,"Ġ1555":10138,"Ġvez":10139,"srbist":10140,"Ġ806":10141,"Ġ*.":10142,"dK":10143,"201990":10144,"injarije":10145,",!":10146,"zoki":10147,"Ġ1493":10148,"ĠCM":10149,"ĠLuc":10150,"ĠGHz":10151,"nap":10152,"trails":10153,"Ġtradition":10154,"tan":10155,"Ġ869":10156,"Ġpoint":10157,"Mal":10158,"gem":10159,"Ġ1744":10160,"Ġ1709":10161,"ĠThat":10162,"novisad":10163,"Ġ7500":10164,"ĠId":10165,"Ġ734":10166,"ĠkWh":10167,"831":10168,"04126":10169,"Ġnumber":10170,"Ġ801":10171,"ĠTher":10172,"ĠGit":10173,"ĠNE":10174,"Ġthrough":10175,"tima":10176,"aX":10177,"Ġmaksim":10178,"ĠJes":10179,"ĠNar":10180,"utniknews":10181,"1100":10182,"1806":10183,"Ġfi":10184,"CCN":10185,"ador":10186,"Ġpolitics":10187,"nQ":10188,"ĠFull":10189,"Ġstru":10190,"Ġneko":10191,"ĠRefer":10192,"pov":10193,"43023":10194,"043023":10195,"Ġ(.)":10196,"Ġ\"*":10197,"ĠJoh":10198,"Ġprava":10199,"Ġdobro":10200,"986":10201,"iance":10202,"ICS":10203,"?[\\":10204,"ĠProvin":10205,"04120":10206,"-\\\"\\":10207,"ĠTal":10208,"kaans":10209,"ĠMagnum":10210,"709":10211,"UBL":10212,"nIN":10213,"apv":10214,"mmun":10215,"Ġ1260":10216,"ende":10217,"ovana":10218,"ĠARTICLE":10219,"Ġ813":10220,"Ġ1694":10221,"sto":10222,"UK":10223,"zel":10224,"ĠFund":10225,"apter":10226,"837":10227,"ĠAMD":10228,"atu":10229,"Ġelect":10230,"ATE":10231,"0428102":10232,"ankovi":10233,"forman":10234,"ANA":10235,"Ġ...........":10236,"ĠPetar":10237,"unicip":10238,"VC":10239,"rup":10240,"tih":10241,"ĠWien":10242,"orders":10243,"Ġ1719":10244,"Ġmake":10245,"ament":10246,"Ġ1365":10247,"Ġarticles":10248,"Ġsrpskog":10249,"Ġ(%":10250,"Ġ695":10251,"Ġ795":10252,"alt":10253,"Ġear":10254,"ĠBib":10255,"aeil":10256,"oka":10257,"708":10258,"king":10259,"Ġpers":10260,"jects":10261,"ĠER":10262,"Ġdanas":10263,"664":10264,"Ġ1421":10265,"853":10266,"879":10267,"Ġ1481":10268,"Ġ693":10269,"Ġfer":10270,"20132020":10271,"043015":10272,"Ġnal":10273,"Ġcite":10274,"Ġrecep":10275,"eLa":10276,"841":10277,"Facebook":10278,"list":10279,"1831":10280,"ĠWho":10281,"ason":10282,"Ġ1731":10283,"Ġ1332":10284,"ĠFle":10285,"792":10286,"ĠFa":10287,"uments":10288,"04207":10289,"Ġxxx":10290,"201370":10291,"Ġ22000":10292,"Ġonly":10293,"748":10294,"Ġ1666":10295,"04269":10296,"ijski":10297,"atvie":10298,"Hg":10299,"fest":10300,"Ġ1601":10301,"idi":10302,"ĠImages":10303,"0428104":10304,"oljub":10305,"865":10306,"ĠRun":10307,"987":10308,"INT":10309,"Ġ1066":10310,"egin":10311,"Ġstudija":10312,",[\\":10313,"04117":10314,"Ġ771":10315,"ĠSound":10316,"ĠLine":10317,"ulu":10318,"ĠManager":10319,"ĠSwiss":10320,"ĠFour":10321,"981":10322,"Ġurednik":10323,"ĠMig":10324,"201334":10325,"20131995":10326,"IFA":10327,"Ġreligion":10328,"693":10329,"847":10330,"ĠCat":10331,"Ġvir":10332,"lood":10333,"Ġ846":10334,"ĠProgramme":10335,"Ġ709":10336,"lements":10337,"eel":10338,"Ġ674":10339,"elli":10340,"stor":10341,"20132017":10342,"816":10343,"201345":10344,"Ġsitu":10345,"Ġ1002":10346,"Ġ907":10347,"ccles":10348,"afety":10349,"Ġpedag":10350,"3030":10351,"813":10352,"Ġ1754":10353,"ĠHold":10354,"radio":10355,"ĠMelayu":10356,"734":10357,"Pinki":10358,"Ġ689":10359,"ĠIM":10360,"1280":10361,"ureau":10362,"ntopic":10363,"975":10364,"yo":10365,"ĠPot":10366,"ĠGL":10367,"ĠJun":10368,"prizren":10369,"ĠAppe":10370,"*.\\":10371,"bers":10372,"kor":10373,"ĠET":10374,")'":10375,"042660":10376,"ĠDutch":10377,"Ġmay":10378,"idth":10379,"peri":10380,"ket":10381,"043810":10382,"Ġ669":10383,"Ġ995":10384,"matika":10385,"ĠDelo":10386,"ination":10387,"frica":10388,"dne":10389,"Ġprip":10390,"ĠCongress":10391,"ĠXXXI":10392,"aeilge":10393,"GA":10394,"QW":10395,"Ġ31000":10396,"Nivosti":10397,"Ġdire":10398,"ojeNivosti":10399,"43031":10400,"043031":10401,"872":10402,"Ġ1240":10403,"ĠAer":10404,"1798":10405,"ĠRog":10406,"ĠXLIX":10407,"ĠMilitary":10408,"Ġingy":10409,"cI":10410,"tiva":10411,"ĠHaw":10412,"aga":10413,"04344":10414,"Ġ1547":10415,"option":10416,"892":10417,"ĠFamily":10418,"1001":10419,"raguje":10420,"Ġ1235":10421,"Ġeg":10422,"Ġ818":10423,"iran":10424,"04156":10425,"Ġ692":10426,"1845":10427,"isation":10428,"pot":10429,"0428105":10430,"Ġ808":10431,"ĠGru":10432,"duct":10433,"Non":10434,"Ġrs":10435,"=\\\"\\":10436,"nh":10437,"Ġ...\\\"":10438,"Ġ\"(":10439,"Ġ1340":10440,"ĠMr":10441,"usti":10442,"Ġ1014":10443,"0428106":10444,"Ġ1632":10445,"nmojeNivosti":10446,"Ġ836":10447,"inda":10448,"ĠLCCN":10449,"Ġznam":10450,"Ġ1276":10451,"ibus":10452,"ĠMusical":10453,"856":10454,"ĠSEE":10455,"dev":10456,"ĠXXIV":10457,"Leave":10458,"Ġodnosi":10459,"die":10460,"Ġ1525":10461,"ĠJazz":10462,"cient":10463,"ĠConsult":10464,"nOb":10465,"ĠSecret":10466,"ĠJP":10467,"0475":10468,"!-":10469,"937":10470,"aries":10471,"ĠPas":10472,"ĠMenu":10473,"0428109":10474,"Ġstory":10475,"ĠTravel":10476,"Ġ924":10477,"Ġ\".\\":10478,"Ġprotiv":10479,"Ġ}\\":10480,"Ġ1208":10481,"936":10482,"ĠBattle":10483,"ĠViber":10484,"nAR":10485,"Ġ682":10486,"idance":10487,"rainian":10488,"etnam":10489,"877":10490,"923":10491,"kins":10492,"ĠTerraces":10493,"Ġ822":10494,"Ġ\"'''\\":10495,"Ġcommun":10496,"ĠRomanian":10497,"Ġingyenes":10498,"?!\"}":10499,"Ġ1734":10500,"0279":10501,"ĠRF":10502,"ĠLA":10503,"unarod":10504,"stand":10505,"Ġgrada":10506,"Ġ1423":10507,"Ġaleks":10508,"Box":10509,"WY":10510,"evo":10511,"692":10512,"Ġ);":10513,"Ġ1590":10514,"Ġsil":10515,"ĠUser":10516,"ranje":10517,"Ġsvak":10518,"ĠXLVII":10519,"Ġvesti":10520,"Ġmaksimovic":10521,"Ġsac":10522,"ĠGav":10523,"faScore":10524,"ĠHenry":10525,"ĠTK":10526,"ĠDaniel":10527,"taj":10528,"coka":10529,"ASE":10530,"pal":10531,"sb":10532,"Ġ965":10533,"anka":10534,"Ġ1413":10535,"Ġarea":10536,"ĠSrpska":10537,"AI":10538,"yam":10539,"Ġljub":10540,"istan":10541,"SRBI":10542,"dara":10543,"Ġ774":10544,"ĠFort":10545,"ĠNOV":10546,"CDL":10547,"ĠPlanet":10548,"ĠMath":10549,"cima":10550,"fje":10551,"vlad":10552,"Ġ3030":10553,"ĠMEM":10554,"ĠDrop":10555,"Ġbest":10556,"All":10557,"dig":10558,"bbf":10559,"Ġteam":10560,"Ġ1480":10561,"!!!????\\":10562,"04200":10563,"Ġnisun":10564,"Ġphilologia":10565,"ĠTotal":10566,"ĠGND":10567,"992":10568,"Ġ756":10569,"room":10570,"Ġlive":10571,"Ġtechn":10572,"Ġ923":10573,"Ġ1565":10574,"863":10575,"mart":10576,"yen":10577,"\\\"]":10578,"aev":10579,"uropa":10580,"ithuan":10581,"Ġavgust":10582,"Ġ1185":10583,"ĠTH":10584,"ches":10585,"ĠPolski":10586,"University":10587,"BT":10588,"043867":10589,"Ġ878":10590,"Ġcur":10591,"stud":10592,"Ġzur":10593,"ARY":10594,"Ġ1426":10595,"racy":10596,"URE":10597,"1836":10598,"ĠViolence":10599,"Download":10600,"Ġ1598":10601,"ĠRay":10602,"Ġbis":10603,"name":10604,"sub":10605,"ares":10606,"Ġresearch":10607,"864":10608,"ĠKre":10609,"ĠVision":10610,"ockey":10611,"ĠBreaking":10612,"Online":10613,"916":10614,"Ġ792":10615,"ibility":10616,"4440":10617,"1838":10618,"Ġprv":10619,"abel":10620,"avno":10621,"000000":10622,"Ġuzbek":10623,"/)..":10624,"Sta":10625,"Ġ729":10626,"Ġ1341":10627,"Ġport":10628,"Ġned":10629,"Ġovaj":10630,"absrs":10631,"849":10632,"Ac":10633,"Ġ683":10634,"Ġ929":10635,"Ġ796":10636,"965":10637,"BY":10638,"0428108":10639,"Ġ1468":10640,"ĠVia":10641,"20132011":10642,"857":10643,"0650":10644,"Ġtons":10645,"udsmanapv":10646,"Bu":10647,"Ġset":10648,"ĠWikipedia":10649,"ĠDAN":10650,"041414":10651,"Ġbas":10652,"dun":10653,"Ġwin":10654,"ĠNation":10655,"rison":10656,"trl":10657,"Ġavailable":10658,"zic":10659,"ĠNGC":10660,"ĠĠĠĠĠ":10661,"IPA":10662,"Ġ***\\":10663,"ictures":10664,"kh":10665,"04405":10666,"ĠTy":10667,"Ġhand":10668,"resent":10669,"nFacebook":10670,"ĠHeritage":10671,",+\\":10672,"042616":10673,"ĠWizz":10674,"Ġ1016":10675,"konom":10676,"onymous":10677,"ĠSSD":10678,"1834":10679,"ĠGirl":10680,"201332":10681,"ĠMons":10682,"Ġjas":10683,"ĠFinancial":10684,"ĠPrince":10685,"ĠSen":10686,"1857":10687,"aby":10688,"rot":10689,"ĠORIG":10690,"ulum":10691,"oko":10692,"Ġ1343":10693,"Ġdesign":10694,"ĠItaliano":10695,"Ġbic":10696,"akes":10697,"ĠDetinjarije":10698,"ĠCare":10699,"ĠVik":10700,"ĠOpinion":10701,"ĠFront":10702,"Sex":10703,"XVI":10704,"Ġ728":10705,"Ġbirth":10706,"formes":10707,"Ġrazgovor":10708,"Ġwhen":10709,"818":10710,"igher":10711,"cio":10712,"ĠQueen":10713,"ĠGene":10714,"ĠArthur":10715,"ĠIPS":10716,"ĠClio":10717,"lis":10718,"ĠBird":10719,"ĠFal":10720,"ĠIntelligence":10721,"ireless":10722,"Ġ976":10723,"erija":10724,"ĠEgy":10725,"Ġdec":10726,"iversary":10727,"uku":10728,"ĠKiB":10729,"Ġ1582":10730,"ĠCourse":10731,"ĠDDR":10732,"Kosarka":10733,"0202":10734,"ĠSeries":10735,"Ġ1166":10736,"Ġ1654":10737,"ijska":10738,"rog":10739,"ĠLI":10740,"Ġprojek":10741,"Ġ1614":10742,"Ġ1691":10743,"head":10744,"Ġkal":10745,"ccess":10746,"Sportal":10747,"Onlin":10748,"Ġorganiz":10749,"inews":10750,"oral":10751,"umer":10752,"Ġub":10753,"Ġ1378":10754,"Ġ945":10755,"Ġszer":10756,"931":10757,"Ġ6500":10758,"ĠHell":10759,"Ġnisu":10760,"Filmski":10761,"Jutro":10762,"ĠCalifornia":10763,"ĠRod":10764,"ĠXXVI":10765,"Ġstudents":10766,"ospital":10767,"obroJutro":10768,"Bukad":10769,"1814":10770,"rsPress":10771,"rsvaseljenska":10772,"rsSportal":10773,"comvijesti":10774,"orgIT":10775,"orgFilmski":10776,"nethttp":10777,"ĠSvetKosarka":10778,"erusija":10779,"BBCBukad":10780,"SRBIJO":10781,"Onlinerusija":10782,"obroJutroSRBIJO":10783,"rsPressOnlinerusija":10784,"BBCBukadobroJutroSRBIJO":10785,"qas":10786,"ĠSL":10787,"Ġfig":10788,"Ġvred":10789,"stvu":10790,"Ġexp":10791,"ĠTen":10792,"Ġ50000":10793,"Ġunivers":10794,"Ġbackground":10795,"ĠAtlan":10796,"Am":10797,"SF":10798,"Ġvul":10799,"ĠMihailo":10800,"Email":10801,"..?\\":10802,"abri":10803,"Ġxy":10804,"ĠSymbol":10805,"934":10806,"Ġcoll":10807,"Ġ743":10808,"edition":10809,"ĠCE":10810,"ĠGaz":10811,"828":10812,"ints":10813,"Ġown":10814,"ĠCase":10815,"angel":10816,"ĠCath":10817,"9999":10818,"ĠLXXX":10819,"906":10820,"Ġ1732":10821,"ĠBG":10822,"Ġ\\\"-":10823,"Ġeducation":10824,"/..":10825,"ĠConstant":10826,"ĠFaculty":10827,"Ġ679":10828,"Ġ1522":10829,"ĠDVB":10830,"ALI":10831,"hib":10832,"ialis":10833,"Ġref":10834,"Ġfeed":10835,"OF":10836,"cJ":10837,"Ġ927":10838,"tial":10839,"1846":10840,"anta":10841,"ccer":10842,"ĠHungarian":10843,"2082":10844,"ĠOt":10845,"905":10846,"jas":10847,"04185":10848,"tity":10849,"dkog":10850,"703":10851,"American":10852,"Ġ010":10853,"ĠEli":10854,"Ġsounds":10855,"Ġtur":10856,"ĠKis":10857,"ilog":10858,"ĠProsec":10859,"Ġrod":10860,"ample":10861,"04440":10862,"lji":10863,"Ġ1742":10864,"Ġway":10865,"ĠGuest":10866,"Ġsuper":10867,"Ġpravoslav":10868,"Portugu":10869,"Ġmac":10870,"quis":10871,"Ġ1215":10872,"0490":10873,"Ġ>>\"}":10874,"ĠDisqas":10875,"Ġ1470":10876,"ĠRen":10877,"984":10878,"ipment":10879,"Ġconf":10880,"HF":10881,"Ġ827":10882,"oston":10883,"edy":10884,"Ġbusiness":10885,"BECSE":10886,"cao":10887,"04480":10888,"ĠNI":10889,"Ġglobal":10890,"ĠStore":10891,"azin":10892,"ezija":10893,"ĠFinn":10894,"Ġ1727":10895,"Ġ1553":10896,"esc":10897,"ĠKingdom":10898,")?.\\":10899,"ĠRain":10900,"Ġhere":10901,"onder":10902,"ĠTeams":10903,"Ġstudent":10904,"926":10905,"Hub":10906,"Si":10907,"ĠHans":10908,"Ġeffe":10909,"oku":10910,"ĠMarko":10911,"Public":10912,"igra":10913,"0428110":10914,"Ġwould":10915,"ĠDeloitte":10916,"tov":10917,"Tag":10918,"ijas":10919,"0428111":10920,"Ġ1168":10921,"ĠFORE":10922,"Ġ*,":10923,"ĠUkrainian":10924,"anna":10925,"ANT":10926,"ducts":10927,"914":10928,"udo":10929,"ĠTerrorism":10930,"972":10931,"Ġ1605":10932,"Ġ1616":10933,"ĠWood":10934,"Ġ14000":10935,"043018":10936,"917":10937,"Ġ833":10938,"ĠBC":10939,"Ġbey":10940,"Ġimpf":10941,"ĠAfter":10942,"Ġtheme":10943,"ĠSrbiju":10944,"201337":10945,"Ġ1514":10946,"Ġgde":10947,"Ġprema":10948,"Ġ744":10949,"ĠMcG":10950,"irls":10951,"ĠCommunications":10952,"ging":10953,"Ġ779":10954,"Ġ1533":10955,"Ġ1261":10956,"Ġ=====":10957,"ĠSrpske":10958,"HD":10959,"MET":10960,"WS":10961,"ĠMk":10962,"201336":10963,"1331":10964,"Ġillustrated":10965,"Ġ____":10966,"04400":10967,"ants":10968,"Ġfun":10969,"Ġ676":10970,"Ġhistor":10971,"ietuvi":10972,"ĠOrtodo":10973,"ĠSex":10974,"ĠHMS":10975,"img":10976,"dEV":10977,"Ġ1438":10978,"Ġ726":10979,"Ġ1387":10980,"ape":10981,"vf":10982,"elin":10983,"Ġ025":10984,"1219":10985,"atum":10986,"Ġfield":10987,"Ġlas":10988,"ĠGRADA":10989,"VE":10990,"Ġ1398":10991,"./.":10992,"wikinews":10993,"945":10994,"YA":10995,"Ġ773":10996,"ĠIB":10997,"door":10998,"Ġtome":10999,"ĠNon":11000,"stone":11001,"Ġdoes":11002,"uga":11003,"Ġ971":11004,"Ġlay":11005,"Ġ00116":11006,"obert":11007,"041425":11008,"ĠRoma":11009,"TASS":11010,"maj":11011,"Ġaccess":11012,"docx":11013,"ĠEdward":11014,"dje":11015,"0410107":11016,"Ġ855":11017,"Ġ1477":11018,"961":11019,"Ġ752":11020,"isen":11021,"ĠRank":11022,"ĠGam":11023,"Play":11024,"Ġ1071":11025,"Ġ1724":11026,"Ġ1409":11027,"Ġdoo":11028,"ĠConc":11029,"ĠColor":11030,"NG":11031,"Ġ901":11032,"Ġ1568":11033,"ĠAdria":11034,"963":11035,"ĠKO":11036,"helm":11037,"Ġenabled":11038,"Ġwebadm":11039,")+\\":11040,"Ġ723":11041,"Ġ1502":11042,"Ġ1221":11043,"ĠASC":11044,"tail":11045,"Ġxx":11046,"0410103":11047,"Ġinternet":11048,"`.\\":11049,"Ġ1638":11050,"lasti":11051,"ĠHTTP":11052,"orad":11053,"ĠBMW":11054,"iams":11055,"Ġ782":11056,"onald":11057,"ĠAus":11058,"ĠBac":11059,"Ġmalo":11060,"rap":11061,"pekt":11062,"Ġ1706":11063,"982":11064,"ĠCategory":11065,"ĠFederation":11066,"ĠSarajevo":11067,"839":11068,"ĠCop":11069,"Ġsloven":11070,"Ġpas":11071,"laz":11072,"Ġpristup":11073,"ĠWelt":11074,"ilia":11075,"user":11076,"emp":11077,"Ġ738":11078,"Ġ:).":11079,"Ġ1333":11080,"ĠFilipino":11081,"871":11082,"Ġmess":11083,"ĠTrade":11084,"834":11085,"gallery":11086,"ĠReich":11087,",/\\":11088,"Ġ024":11089,"Ġ762":11090,"erts":11091,"ĠOur":11092,"azar":11093,"Ġ772":11094,"unst":11095,"Ġwebsite":11096,"Ġ002":11097,"Ġcla":11098,"fication":11099,"kal":11100,"asse":11101,"ĠAustralia":11102,"Ġ1490":11103,"ĠVill":11104,"map":11105,"orek":11106,"Ġrom":11107,"Ġ719":11108,"ĠPed":11109,"2642":11110,"ĠUNDP":11111,"EFA":11112,"ĠLike":11113,"ĠJud":11114,"ecu":11115,"Ġ$,":11116,"cos":11117,"0421100":11118,"ĠKah":11119,"Ġ.:":11120,"aza":11121,"ĠBroad":11122,"Ġ953":11123,"Ġ1203":11124,"ept":11125,"ĠAnime":11126,"Ġ1425":11127,".!.":11128,"lada":11129,"Ġ1747":11130,"Ġmain":11131,"char":11132,"uzice":11133,"tension":11134,"043512":11135,"Ġ913":11136,"adow":11137,"Ġhad":11138,"lah":11139,"tonmail":11140,"srpske":11141,"Ġ1175":11142,"Ġ1461":11143,"Ġ1466":11144,"Ġ0002":11145,"ishing":11146,"ĠKNJI":11147,"Uz":11148,"Ġust":11149,"Ġ1597":11150,"Ġkulture":11151,"Ġfl":11152,"ĠWalter":11153,"tius":11154,"ĠMAT":11155,"1809":11156,"Ġ877":11157,"Ġ25000":11158,"Ġportal":11159,"ĠDog":11160,"ĠEug":11161,"strong":11162,"Ġzak":11163,"berry":11164,"1355":11165,"zantine":11166,"UG":11167,"dI":11168,"ĠEur":11169,"nJa":11170,"Char":11171,"ZZ":11172,"ajn":11173,"ĠAstron":11174,"1081":11175,"Ġempire":11176,"874":11177,"sum":11178,"0428107":11179,"ĠJag":11180,"ĠClar":11181,"tep":11182,"aciji":11183,"tta":11184,"Ġ0017":11185,"ĠRepublici":11186,"As":11187,"Ġ985":11188,"Ġ1585":11189,"ĠKap":11190,"odle":11191,"protonmail":11192,"SW":11193,"Ġ694":11194,"Ġ829":11195,"Ġ1496":11196,"Ġnovi":11197,"ĠMyth":11198,"bir":11199,"ĠTan":11200,"ĠCorn":11201,"Ġ0008":11202,"967":11203,"04371":11204,"ĠSti":11205,"1826":11206,"ĠNacional":11207,"ĠMars":11208,"ĠPeace":11209,"janin":11210,"Ġ026":11211,"041434":11212,"Ġ697":11213,"itle":11214,".\\\".":11215,"\\\\\\":11216,"tva":11217,"04172":11218,"Ġ1603":11219,"ĠAK":11220,"ĠTuber":11221,"ĠKu":11222,"Ġbila":11223,"dapest":11224,".+\\":11225,"kola":11226,"0428112":11227,"Ġ915":11228,"ĠHit":11229,"tuel":11230,"terna":11231,"Ġimper":11232,"Ġ814":11233,"ĠIR":11234,"icar":11235,"ĠROP":11236,"arden":11237,"lang":11238,"nen":11239,"Ġtype":11240,"ĠAleksandar":11241,"Su":11242,"Ġ788":11243,"ovu":11244,"arium":11245,"ĠCharacters":11246,"Ġ)\"}":11247,"Ġ852":11248,"ĠKao":11249,"ĠLead":11250,"etar":11251,"Ġfacebook":11252,"ĠArm":11253,"0205":11254,"Ġ1411":11255,"nNaj":11256,";.\\":11257,"anges":11258,"Tech":11259,"!''":11260,"Ġpaper":11261,"ĠJadovno":11262,"ĠPortuguese":11263,"XVII":11264,"Ġ861":11265,"ĠPosted":11266,"Ġnational":11267,"eAr":11268,"0428113":11269,"teg":11270,"ĠEver":11271,"ĠJon":11272,"National":11273,"Ġ1433":11274,"riev":11275,"Ġtema":11276,"ĠFlight":11277,"Ġ1351":11278,"nMo":11279,"ISO":11280,"ĠAppeal":11281,"924":11282,"Book":11283,"041440":11284,"Ġ1672":11285,"annes":11286,"Ġdigital":11287,"!!!.\\":11288,"Ġradio":11289,"Ġ935":11290,"isco":11291,"02651":11292,"books":11293,"ĠCapital":11294,"One":11295,"Ġ963":11296,"inc":11297,"opher":11298,"nEx":11299,"ĠBlonde":11300,"bul":11301,"201338":11302,"Ġmind":11303,"opst":11304,"urse":11305,"Ġlatinica":11306,"+),":11307,"Card":11308,"Ġ1728":11309,"ĠPatri":11310,"ĠORIGINAL":11311,"Ġ1665":11312,"ĠRas":11313,"ĠMilo":11314,"Ġsrbist":11315,"ĠDipl":11316,"Ġdate":11317,"Cafe":11318,"];":11319,"ĠShi":11320,"hold":11321,"Ġ1096":11322,"istar":11323,"_(\\":11324,"hiva":11325,"ĠVesti":11326,"ĠNOVI":11327,"uper":11328,"201343":11329,"ĠDivision":11330,"Ġ922":11331,"ĠOrwell":11332,"Ġ975":11333,"Ġou":11334,"Ġvas":11335,"Ġ1241":11336,"nCategory":11337,"Ġneki":11338,"novation":11339,".|":11340,"919":11341,"ĠIf":11342,"ologije":11343,"NIK":11344,"nat":11345,"ĠGA":11346,"utin":11347,"Ġ1529":11348,"Ġsing":11349,"ĠRD":11350,"ĠRiver":11351,"ĠGeo":11352,"0378":11353,"ĠAgricultural":11354,"Ro":11355,"ĠPAR":11356,"Ġ(,":11357,"abi":11358,"srbininfo":11359,"Dz":11360,"hunter":11361,"ĠSiber":11362,"ĠTol":11363,"rata":11364,"Ġthem":11365,"Ġ758":11366,"iii":11367,"ification":11368,"ĠVisual":11369,"Ġ1099":11370,"Ġ1538":11371,"Ġ1695":11372,"Ġimen":11373,"Ġ1604":11374,"ĠUniversit":11375,"8217":11376,"Ġ1669":11377,"1017":11378,"0217":11379,"ĠProm":11380,"Ġnach":11381,"Ġveka":11382,"Ġovom":11383,"serv":11384,"onna":11385,"ĠRash":11386,"Ġ1388":11387,"User":11388,"Ġ696":11389,"ĠSus":11390,"udefd":11391,"ĠVoice":11392,"878":11393,"Ġ761":11394,"ĠSource":11395,"ĠPerson":11396,"opo":11397,"nXI":11398,"ĠHotel":11399,"Ass":11400,"Bel":11401,"So":11402,"Ġ873":11403,"ĠCry":11404,"ĠSRBI":11405,"XVIII":11406,"eca":11407,"Ġpitanje":11408,"ĠEM":11409,"ĠEsp":11410,"Gu":11411,"vard":11412,"Ġ1698":11413,"ĠiPad":11414,":{":11415,"Har":11416,"host":11417,"ĠSvenska":11418,"ĠTwo":11419,"Ġkap":11420,"ĠStylos":11421,"859":11422,"902":11423,"ĠKop":11424,"ĠEagle":11425,"ĠFOREIGN":11426,"Fe":11427,"ois":11428,"admin":11429,"Ġove":11430,"Ġ804":11431,"tenje":11432,"conf":11433,"ĠPresent":11434,"0407":11435,"Ġ766":11436,"ĠMind":11437,"ĠVe":11438,"avanje":11439,"ĠVerlag":11440,")\\\"\\":11441,"UB":11442,"ĠKomm":11443,"ĠHistorical":11444,"Ġ('":11445,"ĠLat":11446,"Ġarchive":11447,"tin":11448,"erry":11449,"Ġ1499":11450,"unus":11451,"ĠNovog":11452,"pravoslav":11453,"823":11454,"903":11455,"Ver":11456,"wan":11457,"Ġ866":11458,"odes":11459,"ISBN":11460,".!":11461,"968":11462,"Br":11463,"Ġ1543":11464,"2028":11465,"Ġauf":11466,"ffic":11467,"20132000":11468,"GRADE":11469,"Ag":11470,"LOC":11471,"cir":11472,"Ġ893":11473,"ĠAfrica":11474,")-(":11475,"921":11476,"Ġ\",":11477,"962":11478,"Ġ.............":11479,"918":11480,"041516":11481,"ĠTCP":11482,"aze":11483,"PT":11484,"RT":11485,"Ġ1284":11486,"ĠStone":11487,"Ġoblik":11488,"Ġital":11489,"Ġplus":11490,"04157":11491,"Ġ835":11492,"Ġ1523":11493,"Ġ1299":11494,"ĠISIL":11495,"Ġ1428":11496,"Bot":11497,"042110":11498,"Ġ1708":11499,"IESEC":11500,"ĠTesla":11501,"FI":11502,"Ġsvoje":11503,"ĠRoth":11504,"Ġlet":11505,"ĠJohnson":11506,"ĠFunny":11507,"ĠJackson":11508,"0428114":11509,"osk":11510,"ĠOthers":11511,"paign":11512,"undes":11513,"Ġmodified":11514,"Ġbeyond":11515,"upe":11516,"inama":11517,"Ġ803":11518,"Ġ902":11519,"Ġhealth":11520,"ovina":11521,"ĠGIZ":11522,"Ġoni":11523,"egional":11524,"043022":11525,"nXII":11526,"Ġnisam":11527,"Rep":11528,"block":11529,"ĠDam":11530,"ĠEt":11531,"ĠProcess":11532,"Ġzah":11533,"Ġ1111":11534,"Ġ1635":11535,"enne":11536,"esa":11537,"Ġlim":11538,"uba":11539,"Ġ1546":11540,"Ġ1559":11541,"1791":11542,"Ġ1446":11543,"201349":11544,"ential":11545,"ĠFL":11546,"THER":11547,"fre":11548,"pace":11549,"Ġ739":11550,"Ġ1465":11551,"uju":11552,"Ġ895":11553,"ono":11554,"ĠHIP":11555,"221843":11556,"?!?":11557,"ĠIndia":11558,"Ġfri":11559,"OME":11560,"uke":11561,"ĠSada":11562,"ĠWell":11563,"hein":11564,"Ġcrk":11565,"ĠCOST":11566,"Ġmodel":11567,"Alex":11568,"ctus":11569,"davanje":11570,"ĠSummer":11571,"core":11572,"Ġ1237":11573,"1166":11574,"Ġ896":11575,"Ġ1081":11576,"arko":11577,"Ġsus":11578,"Ġnu":11579,"Ġadresa":11580,"ped":11581,"ĠIntroduction":11582,"kaz":11583,"undus":11584,"Ġ1385":11585,"[[":11586,"ĠSIM":11587,"ritten":11588,"Ġacc":11589,"928":11590,"949":11591,"For":11592,"Ġ1579":11593,"Ġ1670":11594,"ĠBea":11595,"Ġlex":11596,"otism":11597,"ĠPla":11598,"DV":11599,"Ġfal":11600,"Ġlear":11601,"ĠPolish":11602,"Ġ035":11603,"unta":11604,"ĠUniversal":11605,"ĠCollection":11606,"0150":11607,"Ġ936":11608,"uev":11609,"lica":11610,"uti":11611,"Ġ764":11612,"ĠKir":11613,"Ġ00057":11614,"IFT":11615,"ĠAnalytics":11616,"ingen":11617,"Ġgor":11618,"ĠCompeti":11619,"CN":11620,"201390":11621,"ĠNeg":11622,"Ġmislim":11623,"known":11624,"Ġ769":11625,"ĠSom":11626,"ĠPRA":11627,"aber":11628,"Ġ1457":11629,"md":11630,"Ġ1593":11631,"adal":11632,"tivi":11633,"ĠMAR":11634,"ovanja":11635,"tives":11636,"umbia":11637,"DPR":11638,"ease":11639,"Ġ_____":11640,"ĠVuk":11641,"Ġ1592":11642,"ĠBiography":11643,"Ġpopulation":11644,"essment":11645,"ĠShop":11646,"enic":11647,"...;":11648,"Ġ1308":11649,"iag":11650,"ĠBoard":11651,"ĠAmeric":11652,"ĠMathematics":11653,"lot":11654,"inum":11655,"left":11656,"Ġnova":11657,"ĠHil":11658,"ĠReader":11659,"827":11660,"sw":11661,"1038":11662,"Ġmlad":11663,"ĠFall":11664,"ublik":11665,"ĠAgreement":11666,"Ġ783":11667,"Ġunit":11668,"ĠMySQL":11669,"ĠEntertainment":11670,"0428117":11671,"anto":11672,"Ġ1102":11673,"hous":11674,"04206":11675,"Ġ986":11676,"RSD":11677,"ĠProsecution":11678,"kole":11679,"Ġ844":11680,"Ġ1693":11681,"Ġothers":11682,"Ġmort":11683,"lows":11684,"ĠBias":11685,"ragujevac":11686,"eava":11687,"Ġ823":11688,"Ġ1503":11689,"forms":11690,"Ġpostoji":11691,"Ġ1072":11692,"Ġ954":11693,"Ġ1101":11694,"Ġ1399":11695,"Ġvery":11696,"20141878":11697,"04180":11698,"Ġ036":11699,"ĠSand":11700,"1789":11701,"Ġ=====>":11702,"Ġ872":11703,"Ġ1682":11704,"ĠSev":11705,"ĠTL":11706,"odus":11707,"ĠChemtrails":11708,"Ġspambots":11709,"Ġ784":11710,"Ġ1596":11711,"Ġ1393":11712,"tivity":11713,"Na":11714,"Wiki":11715,"ĠHis":11716,"0428118":11717,"Ġ748":11718,"Ġ1524":11719,"pic":11720,"Ġ1615":11721,"Ġ:))":11722,"ĠNorwegian":11723,"Ġ816":11724,"Ġ1242":11725,"?!)":11726,"ĠTelegraph":11727,"!..\\":11728,"ĠIG":11729,"ĠFramework":11730,"Ġtim":11731,"-/\\":11732,"Trans":11733,"043812":11734,"Ġ828":11735,"ĠIli":11736,"Ġpoj":11737,"ALL":11738,"ĠFriedrich":11739,"ĠASCII":11740,"947":11741,"Ġ851":11742,"Ġ1169":11743,"ĠBible":11744,"ĠSeg":11745,"Ġ1337":11746,"2286":11747,"Ġ(?),":11748,"Ġ858":11749,"enda":11750,"ĠMobile":11751,"loss":11752,"933":11753,"coj":11754,"20132018":11755,"Ġ1382":11756,"formance":11757,"rer":11758,"Ġ???":11759,"2029":11760,"ĠOil":11761,"IJE":11762,"ĠECDL":11763,"2800":11764,"944":11765,"ĠFashion":11766,"aya":11767,"assment":11768,"ĠMicro":11769,"ithuanian":11770,"ĠSAV":11771,"ĠYears":11772,"10000":11773,"1321":11774,"742221843":11775,"898":11776,"Ġ786":11777,"1204":11778,"ĠInsee":11779,"Ġ1542":11780,"Ġ1229":11781,"ĠBlic":11782,"Ġ019":11783,"Ġdans":11784,"cti":11785,"iri":11786,"Ġ1342":11787,"Ġpu":11788,"Ġ794":11789,".........":11790,"ĠXLIII":11791,"ĠKorean":11792,"ePosted":11793,"xo":11794,"Ġ27500":11795,"0204":11796,"outu":11797,"ĠDansk":11798,"Ġ1551":11799,"cow":11800,"ppt":11801,"ĠHistoria":11802,"Ġ1578":11803,"ĠOD":11804,"body":11805,"ĠABOUT":11806,"971":11807,"LAN":11808,"Ġ882":11809,"alog":11810,"ĠDRAM":11811,"Ġhat":11812,"Ġono":11813,"porta":11814,"Ġmnogo":11815,"kr":11816,"Ġ1397":11817,"ĠPac":11818,"Ġrasp":11819,"Ġprop":11820,"1797":11821,"ĠDEL":11822,"fclet":11823,"kai":11824,"eAl":11825,"ĠSrpskoj":11826,"koliko":11827,"sf":11828,"Ġ926":11829,"osi":11830,"imp":11831,"932":11832,"Ġkn":11833,"ordana":11834,"minal":11835,"United":11836,"och":11837,"Ġ1564":11838,"Ġ1611":11839,"ĠSho":11840,"Ġ1005":11841,"Ġint":11842,"Ġ1012":11843,"ĠCommon":11844,"ĠTraditional":11845,"social":11846,"far":11847,"\\\"!.\\":11848,"Ġ1532":11849,"ĠKristian":11850,"ĠMEMORI":11851,";&\\":11852,")..\\":11853,"Ġ1573":11854,"racle":11855,"ĠJEZIK":11856,"QX":11857,"ĠBRO":11858,"Ġzam":11859,"ĠOrchestra":11860,"eases":11861,"ĠCanadian":11862,"Ġharassment":11863,"0428122":11864,"Ġsistem":11865,"ĠBil":11866,"Ġ1445":11867,"Ġ807":11868,"Ġ1290":11869,"ĠStudents":11870,"rtv":11871,"Ġ____________":11872,"ĠErn":11873,"0428115":11874,"Ġ1060":11875,"Ġ1515":11876,"ĠMIT":11877,"1810":11878,"olt":11879,"Ġcity":11880,"Ed":11881,"0428116":11882,"ĠIZ":11883,"ativna":11884,".|\\":11885,"cit":11886,"zeg":11887,"Ġ952":11888,"Ġsavez":11889,"ĠRena":11890,"ĠDR":11891,"ĠMozilla":11892,"etnamese":11893,"0410380":11894,"Ġ1270":11895,"Ġ1651":11896,"tir":11897,"ktop":11898,"ĠKahrs":11899,"ĠLiving":11900,"ĠVO":11901,"rg":11902,"Ġ1613":11903,"ĠPil":11904,"ĠMaltese":11905,"ĠLehmann":11906,"ischer":11907,"Ġlin":11908,"ĠHero":11909,"ĠFederal":11910,"1700":11911,"ĠFly":11912,"ĠNorsk":11913,"ĠAustria":11914,"ĠAmaz":11915,"ĠBow":11916,"ĠChemical":11917,"Ġ797":11918,"Ġ908":11919,"endi":11920,".!\\":11921,"Russia":11922,"Ġcate":11923,"ĠRomen":11924,"ĠHebrew":11925,"941":11926,"ĠDead":11927,"Ġstra":11928,"Ġ1019":11929,"eAn":11930,"Mus":11931,"comp":11932,"icija":11933,"ĠSerbianCafe":11934,"ĠMontenegro":11935,",'":11936,"Ġ917":11937,"}},":11938,"ĠTechnologies":11939,"909":11940,"Ġ819":11941,"Ġ1534":11942,"0428120":11943,"Ġ(-)":11944,"nFree":11945,"Ġratovi":11946,"ĠTyp":11947,"asz":11948,"ĠGl":11949,"Art":11950,"Ġ905":11951,"Ġ1509":11952,"jeva":11953,"ĠProtocol":11954,"ĠHrvatski":11955,"04415":11956,"`),":11957,"1828":11958,"oster":11959,"Ġ904":11960,"0390":11961,"Ġ832":11962,"etz":11963,"ICK":11964,"201339":11965,"ECH":11966,"ĠWWF":11967,"Ġcasopis":11968,"966":11969,"Ġ1366":11970,"43030":11971,"819":11972,"973":11973,"ĠXXV":11974,"Ġusing":11975,"ĠTu":11976,"Ġaus":11977,"5927":11978,"owa":11979,"942":11980,"Ġsrba":11981,"ĠBall":11982,"Ġspor":11983,"Commercial":11984,"043030":11985,"Ġ972":11986,"ĠArabic":11987,"cup":11988,"uting":11989,"estro":11990,"ĠAlas":11991,"0386":11992,"Ġ793":11993,"ĠGor":11994,"BER":11995,"daec":11996,"Ġ...)\\":11997,"Ġ\\\\\\\"\\":11998,"ĠApplied":11999,"ĠChristof":12000,"centar":12001,"Ġ1569":12002,"istics":12003,"ĠBahasa":12004,"ĠJA":12005,"Ġgy":12006,"ĠOrder":12007,"Pri":12008,"nacional":12009,"ĠCra":12010,"ĠXY":12011,"ĠDol":12012,"itum":12013,"ĠOTHER":12014,"razil":12015,"899":12016,"Actions":12017,"Ġ-----":12018,"icum":12019,"fera":12020,"diti":12021,"istika":12022,"ĠIndependent":12023,"kez":12024,"ĠRevolution":12025,"fak":12026,"endar":12027,"Ġ759":12028,"ellow":12029,"Ġdete":12030,"0428121":12031,"ĠRashod":12032,"Form":12033,"Ġ003":12034,"935":12035,"ISS":12036,"vm":12037,"ĠKA":12038,"Ġlook":12039,"files":12040,"3048":12041,"youtu":12042,"based":12043,"ranslate":12044,"ĠEURO":12045,"938":12046,"Ġju":12047,"ĠKor":12048,"ĠFed":12049,"ADIAN":12050,"RB":12051,"Ġ1608":12052,"ĠRO":12053,"0920":12054,"ĠGlas":12055,"Ġroman":12056,"ĠChange":12057,"ĠPolitical":12058,"}.":12059,"ians":12060,"toon":12061,"ĠComics":12062,"Ġ1501":12063,"1276":12064,"idence":12065,"Ġ1313":12066,"lovic":12067,"Ġ856":12068,"Ġogl":12069,"asion":12070,"loy":12071,"ĠToronto":12072,"Ġ1431":12073,"Ġ/,":12074,"agi":12075,"sputniknews":12076,"ĠLock":12077,"Ġlat":12078,"Ġ1587":12079,"Ġmach":12080,"Ġ[]":12081,"ĠCommunity":12082,"Ġzvani":12083,"Ġ1641":12084,"Ġ:)\"}":12085,"ether":12086,"Ġ0010":12087,"forma":12088,"Ġ1437":12089,"Ġ853":12090,"Ġwithout":12091,"tier":12092,"Ġ1478":12093,"1781":12094,"ĠKan":12095,"Ġdrz":12096,"043021":12097,"0379":12098,"Open":12099,"ĠCountry":12100,"Ġmateri":12101,"ciples":12102,"%,\\":12103,"0234":12104,"ĠFT":12105,"ĠJav":12106,"qui":12107,"Ġ1186":12108,"043029":12109,"eal":12110,"0275":12111,"nam":12112,"201341":12113,"igan":12114,"ĠDei":12115,"Ġposs":12116,"fbf":12117,"works":12118,"0115":12119,"erce":12120,"ĠForm":12121,"Ġprija":12122,"ĠFrancisco":12123,"ĠSYSTEMIC":12124,"Ġ939":12125,"ĠPon":12126,"Ġ1408":12127,"cons":12128,"wig":12129,"ymp":12130,"Ġ1684":12131,"0640":12132,"Ġmuz":12133,"ianus":12134,"Ġpatriotism":12135,"ĠMeg":12136,"Ġsoftware":12137,"Ġrest":12138,"Ġbranko":12139,"Ġ1574":12140,"ĠCultural":12141,"oks":12142,"Ġ1310":12143,"riting":12144,"ĠCANADIAN":12145,"Ġ1042":12146,"imes":12147,"Ġ1618":12148,"ĠKri":12149,"!!??\\":12150,"ĠLuka":12151,"ĠStephen":12152,"group":12153,"vil":12154,"Ġrev":12155,"Ġ932":12156,"takt":12157,"vizija":12158,"ĠBudapest":12159,"Ġdevelop":12160,"Ġ?!\\":12161,"Ġ881":12162,"Details":12163,"AJ":12164,"DL":12165,"GI":12166,"0222":12167,"Ġ1467":12168,"idad":12169,"phone":12170,"ĠAnySex":12171,"ĠOrtodoxy":12172,"Ġpap":12173,"Ġben":12174,"okal":12175,"Ġimport":12176,"'',\\":12177,"ports":12178,"Ġsmall":12179,"fred":12180,"ĠNT":12181,"inem":12182,"ĠDatabase":12183,"Ġ941":12184,"ouch":12185,"Ġjelena":12186,"8000":12187,"0652":12188,"utes":12189,"Ġ1442":12190,"edon":12191,"Ġ*-\\":12192,"ĠUSS":12193,"unds":12194,"201364":12195,"ĠDanish":12196,"ĠPOLICE":12197,"enni":12198,"dava":12199,"ĠMati":12200,"ĠLED":12201,"tsch":12202,"gnore":12203,"gon":12204,"Ġ886":12205,"Ġ1671":12206,"ĠAV":12207,"Ġrez":12208,"Ġsearch":12209,"041410":12210,"Ġ746":12211,"Ġ1233":12212,"ovich":12213,"ĠGel":12214,"---\\":12215,"Ġfunk":12216,"nTagged":12217,")\\\".":12218,"Ġ789":12219,"1699":12220,"ĠLiterature":12221,"sednik":12222,"Ġdict":12223,"Ġlar":12224,"ĠCOP":12225,"ĠArgentina":12226,"nRes":12227,"20131990":12228,"gang":12229,"0428123":12230,"ĠREG":12231,"Ġgame":12232,"Ġstoj":12233,"Ġ1419":12234,"ĠHaarp":12235,"ĠPartners":12236,"Ġ903":12237,"1790":12238,"ĠRol":12239,"roc":12240,"ĠOrwellian":12241,"xw":12242,"Ġ1077":12243,"Ġ1621":12244,"ĠNich":12245,"Ġrem":12246,"ĠInterest":12247,"ĠWilliams":12248,"Res":12249,"tique":12250,"Ġ/\"}":12251,"Ġscience":12252,"roati":12253,"Ġ...[\\":12254,"ĠExp":12255,"Ġ1379":12256,"HIVA":12257,"bin":12258,"Ġneg":12259,"ĠJunior":12260,"Ġ1368":12261,"ĠCPU":12262,"Ġ1353":12263,"201344":12264,"Ġjeziku":12265,"rebren":12266,"Ġmagyar":12267,"Ġanniversary":12268,"adp":12269,"Ġsine":12270,"acp":12271,"ĠTaj":12272,"Ġ0016":12273,"ciklop":12274,"Ġ859":12275,"1812":12276,"aph":12277,"ĠSout":12278,"ĠMill":12279,"ĠPython":12280,"2260":12281,"Ġ1356":12282,"Ġkoju":12283,"Ġ\\\",\\\"":12284,"etnick":12285,"ĠRac":12286,"lava":12287,"ĠBoy":12288,"Ġskupa":12289,"Ġ949":12290,"ĠIntegra":12291,"Ġ943":12292,"culus":12293,"Ġ1622":12294,"0428119":12295,"Ġ892":12296,"ĠSrba":12297,"Ġ1418":12298,"Ġused":12299,"Ġ834":12300,"dea":12301,"orium":12302,"oi":12303,"ĠRud":12304,"ĠVIP":12305,"UTERS":12306,"danje":12307,"koj":12308,"zig":12309,"STRA":12310,"Ġ1429":12311,"GMT":12312,"aff":12313,"0428126":12314,"ĠLor":12315,"ttle":12316,"Ġ(*)":12317,"polj":12318,"NonCommercial":12319,"ping":12320,"vec":12321,"201342":12322,"ĠDocument":12323,"964":12324,"1829":12325,"icz":12326,"eem":12327,"Ġ-\"}":12328,"Ġ058":12329,"Ġ1202":12330,"dol":12331,"Ġtv":12332,"evac":12333,"illes":12334,"ĠThai":12335,"ĠBeh":12336,"YP":12337,"Ġ1705":12338,"avid":12339,"lated":12340,"201354":12341,"nARHIVA":12342,">,":12343,"author":12344,"Ġ831":12345,"ĠHack":12346,"nSlede":12347,"ENS":12348,"haus":12349,"DO":12350,"043192":12351,"04130":12352,"Ġ987":12353,"ustice":12354,"ĠDou":12355,"lib":12356,"Ġsrpskom":12357,"Ġ838":12358,"ardi":12359,"ICI":12360,"Ġopozic":12361,"ĠRoom":12362,"ĠJuan":12363,"Die":12364,"Ġ914":12365,"Ġ969":12366,"Ġ1285":12367,"Ġ1301":12368,"ĠFBI":12369,"Ġsrpske":12370,"ĠMEDIA":12371,"nice":12372,"1683":12373,"ĠLud":12374,"ĠName":12375,"mak":12376,"Ġ1504":12377,"Ġ1483":12378,"eman":12379,"Ġ1327":12380,"FL":12381,"04443":12382,"Ġ899":12383,"Ġ1545":12384,"ĠIss":12385,"ĠBud":12386,"ĠEu":12387,"math":12388,"ĠBob":12389,"dok":12390,"ĠChris":12391,"nKo":12392,"nPro":12393,"Ġstudy":12394,"Ġnapis":12395,"ned":12396,"Ġ973":12397,".):\\":12398,"Ġgb":12399,"ublished":12400,"abb":12401,"loyd":12402,"Ġisp":12403,"ĠICMP":12404,"ĠDevelop":12405,"-.\\":12406,"Ġ817":12407,"aty":12408,"ĠHum":12409,"Ġfra":12410,"Ġling":12411,"Ġpsihologija":12412,"ĠSERBIA":12413,"Ġmel":12414,"Ġnev":12415,"izon":12416,"Ġ1315":12417,"ĠCONT":12418,"zas":12419,"Ġ\\\"\\\"\\":12420,"ĠSelect":12421,"ĠSymp":12422,"Get":12423,"042210":12424,"Ġ1160":12425,"ĠCore":12426,"1243":12427,"948":12428,";)\\":12429,"ated":12430,"ĠMAC":12431,"abav":12432,"20131878":12433,"!!!!!!!!":12434,"Best":12435,"Ġbal":12436,"ĠAnt":12437,"1427":12438,"oloski":12439,"yx":12440,"Ġprimen":12441,"eDe":12442,"%:":12443,"ĠWOR":12444,"ĠInternationale":12445,"ĠAnalysis":12446,"ioni":12447,"ĠLeon":12448,"ĠSrbi":12449,"Ġhalf":12450,"mf":12451,"Ġpopovic":12452,"0428129":12453,"Ġmene":12454,"glass":12455,"Ġ928":12456,"Ġ1004":12457,"Ġkategor":12458,"Ġodgov":12459,"lova":12460,"Ġsocial":12461,"0428124":12462,"Ġ1696":12463,"bass":12464,"ĠDrug":12465,"ĠkHz":12466,"ĠIslam":12467,"nObjavljeno":12468,"ĠMET":12469,"Ġdei":12470,"ideos":12471,"drina":12472,"ĠHrvatske":12473,"gos":12474,"Ġ874":12475,"indo":12476,"ĠAx":12477,"ĠKako":12478,"DH":12479,"7684":12480,"Ġ824":12481,"ancy":12482,"2261":12483,"ĠWA":12484,"edm":12485,"ĠLO":12486,"Ġ...),":12487,"igi":12488,"04301985":12489,"voz":12490,"ĠAdministration":12491,"Sal":12492,"Ġ847":12493,"daju":12494,"ĠMC":12495,"Ġsan":12496,"ĠLit":12497,"Ġnomen":12498,"ĠSupport":12499,"ĠkN":12500,"klju":12501,"ĠEXIT":12502,"aturbate":12503,"Cent":12504,"vena":12505,"ĠMG":12506,"ĠRout":12507,"3068":12508,"Ġbudu":12509,"cV":12510,"ĠSel":12511,"esis":12512,"abinet":12513,"ĠStep":12514,"Arch":12515,"042387":12516,"0137":12517,"Ġstvari":12518,"939":12519,"Cor":12520,"rica":12521,"Ġ1376":12522,"Ġ1363":12523,"ĠLibre":12524,"Ġ1664":12525,"ĠPast":12526,"ĠTab":12527,"ĠCarl":12528,"Ġresults":12529,"bboY":12530,"Ġ921":12531,"ĠTex":12532,"ribd":12533,"turi":12534,"ĠHein":12535,"ĠArchitecture":12536,"Ġ1505":12537,"Ġ1588":12538,"Ġsapi":12539,"Ġ:(":12540,"ĠFP":12541,"aton":12542,"ĠContemporary":12543,"KT":12544,"clus":12545,"Ġtrack":12546,"Is":12547,"0428128":12548,"ĠHard":12549,"witch":12550,"eana":12551,"0303":12552,"ĠMatt":12553,"ĠAud":12554,"omor":12555,"jevic":12556,"igen":12557,"ustvo":12558,"Star":12559,"43026":12560,"043026":12561,"04406":12562,"Ġ848":12563,"Ġ1575":12564,"Ġworks":12565,"tugal":12566,"ĠMarie":12567,"Ġ1336":12568,"ĠWinter":12569,"ĠPrix":12570,"Ġmarketing":12571,"974":12572,"04110":12573,"0178":12574,"ĠLee":12575,"akisan":12576,"ĠXXVII":12577,"04346":12578,"042610":12579,"\\\"/":12580,"Ġ1513":12581,"Ġshe":12582,"1788":12583,"Ġtal":12584,"Ġversion":12585,"vana":12586,"Ġ961":12587,"nSt":12588,"nig":12589,"0428125":12590,"04158":12591,"0428130":12592,"1837":12593,"logo":12594,"22650":12595,"ophy":12596,"Ġ1291":12597,"ĠSac":12598,"1807":12599,"Ġtog":12600,"Ġauthor":12601,"1143":12602,"0090":12603,"Ġ839":12604,"Ġcopy":12605,"Ġdva":12606,"977":12607,"Ġ1561":12608,"edin":12609,"Ġ1317":12610,"Ġ34000":12611,"Ġautoma":12612,"ĠStrateg":12613,"Comp":12614,"zor":12615,"tekst":12616,"ceed":12617,"ĠPolitika":12618,"Ġrecepata":12619,"044111":12620,"ĠAI":12621,"Ġhome":12622,"Ġaspekt":12623,"HL":12624,"Ġ0350":12625,"Ġ1475":12626,"ĠShqip":12627,"Ġfollowing":12628,"wiss":12629,"Ġ1305":12630,"Ġ3300":12631,"ĠCarol":12632,"Ġpredstav":12633,"ĠGitHub":12634,"ĠFinnish":12635,"center":12636,"ĠType":12637,"ĠFIFA":12638,"cam":12639,"Ġlast":12640,"Ġdos":12641,"></":12642,"0935":12643,"Ġkak":12644,"Ġred":12645,"Ġstarosloven":12646,"Print":12647,"fond":12648,"Ġ883":12649,"Ġ1118":12650,"ĠKen":12651,"stra":12652,"04481":12653,"izi":12654,"Ġqui":12655,"Ġ..............":12656,"!(":12657,"Ab":12658,"_.":12659,"Ġ1644":12660,"rec":12661,"ĠJim":12662,"nNov":12663,"201375":12664,"Ġ889":12665,"inas":12666,"ijen":12667,"WE":12668,"kV":12669,"ĠCT":12670,"ĠArticle":12671,"daje":12672,"Ġogledi":12673,"Ġ989":12674,"ĠCensus":12675,"Ġdij":12676,"Ġ1322":12677,"Ġ1658":12678,"omon":12679,"ĠMoon":12680,"ĠMys":12681,"ĠEmer":12682,"ĠNaj":12683,"INK":12684,"Ġcode":12685,"ĠKlett":12686,"Cap":12687,"Ġros":12688,"04465":12689,"okat":12690,"razy":12691,"ĠDropbox":12692,"Ġ(~":12693,"ĠIm":12694,"ĠVil":12695,"ĠGT":12696,"atures":12697,"3042":12698,"nRE":12699,"Ġ1625":12700,"Ġproject":12701,"priv":12702,"Ġdomain":12703,"Ġsavremeni":12704,"nus":12705,"Ġ1589":12706,"uding":12707,"areBG":12708,"Ġ1422":12709,"201355":12710,"UNDP":12711,"ĠPlayer":12712,"inae":12713,"Ġ1170":12714,"Ġsource":12715,"range":12716,"ĠChild":12717,"ydro":12718,"ĠEnvironmental":12719,"fac":12720,"Ġ1607":12721,"Ġ1497":12722,"1690":12723,"itate":12724,"guidance":12725,"ĠHindi":12726,"04333":12727,"ĠCitation":12728,"ulae":12729,"ĠYF":12730,"Ġzad":12731,"istance":12732,"loc":12733,"ordzm":12734,"ĠPosts":12735,"Ġidenti":12736,"eing":12737,"042517":12738,"ĠHub":12739,"utra":12740,"ervation":12741,"RY":12742,"}.\\":12743,"04118":12744,"Ġ1113":12745,"bble":12746,"atno":12747,"vier":12748,"resh":12749,"kre":12750,"rel":12751,"ĠDub":12752,"untain":12753,"ĠIniti":12754,"owski":12755,"ĠVirgin":12756,"ĠBloom":12757,"?''":12758,"anth":12759,"Ġslobo":12760,"ruck":12761,"quire":12762,"ĠSuomi":12763,"kes":12764,"mc":12765,"Ġ17021":12766,"ĠMIL":12767,"iant":12768,"Ġ1130":12769,"rpski":12770,"rieved":12771,"bos":12772,"0190":12773,"Ġ1187":12774,"2640":12775,"ungs":12776,"ĠMoodle":12777,"joomla":12778,"ĠCrimen":12779,"Ġcontrol":12780,"Ġ:-)\\":12781,"Ġ-->":12782,"Ġovog":12783,"Kar":12784,"aring":12785,"1825":12786,"ĠMEMORIAM":12787,":)\\":12788,"Ġ1619":12789,"Ġmora":12790,"Ġbos":12791,"Ġdeg":12792,"essor":12793,"grama":12794,"Ġfot":12795,"ĠSSL":12796,"LL":12797,"Tr":12798,"Ġ998":12799,"nGenesis":12800,"ĠSlovenian":12801,"Ser":12802,"jena":12803,"ĠMost":12804,"Ġcir":12805,"Ġcool":12806,"Ġ00066":12807,"ĠEarly":12808,"wahili":12809,"Ġ1064":12810,"ĠPf":12811,"Ġmust":12812,"asmus":12813,"ĠVit":12814,"ĠChaturbate":12815,"ĠTrust":12816,"0428127":12817,"Ġpob":12818,"0276":12819,"ĠUV":12820,"Ġizv":12821,"201359":12822,"ĠTEORI":12823,"Des":12824,"nel":12825,"Ġmaja":12826,"Ġ>>>":12827,"Ġ1085":12828,"Ġ1508":12829,"1820":12830,"ibil":12831,"ĠIPv":12832,"download":12833,"043514":12834,"Ġ1252":12835,"2194":12836,"tick":12837,"tend":12838,"ĠIce":12839,"ĠAle":12840,"ĠNumber":12841,"ĠHay":12842,"Ġ1643":12843,"vojvodina":12844,"$,":12845,"043515":12846,"042111":12847,"Ġ934":12848,"ĠMb":12849,"ĠMach":12850,"ĠChrom":12851,")*":12852,"Hel":12853,"Ġ868":12854,"Ġ/.../":12855,"edit":12856,"Ġfemin":12857,"AGS":12858,"Ġ1227":12859,"ĠPictures":12860,"ĠDor":12861,"bdc":12862,"Ġviol":12863,"ĠBiH":12864,"ĠClinical":12865,"nezana":12866,"ĠCourt":12867,"->\\":12868,"EY":12869,"04416":12870,"ĠAFP":12871,"ĠFM":12872,"ĠFred":12873,"Ġras":12874,"IPO":12875,"ĠQuar":12876,"ĠTheater":12877,"nThis":12878,"ARA":12879,"ĠPlace":12880,"Ġminim":12881,"ujem":12882,"ĠClimate":12883,"Ġzloup":12884,"asus":12885,"Ġnec":12886,"imna":12887,"ĠEstonian":12888,"ĠChampion":12889,"rys":12890,"trip":12891,"Ġcare":12892,"ĠArmy":12893,"1459":12894,"ĠColumbia":12895,"ĠBaby":12896,"ĠDeep":12897,"Ġstandard":12898,"1196":12899,"ĠWeekly":12900,"big":12901,"yt":12902,"Ġ1165":12903,"tische":12904,"ĠDefense":12905,"Sec":12906,"Ġ1003":12907,"ĠOk":12908,"ĠEuropa":12909,"Ġ!.":12910,"ĠPok":12911,"ĠJah":12912,"ANJE":12913,"nDownload":12914,"Alike":12915,"Ġnaucnog":12916,"js":12917,"rez":12918,"ROZ":12919,"Ba":12920,"Ġ841":12921,"Ġ931":12922,"Ġ997":12923,"ĠHi":12924,"eval":12925,"Ġmillion":12926,"ĠPolitics":12927,"+.\\":12928,"zap":12929,"Ġ959":12930,"Ġpspp":12931,"ĠPowered":12932,"Ġinstitu":12933,"frikaans":12934,"'\\\",":12935,"location":12936,"Ġreaction":12937,"ĠHandbook":12938,"1025":12939,"041010":12940,"Ġ1535":12941,"2227":12942,"ĠJug":12943,"ocol":12944,"0428136":12945,"201365":12946,"';":12947,"Dar":12948,"allation":12949,"TRAIN":12950,"+/-":12951,"sarad":12952,"Ġ1183":12953,"Ġ1634":12954,"Ġjust":12955,"ĠPOP":12956,"ators":12957,"lified":12958,"mania":12959,"ĠOpera":12960,"...\\\".":12961,"3040":12962,"ĠEin":12963,"ĠJr":12964,"Ġdeo":12965,"ĠCooperation":12966,"Der":12967,"dl":12968,"Ġ944":12969,"ĠHerman":12970,"2211":12971,"azak":12972,"201346":12973,"Ġfood":12974,"Ġ1656":12975,"lev":12976,"ĠNis":12977,"aver":12978,"idar":12979,"STAV":12980,"ĠYoujoomla":12981,"zacije":12982,"ĠBureau":12983,"Ġ1324":12984,"-/":12985,"ĠKit":12986,"ĠGram":12987,"Ġyoutube":12988,"balo":12989,"main":12990,"antum":12991,"nmore":12992,"Nederlands":12993,"Top":12994,"bis":12995,"balkan":12996,"ĠGaeilge":12997,"Ġudar":12998,"ccion":12999,"Ġ996":13000,"1054":13001,"Ġproiz":13002,"ORY":13003,"1180":13004,"ĠMN":13005,"lection":13006,"Ġ1205":13007,"0428134":13008,"iu":13009,"Ġ______":13010,"042150":13011,"Ġ956":13012,"Ġ1147":13013,"1250":13014,"ĠLV":13015,"ancevo":13016,"ĠDonald":13017,"ĠSurvey":13018,"?...{":13019,"equ":13020,"hand":13021,"Ġ942":13022,"?!?\\":13023,"ĠArchae":13024,"Media":13025,"pak":13026,"ĠWP":13027,"ĠLiv":13028,"Ġedition":13029,"enna":13030,"Ġ26000":13031,"vih":13032,"Ġheavy":13033,"front":13034,"ĠOlympic":13035,"enger":13036,"ĠMich":13037,"ĠMcC":13038,"Ġ:-)":13039,"Ġ%%":13040,"/(":13041,"new":13042,"pon":13043,"ims":13044,"Ġ1216":13045,"ivaldi":13046,"vanje":13047,"atom":13048,"ebi":13049,"enius":13050,"ĠREUTERS":13051,"rc":13052,"ĠHAT":13053,"20141944":13054,"wall":13055,"zb":13056,"Ġ1729":13057,"ĠNEW":13058,"ĠOH":13059,"Ġ1228":13060,"eres":13061,"rio":13062,"odon":13063,"Ġjednom":13064,"Ġljud":13065,"OLOGY":13066,"Ġ1584":13067,"avo":13068,"ubli":13069,"201353":13070,"ĠScholar":13071,"Ġ1645":13072,"konkurs":13073,"ĠCustomer":13074,"mad":13075,"Ġ),\\":13076,"ĠFish":13077,"Ġfind":13078,"otin":13079,"rance":13080,"LEX":13081,"1014":13082,">.":13083,"Ġ887":13084,"1823":13085,"ĠTown":13086,"eYou":13087,"rect":13088,"ĠJew":13089,"itelj":13090,"place":13091,"eFor":13092,"Ġwhole":13093,"Life":13094,"Ġ1623":13095,"Ġ1471":13096,"asure":13097,"ĠCho":13098,"Ġlayout":13099,"Ġ909":13100,"Ġ1462":13101,"Ġpack":13102,"Ġmedi":13103,"rave":13104,"ĠFighter":13105,"ĠGall":13106,"Ġbeca":13107,"oreklo":13108,"ault":13109,"iegel":13110,"oment":13111,"ĠGri":13112,"Ġ00059":13113,"oshop":13114,"ĠChristi":13115,"0428133":13116,"Ġuk":13117,"Ġorder":13118,"Ġ1583":13119,"Ġ1655":13120,"Ġ1482":13121,"ĠKy":13122,"Ġ4200":13123,"ĠQuality":13124,"Ġ1407":13125,"gled":13126,"201348":13127,"nbsp":13128,"Bas":13129,"omat":13130,"ĠUTC":13131,"risis":13132,"Ġhab":13133,"Arhiva":13134,"ĠSERBIAN":13135,"Ġ916":13136,"Ġ951":13137,"ĠDN":13138,"leep":13139,"osis":13140,"Ġphone":13141,"atoes":13142,"ĠIan":13143,"ĠOLD":13144,"Info":13145,"aspx":13146,"TL":13147,"like":13148,"Ġ1207":13149,"ĠArmen":13150,"Ġthese":13151,"Ġpur":13152,"0936":13153,"Ġime":13154,"0483":13155,"ĠSTUD":13156,"Ġ1154":13157,"Ġ1307":13158,"ĠTRA":13159,"ĠOracle":13160,"ĠHas":13161,"irm":13162,"ARP":13163,"Ġengles":13164,"%.\"}":13165,"uge":13166,"Ġ-...\\":13167,"Ġ798":13168,"Ġ992":13169,"ĠOE":13170,"EXT":13171,"ĠJesus":13172,"ĠSamo":13173,"arth":13174,"1827":13175,"rbas":13176,"Ġshould":13177,"pers":13178,"ĠGP":13179,"ĠPrivacy":13180,"Ġhely":13181,"BRD":13182,"Ġosnovnih":13183,"ting":13184,"Ġ(/":13185,"Ġ958":13186,"rando":13187,"ording":13188,"itio":13189,"20141995":13190,"Rev":13191,"nan":13192,"Ġ1070":13193,"ĠThere":13194,"ĠLew":13195,"Ġcum":13196,"ĠLegal":13197,"ĠZeitung":13198,"Ignore":13199,"ido":13200,"Ġ894":13201,"Ġ1238":13202,"enu":13203,"dated":13204,"Ġservices":13205,"ĠFTP":13206,"porter":13207,"dkih":13208,"Ġengine":13209,"UST":13210,"ylon":13211,"Ġ1191":13212,"ICEF":13213,"1024":13214,"uca":13215,"0092":13216,"Ġ966":13217,"ĠTeatro":13218,"ĠNovak":13219,"Ġ1434":13220,"teor":13221,"Ġinf":13222,"nju":13223,"IJ":13224,"\\\")..":13225,"979":13226,"1093":13227,"1811":13228,"Ġsep":13229,"lett":13230,"ĠLithuanian":13231,"Ġwidth":13232,"Ġuzb":13233,"0604":13234,"Ġoccasion":13235,"Ġ977":13236,"Ġ1334":13237,"ĠCAS":13238,"Ġautor":13239,"ShareAlike":13240,"ĠBrand":13241,"ĠCatalan":13242,"04233":13243,"adis":13244,"Ġ1661":13245,"ĠDina":13246,"1005":13247,"0428131":13248,"ĠJezik":13249,"ĠPowerPoint":13250,"ĠGeschichte":13251,"vio":13252,"Ġ030":13253,"ussian":13254,"liche":13255,"RASM":13256,"eon":13257,"rastko":13258,"ĠAIM":13259,"roph":13260,"Ġ017":13261,"erty":13262,"ĠScienti":13263,"3038":13264,"0428143":13265,"Ġindiv":13266,"ĠPublishers":13267,"Ġ(?!)":13268,"Ġprofesor":13269,"lue":13270,"Ġ1626":13271,"Ġ|.":13272,"ospod":13273,"Will":13274,"EMA":13275,"gus":13276,"mts":13277,"heed":13278,"ĠFC":13279,"ĠNarod":13280,"Ġ[...].":13281,"Rom":13282,"xa":13283,"ĠMTV":13284,"1801":13285,"ĠBH":13286,"Ġmsg":13287,"iting":13288,"Ġgle":13289,"Ġ1359":13290,"ĠBreak":13291,"3036":13292,"Service":13293,"0651":13294,"Ġ1328":13295,"ĠSoccer":13296,"fs":13297,"zat":13298,"Ġtol":13299,"icate":13300,"Ġrock":13301,"Ġabs":13302,"ĠREPUBL":13303,"ĠIzaberite":13304,"Ġ1495":13305,"ĠNord":13306,"Ġ1312":13307,"rbije":13308,"HTML":13309,"nav":13310,"Ġ871":13311,"Ġ1120":13312,"Ġsign":13313,"Ġ1394":13314,"1805":13315,"ĠPAN":13316,"upin":13317,"pera":13318,"Ġindust":13319,"acu":13320,"ĠTax":13321,"ĠJugoslavije":13322,"4335":13323,"zk":13324,"Ġ1479":13325,"Ġmany":13326,"ĠCoca":13327,"ĠmmHg":13328,"ĠMechan":13329,"201347":13330,"Hill":13331,"UZ":13332,"avio":13333,"ĠOfficial":13334,"lle":13335,"2113":13336,"Ġ050":13337,"Ġ1629":13338,"ĠSEL":13339,"UNESCO":13340,"Ġsupp":13341,"Ġmarija":13342,"otrebe":13343,"4334":13344,"nem":13345,"ĠIron":13346,"Ġ1469":13347,"athan":13348,"Ġprez":13349,"Ġ1506":13350,"201378":13351,"ohija":13352,"serbia":13353,"Ġ1653":13354,"dob":13355,"Ġ=.":13356,"ĠCNC":13357,"ĠJovanovi":13358,"RASMUS":13359,"eur":13360,"Ġtool":13361,"nTranslate":13362,"!\\\"\"}":13363,"Ġ13000":13364,"Ġ1358":13365,"Dzordzm":13366,"blockquote":13367,"rill":13368,"ĠSud":13369,"times":13370,"ĠMul":13371,"Ġhard":13372,"Ġ\\\\\\":13373,"Ġstatis":13374,"Ġ________________________________________":13375,"ĠIndonesian":13376,"Ġtren":13377,"1345":13378,"ĠFAC":13379,"utar":13380,"apr":13381,"nMe":13382,"0428138":13383,"ePro":13384,"Ġparadisi":13385,"3032":13386,"041445":13387,"Ġ1576":13388,"eru":13389,"ĠGlo":13390,"ĠProduction":13391,"ĠICANN":13392,"irilice":13393,"OX":13394,"Ġ906":13395,"Ġwestern":13396,"ĠVietnamese":13397,"ELL":13398,"cIn":13399,"Ġ937":13400,"Ġ1652":13401,"ĠTak":13402,"Ġ+.":13403,"ston":13404,"Ġglav":13405,"iranje":13406,"ATSA":13407,"Ġapproach":13408,"ĠSimplified":13409,"Ġ(),":13410,"rek":13411,"ĠGot":13412,"Ġstanov":13413,"Ġarticle":13414,"Ġ983":13415,"ĠAlbert":13416,"ORA":13417,"ureccion":13418,"UPAC":13419,"Green":13420,"budsmanapv":13421,"ĠCond":13422,"ĠAsh":13423,"Ġblack":13424,"cocc":13425,"Ġ1011":13426,"Ġant":13427,"nombudsmanapv":13428,"mol":13429,"Ġ933":13430,"Ġ918":13431,"1822":13432,"ISM":13433,"eSerb":13434,"nNe":13435,"Ġzelite":13436,",..\\":13437,"3049":13438,"anis":13439,"ijela":13440,"wars":13441,"ĠCell":13442,"rev":13443,"Ġ(*).":13444,"201356":13445,"ularis":13446,"mor":13447,"ĠKh":13448,"ĠGil":13449,"uty":13450,"ĠManual":13451,"ĠRothsch":13452,"Ġ1586":13453,"042620":13454,"ITA":13455,"Ġcontent":13456,"ĠSite":13457,"ĠDS":13458,"0428132":13459,"ĠVolks":13460,"blic":13461,"prin":13462,"Ġ854":13463,"ikinda":13464,"Ġvec":13465,"Ġlica":13466,"rict":13467,"ĠBNF":13468,"onica":13469,"1808":13470,"Ġetc":13471,"Aug":13472,"nor":13473,"ĠSens":13474,"ĠBf":13475,"Ġhot":13476,"ĠProble":13477,"hood":13478,"ĠRegional":13479,"Ġcentury":13480,"Microsoft":13481,"ĠPur":13482,"ANU":13483,"Ġumet":13484,"ĠEnterprise":13485,"04334":13486,"Ġviv":13487,"ĠUEFA":13488,"agus":13489,"ijesti":13490,"ARC":13491,"Ġcitate":13492,"global":13493,"Ġ/>":13494,"ĠVip":13495,"eaks":13496,"?!.":13497,"ĠSteve":13498,"Ġlogos":13499,"ĠLake":13500,"Ġ\"/":13501,"?!\\\"":13502,"aise":13503,"OAS":13504,"ĠXp":13505,"acak":13506,"Ġ'.":13507,"feld":13508,"Ġkoliko":13509,"nop":13510,"Ġ1303":13511,"0274":13512,"rani":13513,"ĠStojan":13514,"iagnos":13515,"views":13516,"ĠAngeles":13517,")....":13518,"Ġdipl":13519,"item":13520,"IZZ":13521,"6000":13522,"04471":13523,"Ġ1554":13524,"Ġ1254":13525,"ĠChi":13526,"Ġchildren":13527,"ografije":13528,"ĠZoranzoki":13529,"file":13530,"Ġ1539":13531,"arica":13532,"ĠWHO":13533,"ĠDire":13534,"Ġforum":13535,"ĠJeff":13536,"ĠHyper":13537,"tur":13538,"20132009":13539,"Ġisto":13540,"Pack":13541,"trans":13542,"Ġ946":13543,"1177":13544,"ĠPierre":13545,"ĠBanja":13546,"ĠLam":13547,"yste":13548,"fat":13549,"ĠNick":13550,"ĠZh":13551,"ĠXVideos":13552,"Ġcell":13553,"3061":13554,"ĠIsrael":13555,"ĠBerg":13556,"ĠDouble":13557,"ĠGalician":13558,"Ġsapiens":13559,"RP":13560,"table":13561,"Ġ({{\\":13562,"Ġ1577":13563,"Ġ1558":13564,"ĠSep":13565,"1817":13566,"Ġ2620":13567,"ordan":13568,"istorija":13569,"!''\\":13570,"CAM":13571,"nar":13572,"waptrick":13573,"ufffc":13574,"Ġ1414":13575,"unterladen":13576,"Ġkraju":13577,"Mac":13578,"Ġ1510":13579,"ĠMK":13580,"ĠCIP":13581,"ĠCtrl":13582,"base":13583,"]].\\":13584,"Ġpars":13585,"'m":13586,"ĠPractice":13587,"illi":13588,"heit":13589,"nMa":13590,"ĠMonte":13591,"ĠĠĠĠĠĠĠĠĠĠĠĠĠĠĠĠ":13592,"ĠStars":13593,"talk":13594,"ĠWiFi":13595,"Red":13596,"Ġ1253":13597,"ogledaj":13598,"ĠArhiva":13599,"ĠBitcoin":13600,"inis":13601,"Ġ1628":13602,"Ġizb":13603,"Ġ962":13604,"Ġ250000":13605,"ĠLativ":13606,"Ġbig":13607,"0428137":13608,"chem":13609,"ĠLativian":13610,"LET":13611,"zem":13612,"adin":13613,"ĠAna":13614,"ĠPix":13615,"plus":13616,"RESS":13617,"Ġfrancus":13618,"Ġ884":13619,"Ġ/.":13620,"ĠRISC":13621,"eline":13622,"Ġalign":13623,"ĠĠĠĠĠĠ":13624,"sti":13625,"Ġ1631":13626,"Ġ1675":13627,"Ġ1309":13628,"ements":13629,"Ġzas":13630,"ĠCookie":13631,"ĠBeat":13632,"nEn":13633,"ything":13634,"Porno":13635,"Ġsystems":13636,"Lakisan":13637,"Ġ919":13638,"Ġ1567":13639,"foj":13640,"Ġprimer":13641,"Ġmetal":13642,"Ġherunterladen":13643,"glassporta":13644,"fun":13645,"Ġ!.\\":13646,"Ġkroz":13647,"Ġfest":13648,"obraz":13649,"srbije":13650,"ĠKnowledge":13651,"ĠLux":13652,"ikon":13653,"ormal":13654,"(!)":13655,"Ġ1201":13656,"Ġ1274":13657,"Ġ'.\\":13658,"Ġthen":13659,"aoo":13660,"ccd":13661,"Ġspeed":13662,"ĠBE":13663,"ITE":13664,"ĠRelations":13665,";,":13666,"Ha":13667,"ĠTalk":13668,"ĠKulturni":13669,"Jean":13670,"Louis":13671,"043820":13672,"Ġtov":13673,"ĠOB":13674,"Ġcivil":13675,"Ġsuch":13676,"nJe":13677,"astir":13678,"ĠGray":13679,":[\\":13680,"At":13681,"Ġ004":13682,"201363":13683,"ĠDisney":13684,"HC":13685,"fore":13686,"Ġ1432":13687,"Ġ1306":13688,"ĠKOM":13689,"Ġaug":13690,"0428140":13691,"Ġ948":13692,"Ġwhere":13693,"20132008":13694,"Ġstan":13695,"Ġ1357":13696,"ĠMoore":13697,"Ġkeyboard":13698,"Ġ897":13699,"Ġ1090":13700,"Ġmp":13701,"ĠSRB":13702,"valu":13703,"Robert":13704,"0133":13705,"aden":13706,"Ġbon":13707,"ellschaft":13708,"sek":13709,"anjug":13710,"~~\\":13711,"042320":13712,"ĠBoston":13713,"ĠLady":13714,"opus":13715,"0428139":13716,"Ġgratis":13717,"Magyar":13718,"3047":13719,"kW":13720,"Les":13721,"Uni":13722,"fK":13723,"gif":13724,"042316":13725,"erc":13726,"fck":13727,"ĠZep":13728,"ĠChannel":13729,"ĠBeogradu":13730,"043513":13731,"042116":13732,"enica":13733,"Ġmemo":13734,"ĠSimonovi":13735,"Ġrekao":13736,"*),":13737,"ĠAIESEC":13738,"umn":13739,"oking":13740,"Ġ1195":13741,"Ġlevel":13742,"20131991":13743,"ablon":13744,"rebrenica":13745,"Ġ027":13746,"ĠTrue":13747,"Her":13748,"We":13749,"gio":13750,"Ġ1531":13751,"ĠSant":13752,"ĠXC":13753,"ĠAncient":13754,"ĠCroatia":13755,"2044":13756,"PI":13757,"ĠContinu":13758,"Ġhor":13759,"Ġish":13760,"Ġold":13761,"Ġarh":13762,"201371":13763,"Ref":13764,"Ġ_______":13765,"201395":13766,"aland":13767,"cej":13768,"Ġ1209":13769,"achi":13770,"ĠMaced":13771,"ĠScott":13772,",...,":13773,"enci":13774,"ĠDej":13775,"ried":13776,"Ġvest":13777,"Ġodgovor":13778,"preduz":13779,"ĠLep":13780,"ovima":13781,"201358":13782,"Ġbased":13783,"Ġentry":13784,"gium":13785,"Ġ968":13786,"Ġextension":13787,"remena":13788,"atrix":13789,"align":13790,"estion":13791,"ĠTraining":13792,"lec":13793,"Ġgeneral":13794,"nific":13795,"041419":13796,"Ġ1436":13797,"Ġ1602":13798,"cean":13799,"ĠZor":13800,"Ġ$.":13801,"ovies":13802,"qua":13803,"Ġizme":13804,"201352":13805,"afou":13806,"UX":13807,"Ġnaro":13808,"andy":13809,"Ġ00008":13810,"Ġtermin":13811,"eus":13812,"00000":13813,"IDA":13814,"201369":13815,"eEx":13816,"43036":13817,"vim":13818,"wh":13819,"Ġ|\"}":13820,"2282":13821,"1795":13822,"ĠVA":13823,"ebs":13824,"ebra":13825,"20132005":13826,"Ġodr":13827,"ĠAfric":13828,"nfrom":13829,"Ġdocument":13830,"Self":13831,"uci":13832,"043815":13833,"XXI":13834,"Ġshop":13835,"Ġpartis":13836,"ĠFreedom":13837,"glasnik":13838,"ĠBAS":13839,"ebr":13840,"image":13841,"aloda":13842,"043036":13843,"credit":13844,"043813":13845,"Ġ/-\\":13846,"ULT":13847,"Ġgenus":13848,"nResureccion":13849,"HP":13850,"UI":13851,"osus":13852,"unes":13853,"Ġ*)":13854,"Ġdog":13855,"ĠTelevision":13856,"0410320":13857,"Ġ857":13858,"0622":13859,".).\"}":13860,"nAd":13861,"Ġproxy":13862,"Ġ1212":13863,"Bet":13864,"XQ":13865,"fighter":13866,"1244":13867,"ĠVIN":13868,"ILE":13869,"ilibrium":13870,"ĠDur":13871,"Ġvoz":13872,"201351":13873,"Ġphys":13874,"Ġmodern":13875,"NOSTI":13876,"044311":13877,"Ġpark":13878,"1766":13879,"cctn":13880,"Ġreview":13881,"ijom":13882,"ĠAlt":13883,"Ġ1329":13884,"201357":13885,"lovna":13886,"ĠPrem":13887,"042630":13888,"Fre":13889,"mid":13890,"alacija":13891,"1780":13892,"ĠEK":13893,"ĠAllies":13894,"Ġ1416":13895,"ĠActa":13896,"ĠWebsite":13897,"ĠMetropol":13898,"bank":13899,"zdrav":13900,"Ġ1155":13901,"ĠSche":13902,"etta":13903,"0428135":13904,"spects":13905,"1015":13906,"Mad":13907,"Ġ1095":13908,"ĠPET":13909,"vide":13910,"tainable":13911,"...(\\":13912,"jevi":13913,"0428141":13914,"0428145":13915,"ĠResources":13916,"ĠAcademic":13917,"ĠMultihunter":13918,"201386":13919,"ĠAirlines":13920,"ĠRegion":13921,"GO":13922,"cic":13923,"0403":13924,"ĠTN":13925,"udbal":13926,"0388":13927,"inson":13928,"20146":13929,"bell":13930,"eme":13931,"ples":13932,"pad":13933,"Ġ1563":13934,"ocus":13935,"ĠHerald":13936,"ĠCisco":13937,"ĠPov":13938,"ĠEvolution":13939,"!..{":13940,"xe":13941,"Ġ1548":13942,"Ġ3100":13943,"urm":13944,"hrist":13945,"alism":13946,"ĠBrother":13947,"reditation":13948,"deljenja":13949,"Pod":13950,"ĠWalk":13951,"ĠEffe":13952,"ĠUse":13953,"ege":13954,"201367":13955,"atorship":13956,"Ġmethod":13957,"ĠLaboratory":13958,"!?!\\":13959,"Ġ(?":13960,"Ġ1279":13961,"Ġ1668":13962,"Ġsik":13963,"ĠKill":13964,"Ġprevod":13965,"ĠLGBT":13966,"lament":13967,"CM":13968,"KR":13969,"Ġ1627":13970,"0780":13971,"ior":13972,"Ġlove":13973,"ĠSpirit":13974,"entium":13975,"ĠMichel":13976,"ĠNaval":13977,"jic":13978,"oda":13979,"iche":13980,"omson":13981,"Ġdani":13982,"ovanovic":13983,"USAID":13984,"UE":13985,"Ġ957":13986,"arus":13987,"bourg":13988,"ĠItaly":13989,"pres":13990,"ĠMoth":13991,"ĠDok":13992,"2629":13993,"Ġhy":13994,"boy":13995,"04335":13996,"bach":13997,"0428146":13998,"1783":13999,"ĠFINA":14000,">>>>":14001,"Ġ______________":14002,"-{":14003,"ĠBody":14004,"ĠHIPAA":14005,"ilis":14006,"1400":14007,"bolje":14008,"ĠTam":14009,"ĠGIF":14010,"Ġ1369":14011,"David":14012,"nde":14013,"tili":14014,"1185":14015,"Ġwords":14016,"urea":14017,"Ġrif":14018,"ĠStankovi":14019,"++,":14020,"oba":14021,"04410":14022,"ĠRAD":14023,"iler":14024,"Ġcase":14025,"Ġbra":14026,"Ġ1214":14027,"ĠJelena":14028,"Ġ1581":14029,"ĠAdvent":14030,"Ġtrebalo":14031,"!'\\":14032,"3035":14033,"Ġ1647":14034,"ĠGoran":14035,"ikli":14036,"20131942":14037,"ĠTomatoes":14038,"Paul":14039,"!.\"}":14040,"aV":14041,"Ġ1035":14042,"etry":14043,"Ġppm":14044,"Ġuni":14045,"tero":14046,"Ġ2622":14047,"ĠXXIX":14048,"owo":14049,"ĠIvana":14050,"narod":14051,"Ġ18001":14052,"Ġ974":14053,"Ġaccount":14054,"=,":14055,"0121":14056,"0578":14057,"ĠActive":14058,"Mob":14059,"eit":14060,"043516":14061,"Ġ898":14062,"enska":14063,"orem":14064,"tian":14065,"Ġbeh":14066,"Credit":14067,"0428150":14068,"Ġ1263":14069,"imals":14070,"Ġ{:":14071,"Ġ1089":14072,"ority":14073,"Ġ1617":14074,"Ġobe":14075,"ĠBes":14076,"ĠFight":14077,"ĠOrb":14078,"ĠProp":14079,"uclear":14080,"ĠDeutschland":14081,"ĠFilioque":14082,"color":14083,"ocolate":14084,"ĠCMS":14085,"enth":14086,"otreb":14087,"ĠVIAF":14088,"nLa":14089,"Ġ1673":14090,"ising":14091,"ĠBridge":14092,"ynch":14093,"ĠSims":14094,"Data":14095,"dru":14096,"\\\");":14097,"Ġpul":14098,"uddf":14099,"Ġhon":14100,"onav":14101,"sport":14102,"ĠSerbica":14103,"Ġekolo":14104,"tory":14105,"ĠMundi":14106,"Ġfakulte":14107,"Vol":14108,"-\\\"":14109,"Ġ1639":14110,"Ġserv":14111,"Ġsever":14112,"Ġciv":14113,"chester":14114,"Ġanaliza":14115,"dEVNOST":14116,"Ġsnezana":14117,"ĠHospital":14118,"Ġdiscount":14119,"ĠPengu":14120,"Reg":14121,"04258":14122,"ĠTS":14123,"Ġguns":14124,"}}</":14125,"iciency":14126,"ĠMagic":14127,"ATIONAL":14128,"xi":14129,"04425":14130,"enom":14131,"ĠSEC":14132,"ĠML":14133,"ĠBR":14134,"atson":14135,"umi":14136,"201374":14137,"ĠImperial":14138,"pop":14139,"ĠHop":14140,"othe":14141,"apis":14142,"ĠStream":14143,"ĠViews":14144,"ĠBEOGRADA":14145,"04234":14146,"Ġ938":14147,"icevic":14148,"ĠOther":14149,"20132006":14150,"nTe":14151,"Ġ1323":14152,"show":14153,"201377":14154,"Ġsti":14155,"ĠBeta":14156,"ĠVene":14157,"Ġnes":14158,"ĠCOM":14159,"Ġ1364":14160,"................................................":14161,"ĠUltra":14162,"ĠRotten":14163,"jar":14164,"Ġ1167":14165,"Ġ1659":14166,"ĠAdam":14167,"andom":14168,"Ġhum":14169,"ĠPharm":14170,"20142001":14171,"ĠRadovi":14172,"Ġpotreb":14173,"NIKA":14174,"iat":14175,"201391":14176,"Ġ1637":14177,"ĠLan":14178,"vodine":14179,"STER":14180,"Ġ1352":14181,"Ġ1417":14182,"OLD":14183,"point":14184,"ĠStudent":14185,"takte":14186,"sterreich":14187,"dIV":14188,"Ġ981":14189,"Ġ1562":14190,"ĠAndrew":14191,"nin":14192,"scape":14193,"04419":14194,"041012":14195,"Ġ1556":14196,"Ġci":14197,"Ġ1272":14198,"ĠMid":14199,"ĠKas":14200,"atment":14201,"viz":14202,")\\\".\\":14203,"fE":14204,"Ġ967":14205,"Ġ1663":14206,".......\\":14207,"ĠJung":14208,"veza":14209,"Ġdalje":14210,"Ġpril":14211,"ĠJotForm":14212,"52621":14213,"dini":14214,"Ġ1097":14215,"Ġoffer":14216,"ĠOLDAL":14217,"!--":14218,"Bi":14219,"04149":14220,"1020":14221,"ĠKel":14222,"Ġ005":14223,"ĠAustralian":14224,"ĠBollywood":14225,"ĠEugen":14226,"eMore":14227,"gel":14228,"Ġexcellence":14229,"kovac":14230,"ĠDebian":14231,"Pr":14232,"goo":14233,"0428144":14234,"terior":14235,"Ġ________________________________________________________________":14236,"Ġcountry":14237,"ĠReligion":14238,"EAR":14239,"orski":14240,"ĠSele":14241,"ĠNin":14242,"eWorld":14243,"nNumbers":14244,"Ġroad":14245,"ĠRetrieved":14246,"Ġmut":14247,"aznaj":14248,"ĠProper":14249,"?--":14250,"Mel":14251,"_%":14252,"___\\":14253,"Ġ*/\\":14254,"IND":14255,"Ġ1043":14256,"lins":14257,"!;":14258,"zia":14259,"2225":14260,"tesa":14261,"ĠINSEE":14262,"sanu":14263,"ĠRing":14264,"unity":14265,"Ġbiste":14266,"Ġgive":14267,"rane":14268,"Ġtech":14269,"042130":14270,"Ġevrop":14271,"ĠWikimedia":14272,"1050":14273,"ĠWel":14274,"ĠBok":14275,"peten":14276,"00000000":14277,"photo":14278,"isse":14279,"ademija":14280,"+/":14281,"zip":14282,"0636":14283,"ĠBS":14284,"Ġmaster":14285,"osta":14286,"ĠHockey":14287,"Ġ3281":14288,"ĠThink":14289,"ĠJoint":14290,"anner":14291,"ĠChampionship":14292,"MG":14293,"Ġ1125":14294,"dalo":14295,"Ġrac":14296,"egen":14297,"Air":14298,"gest":14299,"0428148":14300,"ĠPOST":14301,"ĠLatvie":14302,"Ġke":14303,"ĠHad":14304,"hotmail":14305,"Ġpove":14306,"nNovember":14307,"Full":14308,"Mod":14309,"hor":14310,"Ġ1078":14311,"Ġ1225":14312,"Ġ1296":14313,"ĠPear":14314,"20132007":14315,"obs":14316,"ĠTeX":14317,"ĠKommOn":14318,"Ġdictatorship":14319,"ĠIbid":14320,"ĠCities":14321,"1750":14322,"dot":14323,"Ġtable":14324,"Ġanonymous":14325,"Ġnajni":14326,"ĠDemocracy":14327,"Ġ1544":14328,"ĠCi":14329,"ĠGrav":14330,"ĠOh":14331,"Ġbok":14332,"Ġ!?":14333,"Ġpret":14334,"ĠEuropass":14335,"urance":14336,"Ġdays":14337,"201372":14338,"Ġdruge":14339,"grame":14340,"mmunition":14341,"icije":14342,"ĠTs":14343,"ĠBAN":14344,"ljenje":14345,"szt":14346,"ĠPin":14347,"ĠRoc":14348,"ĠZn":14349,"Ġpoezija":14350,"1453":14351,"ĠFantastic":14352,"untains":14353,"ĠNicholas":14354,"HCR":14355,"ech":14356,"pati":14357,"0630":14358,"Euro":14359,"PD":14360,"Ġ3400":14361,"Ġ1624":14362,"ĠGay":14363,"Ġskup":14364,"20131999":14365,"ĠTransfer":14366,"fz":14367,"041456":14368,"Ġgro":14369,"szl":14370,"043530":14371,"{/":14372,"dela":14373,"Ġkraj":14374,"Ġ00075":14375,"ĠPrize":14376,"ĠBulgaria":14377,"kc":14378,"Ġ):":14379,"Ġ___":14380,"Ġ1087":14381,"Ġ1156":14382,"edno":14383,"cational":14384,"ethe":14385,"Ġcyr":14386,")&":14387,"WX":14388,"ĠServ":14389,"ieu":14390,"ljiv":14391,"ĠFlor":14392,"ĠInstalacija":14393,"ĠBlues":14394,"Ġzajedn":14395,"fik":14396,"year":14397,"Ġ1258":14398,"ĠMT":14399,"riter":14400,"Ġ[/":14401,"Ġ1197":14402,"1010":14403,"eun":14404,"ĠNC":14405,"041412":14406,"Phil":14407,"1018":14408,"Bro":14409,"moj":14410,"ĠStein":14411,"nRegional":14412,"Kontakte":14413,"hrvat":14414,"rm":14415,"tab":14416,"ĠSof":14417,"ĠCI":14418,"Ġ1007":14419,"1740":14420,"ĠKids":14421,"ĠEmil":14422,"ijent":14423,"erior":14424,"dentity":14425,"ĠEconomics":14426,"inov":14427,"eCo":14428,"?.\"}":14429,"ĠVKontakte":14430,"foe":14431,"ĠRoberts":14432,"Ġzloupotrebe":14433,"04437":14434,"Ġrefer":14435,"Ġreport":14436,"ARM":14437,"Ġcompany":14438,"ĠChristopher":14439,"Ġrije":14440,"/#":14441,"FR":14442,"04581":14443,"Ġ1474":14444,"ĠNS":14445,"2600":14446,"ĠHem":14447,"Ġgoogle":14448,"force":14449,"ĠShort":14450,"201376":14451,"ĠNema":14452,"ĠMarket":14453,"Ġsecond":14454,",[":14455,"Ġ1657":14456,"ĠFR":14457,"ĠUrednik":14458,"Ġimaju":14459,"Del":14460,"PCR":14461,"1186":14462,"1012":14463,"Ġsame":14464,"ĠMetal":14465,"ĠGrube":14466,"3033":14467,"Imp":14468,"Ġ993":14469,"ĠWer":14470,"rema":14471,"ĠEg":14472,"Ġage":14473,"Ġgren":14474,"akov":14475,"video":14476,"201385":14477,"Ġcontra":14478,"Mill":14479,"201396":14480,"Ġ991":14481,"Ġammunition":14482,"acking":14483,"Ġindividual":14484,"wt":14485,"0725":14486,"istoire":14487,"Sm":14488,"043818":14489,"043817":14490,"Ġ994":14491,"ĠMoj":14492,"ĠPow":14493,"1711":14494,"Ġspomen":14495,"kus":14496,"Ġ1674":14497,"1768":14498,"ĠRV":14499,"Ġ1218":14500,"ĠGolden":14501,"dataka":14502,"04347":14503,"ĠAca":14504,"ĠXXVIII":14505,"Ġreci":14506,"Ġpreko":14507,"ĠHrvatska":14508,"Ġgreat":14509,"ĠBlood":14510,"otreba":14511,"zp":14512,"Ġ1075":14513,"cole":14514,"043310":14515,"ĠCass":14516,"Ġ:\"}":14517,"oslov":14518,"eLe":14519,"ĠGeographic":14520,"0231":14521,"ĠSusan":14522,"ĠPy":14523,"Ġpomo":14524,"reat":14525,"))))":14526,"3500":14527,"ĠPu":14528,"iteta":14529,"izu":14530,"ĠCentar":14531,"Ġcould":14532,"22222222":14533,"ĠMOR":14534,"ĠKral":14535,"ĠLord":14536,"ĠFinal":14537,"Ġofer":14538,"TINE":14539,"xit":14540,"0123":14541,"ĠMake":14542,"program":14543,"ĠChristmas":14544,"Ġincluding":14545,"nRegionalni":14546,"Jos":14547,"Ġ982":14548,"Ġclos":14549,"Ġfestival":14550,"ERA":14551,"Ġbeograd":14552,"ĠColl":14553,"));":14554,"how":14555,"jel":14556,"201410":14557,"ĠSpiegel":14558,"Ġpolitizacije":14559,"Ġdrustvo":14560,"ultati":14561,"Zr":14562,"kv":14563,"Ġ033":14564,"ĠESP":14565,"ĠGRO":14566,"laus":14567,"ĠWiley":14568,"icer":14569,"Ġpute":14570,"Ġ40000":14571,"ĠVivaldi":14572,"quer":14573,"Ġ/*":14574,"optera":14575,"Ġrounds":14576,"askola":14577,"May":14578,"Ġ1013":14579,"Ġsati":14580,"Ġpara":14581,"ĠFab":14582,"ĠRoutledge":14583,"%!":14584,"?--\\":14585,"04455":14586,"...''\\":14587,"Ġhr":14588,"Ġ1319":14589,"Ġextra":14590,"uzzle":14591,"VL":14592,"Ġ__\\":14593,"ĠkPa":14594,"ĠNev":14595,"20132004":14596,"20131919":14597,"ĠTools":14598,"ething":14599,"ĠBillboard":14600,"][":14601,"Ġ1591":14602,"1261":14603,"aller":14604,"folyam":14605,"(?)":14606,"Bos":14607,"FE":14608,"Ġinteres":14609,"Ġrifles":14610,"IJI":14611,"ento":14612,"ĠAssass":14613,"Ġzavod":14614,"ikipediji":14615,"ĠBROJ":14616,"cto":14617,"pf":14618,"0223":14619,"Ġ1091":14620,"rasil":14621,"zon":14622,"ĠMes":14623,"eci":14624,"ceedings":14625,"Ġ1093":14626,"omer":14627,"ĠRou":14628,"olia":14629,"rift":14630,"ĠYu":14631,"eko":14632,"ĠASP":14633,"terdam":14634,"Ġfem":14635,"Ġneke":14636,"OTO":14637,"ĠAntonio":14638,"Ko":14639,"ĠSign":14640,"0625":14641,"Ġ1206":14642,"Ġona":14643,"acks":14644,"ĠStaff":14645,"Ġroth":14646,"================":14647,"Ġpartisans":14648,":,,\\":14649,"Iz":14650,"ĠAh":14651,"ĠBundes":14652,"ĠFron":14653,"Ġ1267":14654,"...''":14655,"Ġ1009":14656,"edes":14657,"Ġprvi":14658,"ĠSofaScore":14659,"ĠCampaign":14660,"ĠCustomerSelf":14661,"ĠCustomerSelfService":14662,"Vid":14663,"cn":14664,"ln":14665,"ĠARC":14666,"Ġsay":14667,"unar":14668,"201384":14669,"zavis":14670,"SZ":14671,"Ġ072":14672,"Ġ1406":14673,"201361":14674,"Ġworking":14675,"ĠPsychology":14676,"Ġgrenades":14677,"ott":14678,"ĠCBS":14679,"ĠPad":14680,"ĠChronic":14681,"Ġcatal":14682,"othing":14683,"Ġ1162":14684,"Ġmuch":14685,"rst":14686,"Ġ32000":14687,"Ġ\\\"\"}":14688,"ALK":14689,"END":14690,"ĠMoscow":14691,"43035":14692,"Ġorg":14693,"Ġsom":14694,"AMA":14695,"aleks":14696,"201388":14697,"Ġkonkurs":14698,"ĠMarketing":14699,"Ġautomatics":14700,"Ġcyrilic":14701,"*..":14702,"Ġ1028":14703,"ĠSeas":14704,"real":14705,"Ġ=\\\"":14706,"Ind":14707,"ĠInsallation":14708,"ĠSunday":14709,"ĠPozdrav":14710,"coccus":14711,"CZ":14712,"Rq":14713,"set":14714,"tici":14715,"oliti":14716,"Ġdv":14717,"\\\\\\\"":14718,"ACH":14719,"1217":14720,"ĠPlant":14721,"043035":14722,"End":14723,"Jul":14724,"Leg":14725,"europa":14726,"0428147":14727,"Ġsen":14728,"1520":14729,"Ġfur":14730,"ECO":14731,"cedes":14732,"patri":14733,"Ġ979":14734,"Ġ1271":14735,"Ġfej":14736,"Ġprograma":14737,"ACT":14738,"ĠMilano":14739,"ĠWilhelm":14740,"0084":14741,"Ġ1424":14742,"201382":14743,"ĠStudios":14744,"ĠBrothers":14745,"4137":14746,"2100":14747,"ĠInnovation":14748,"Ġsui":14749,"ancel":14750,"Ġmetod":14751,"Ġsvetu":14752,"nExodus":14753,"euprava":14754,"201399":14755,"Ġ1152":14756,"bow":14757,"IMP":14758,"ĠGavril":14759,"ĠTok":14760,"ĠBot":14761,"ĠNBC":14762,"Ġziv":14763,"201366":14764,"ĠAlliance":14765,"gaz":14766,"ĠTako":14767,"Ġtamo":14768,"Ġzato":14769,"ĠContent":14770,"ĠXLIV":14771,"Lib":14772,"ĠBL":14773,"Ġindex":14774,"ĠSteel":14775,"Ġvidim":14776,"ĠBWV":14777,"ROZAT":14778,"2202":14779,"Ġ1033":14780,"1792":14781,"ĠKR":14782,"Ġfire":14783,"1003":14784,"ĠDesigned":14785,"041110":14786,"042010":14787,"Ġ([[\\":14788,"Ġ1017":14789,"orija":14790,"ĠAmb":14791,"nati":14792,"ONT":14793,"icima":14794,"apple":14795,"bolj":14796,"Sa":14797,"gh":14798,"201440":14799,"ĠRaf":14800,"201368":14801,"ĠNatura":14802,"VP":14803,"search":14804,"arte":14805,"ĠNut":14806,"ools":14807,"ĠPalace":14808,"ĠDefence":14809,"Ġ16000":14810,"ĠPit":14811,"ĠLite":14812,"Ġvlas":14813,"Ġelement":14814,"citelj":14815,"ĠJoomla":14816,"Ġposle":14817,"Cr":14818,"kel":14819,"titi":14820,"ĠRAF":14821,"Ġbili":14822,"ĠPoly":14823,"ĠFrances":14824,"ecutive":14825,"1071":14826,"ĠFig":14827,"Ġwy":14828,"ĠOva":14829,"illus":14830,"Ġkomunikacija":14831,"ĠPlaza":14832,"Ul":14833,"jus":14834,"Ġ1073":14835,"2228":14836,"ĠJovana":14837,"tha":14838,"20131903":14839,"Ġthink":14840,"Ġvelik":14841,"ĠAmazon":14842,"1021":14843,"bt":14844,"font":14845,"Ġhel":14846,"04408":14847,"Ġ1055":14848,"Ġ1067":14849,"Ġ1507":14850,"ĠCav":14851,"rote":14852,"ipe":14853,"Ġ1243":14854,"eCon":14855,"document":14856,"small":14857,"...]":14858,"arevi":14859,"Ġodlu":14860,"ĠUNIV":14861,"ziej":14862,"ĠWilson":14863,":(\\":14864,"vfolyam":14865,"041011":14866,"Ġ1511":14867,"Ġ1662":14868,"Ġ1484":14869,"ĠPis":14870,"Ġever":14871,"nCh":14872,"201362":14873,"titution":14874,"onavirus":14875,"VER":14876,"042318":14877,"0428149":14878,"ĠMc":14879,"ustral":14880,"ĠDanas":14881,"Ġ1045":14882,"Ġ1031":14883,"deli":14884,"eech":14885,"Ġvic":14886,"2013128":14887,"stal":14888,"iten":14889,"ĠElectronic":14890,"iles":14891,"skol":14892,"stv":14893,"itive":14894,"0428142":14895,"deno":14896,"DD":14897,"043519":14898,"Ġ1464":14899,"ATOR":14900,"nder":14901,"Ġ____________________":14902,"vestig":14903,"!(\\":14904,"/)\\":14905,"topic":14906,"041359":14907,"\\\");\\":14908,"Ġ1098":14909,"ĠMini":14910,"active":14911,"ĠUm":14912,"alaxy":14913,"ĠMoney":14914,"BOR":14915,"04209":14916,"story":14917,"7100":14918,"nalex":14919,"201389":14920,"Ġporno":14921,"Radovan":14922,"ĠReference":14923,"Per":14924,"dio":14925,"Ġ-)":14926,"esse":14927,"Ġtour":14928,"20131915":14929,"ribu":14930,"ĠPresident":14931,"zrp":14932,"0254":14933,"ĠIo":14934,"ĠTEL":14935,"ladi":14936,"zet":14937,"ĠDI":14938,"Ġwant":14939,"Ġcip":14940,"rona":14941,"1346":14942,"ĠPhotoshop":14943,"=(\\":14944,"XC":14945,"043517":14946,"enj":14947,"1222":14948,"Ġ1401":14949,"ĠBiology":14950,"tigora":14951,"bio":14952,"ĠTable":14953,"ĠBus":14954,"illy":14955,"ĠHist":14956,"'':":14957,"phal":14958,"Ġ1143":14959,"...\\\".\\":14960,"xxxx":14961,"rowth":14962,"ĠTexas":14963,"[]\\":14964,"0428151":14965,"iser":14966,"ĠLAN":14967,"ĠGallery":14968,"ĠHER":14969,"Ġdim":14970,"ERBI":14971,"idea":14972,"ĠEuroguidance":14973,"mund":14974,"tova":14975,"Ġbog":14976,"Ġ...).":14977,"ebu":14978,"ĠComplete":14979,"avljevic":14980,"DM":14981,"ĠSpy":14982,"REAT":14983,"1316":14984,"ĠViktor":14985,"ĠSAM":14986,"Ġgas":14987,"ionica":14988,"erbal":14989,"Don":14990,"hosa":14991,"ktor":14992,"slav":14993,"201381":14994,"ĠMong":14995,"1772":14996,"ĠRose":14997,"Ġdest":14998,"ĠZav":14999,"Ġproducts":15000,"!?)":15001,"ĠBarb":15002,"ĠBIOS":15003,"DOS":15004,"Ka":15005,"Ġ849":15006,"ĠWhe":15007,"ĠLow":15008,"Ġqua":15009,"nCC":15010,"gesch":15011,"Ġslika":15012,"zrpf":15013,"CAD":15014,"week":15015,"Ġtes":15016,"Ġ947":15017,"Ġ1266":15018,"ĠGirls":15019,"Ġ0005":15020,"Ġ1163":15021,"ĠAy":15022,"Ġir":15023,"ulf":15024,"Ġstrad":15025,"20131947":15026,"Ġequipment":15027,"201394":15028,"orus":15029,"Ġslov":15030,"ĠRiv":15031,"Ġflag":15032,"Ġbank":15033,"izza":15034,"oloska":15035,"Getty":15036,"ĠAIDS":15037,"ĠPORT":15038,"ĠNas":15039,"ĠUr":15040,"ĠHango":15041,"Ġ1149":15042,"1221":15043,"Ġpad":15044,"ĠBull":15045,"ĠHugh":15046,"Ġ35000":15047,"obra":15048,"ĠPlat":15049,"ragan":15050,"1333":15051,"Ġslike":15052,"Power":15053,"cla":15054,"fas":15055,"0292":15056,").,":15057,"Ġ1171":15058,"1066":15059,"ĠLocal":15060,"ritish":15061,"Ġ1192":15062,"Ġpravo":15063,"Ġaktiv":15064,"Ġdemok":15065,"ĠRolling":15066,"++\\":15067,"Ġ964":15068,"docs":15069,"Ġspace":15070,"3037":15071,"Ġ);\\":15072,"Ġ1486":15073,"Ġinc":15074,"ranic":15075,"quid":15076,"dil":15077,"live":15078,"pancevo":15079,"2295":15080,"ĠLL":15081,"aeus":15082,"ello":15083,"War":15084,"wart":15085,"ondo":15086,"Ġeine":15087,"ĠMode":15088,"ĠCHF":15089,"worth":15090,"ĠLay":15091,"22124":15092,"201373":15093,"ĠNavy":15094,"CG":15095,"Ġther":15096,"ĠGol":15097,"ĠGas":15098,"Ġvil":15099,"opi":15100,"ĠArab":15101,"nTa":15102,"Ġ1367":15103,"ĠVirtual":15104,"Sloven":15105,"Ter":15106,"1220":15107,"ĠAj":15108,"Ġwhile":15109,"$.":15110,"04522":15111,"ĠRow":15112,"Ġdid":15113,"Ġteme":15114,"ĠAirways":15115,"amilton":15116,"/).":15117,"ĠPOS":15118,"Ġuvek":15119,"nike":15120,"cta":15121,"Ġ1140":15122,"alji":15123,"Ġself":15124,"ĠTat":15125,"ĠBug":15126,"edv":15127,"ĠDES":15128,"ĠLLC":15129,"caust":15130,"Ġbiz":15131,"tage":15132,"apy":15133,"ĠPrinciples":15134,"ĠIndustry":15135,"ĠRoger":15136,"Ġ1059":15137,"ĠMex":15138,"1228":15139,"20131974":15140,"YCH":15141,"Ġ???\\":15142,"Ġobjava":15143,"ĠHercegov":15144,"wards":15145,"ĠInvestment":15146,"91868":15147,"])\\":15148,"vik":15149,"utz":15150,"tott":15151,"ordon":15152,"ĠAds":15153,"Ġlearning":15154,",...)":15155,"ĠWide":15156,"acia":15157,"ĠTOP":15158,"ĠDynam":15159,"fcber":15160,"Ġals":15161,"ĠGraph":15162,"ĠSquare":15163,"3064":15164,"qq":15165,"...!\\":15166,"rea":15167,"Ġtor":15168,"ĠJam":15169,"arii":15170,"Ġplot":15171,"remlin":15172,"fk":15173,"icka":15174,"ĠGOD":15175,"041444":15176,"Ġratu":15177,"Ġdjord":15178,"Ġ.,":15179,"Ġ1224":15180,"ĠMundus":15181,"ĠWoS":15182,"Ġ:-":15183,"Ġ.....\\":15184,"ozilla":15185,"Ġ1362":15186,"ĠRecord":15187,"Filip":15188,"ĠCounty":15189,"embly":15190,"inen":15191,"idem":15192,"ĠExpert":15193,"King":15194,"Tor":15195,"Ġ1094":15196,"ĠAU":15197,"ĠFu":15198,"Ġcost":15199,"Ġzdravstvo":15200,"`)\\":15201,"xis":15202,"Ġ984":15203,"Ġ1265":15204,"enih":15205,"alle":15206,"ĠFern":15207,"ĠStr":15208,"ĠPhysical":15209,"Ġ053":15210,"Ġfam":15211,"acki":15212,"Ġ1210":15213,"Ġprincip":15214,"OE":15215,"wi":15216,"ĠMALI":15217,"......\"}":15218,"0982":15219,"efore":15220,"Ġ1213":15221,"043419":15222,"Ġoch":15223,"unctional":15224,"ĠTechnical":15225,"ĠNikolic":15226,"Talk":15227,"Ġ1262":15228,"ĠTito":15229,"ĠBod":15230,"Ġtnv":15231,"jak":15232,"ciju":15233,"201379":15234,"1402":15235,"ĠInitiative":15236,"201392":15237,"201397":15238,"Ġ1110":15239,"Ġ1633":15240,"1819":15241,"Ġkamp":15242,"Ġ3800":15243,"Ġsrbije":15244,"ĠArsen":15245,"enko":15246,"Ġmeni":15247,"ĠNy":15248,"exe":15249,"izma":15250,"ĠCha":15251,"ruction":15252,"iversity":15253,"ojevic":15254,"Ġdijale":15255,"Ġ1599":15256,"1557":15257,"ĠBing":15258,"ilt":15259,"Ġ00065":15260,"20132003":15261,"ĠRepublika":15262,"Ya":15263,"ĠRI":15264,"Ġvideli":15265,"ĠLewis":15266,"enburg":15267,"ardo":15268,"roy":15269,"0209":15270,"ĠBoeing":15271,"ĠIPCC":15272,"ĠMihaj":15273,"ĠSCIENCE":15274,"Dan":15275,"wen":15276,"00036":15277,"ĠIgor":15278,"ĠKra":15279,"rion":15280,"eft":15281,"Ġ......\\":15282,"20142000":15283,"Ġacadem":15284,"ĠXXXII":15285,"Ġpolitical":15286,"Ġcharacter":15287,"GR":15288,"cum":15289,"201393":15290,"ĠUTF":15291,"Ġ1383":15292,"venaz":15293,"ĠMeteor":15294,"jeno":15295,"czeg":15296,"SKI":15297,"Ġ...............":15298,"EmailFacebook":15299,"PrintEmailFacebook":15300,"Ġ1153":15301,"Ġjure":15302,"ĠAni":15303,"Ġpati":15304,"Ġbot":15305,"esty":15306,"IDE":15307,"ĠArea":15308,"Ġfrancuski":15309,"Item":15310,"Ġ1041":15311,"ĠACE":15312,"1793":15313,"uther":15314,"ayPal":15315,"itiv":15316,"ĠBeast":15317,"ĠUNICEF":15318,"Ġjedin":15319,"unker":15320,"ĠPrint":15321,"Cola":15322,"tite":15323,"ĠAu":15324,"ĠKur":15325,"rok":15326,"Ġhist":15327,"Ġevery":15328,"Ġbefore":15329,"ĠXXXVI":15330,")+":15331,"1011":15332,"Black":15333,"Oct":15334,"Ġ1636":15335,"ĠWIZZ":15336,"Ġlocal":15337,"20132002":15338,"Ġpodataka":15339,"olocaust":15340,"?'\\":15341,"044110":15342,"0428158":15343,"Ġson":15344,"ĠJustice":15345,"Ġizmen":15346,"ĠInsider":15347,"%);\\":15348,"cad":15349,"dt":15350,"Ġ1037":15351,"Ġsw":15352,"Ġ2900":15353,"ĠWarner":15354,"LOV":15355,"Ġnakon":15356,"ĠJS":15357,"Ġzb":15358,"eWhat":15359,"(-":15360,";)":15361,"ĠPlease":15362,"ĠEll":15363,"ovni":15364,"iven":15365,"iportal":15366,"Ġposlovi":15367,"ĠRevised":15368,"standing":15369,"pat":15370,"ĠDW":15371,"lez":15372,"ĠInf":15373,"aku":15374,"Ġstrate":15375,"Ġnaziv":15376,"20131940":15377,"ĠOpenOffice":15378,"Ġuser":15379,"SMART":15380,"ĠRFID":15381,"!?\"}":15382,"Cal":15383,"Ja":15384,"xml":15385,"1234":15386,"uses":15387,"renjanin":15388,"Category":15389,"1150":15390,"ĠLang":15391,"ĠLingu":15392,"Ġ00078":15393,"ĠPoliti":15394,"Ġfilozofija":15395,"Ġmoderniz":15396,"Ġ1676":15397,"nPost":15398,"ĠXXXIX":15399,"frast":15400,"ĠDragon":15401,"Ġprijatelj":15402,"biblioteka":15403,"ede":15404,"1097":15405,"ĠDig":15406,"Ġneka":15407,"1029":15408,"ĠXLI":15409,"ĠPremium":15410,"Ġpodr":15411,"Ġsvoju":15412,"ĠOTW":15413,"rf":15414,"ĠBibli":15415,"Ġbody":15416,"ĠArchite":15417,"public":15418,"Ġsor":15419,"reative":15420,"ĠTet":15421,"rif":15422,"fektiv":15423,"idel":15424,"201387":15425,"polis":15426,"~~~~":15427,"Da":15428,"novi":15429,"1037":15430,"ĠPIC":15431,"Ġqq":15432,"CTS":15433,"sok":15434,"Ġ2048":15435,"Ġ1034":15436,"ados":15437,"ternal":15438,"node":15439,"hern":15440,"Ġsrpsk":15441,"ĠDanube":15442,"umenta":15443,"AKTI":15444,"Ġblok":15445,"Michael":15446,"home":15447,"liv":15448,"jekt":15449,"ĠGE":15450,"ulo":15451,"Ġenter":15452,"ĠResolution":15453,"1456":15454,"ĠPublications":15455,"ĠLiteral":15456,"Ġ!!!!":15457,"043816":15458,"ĠImm":15459,"201999":15460,"ĠMQ":15461,"tella":15462,"hil":15463,"044053":15464,"arma":15465,"ĠCENT":15466,"ĠATP":15467,"..........":15468,"ĠThings":15469,"liament":15470,"Home":15471,"fpe":15472,"gre":15473,"jy":15474,"mut":15475,"Ġ2029":15476,"Ġ1681":15477,"1073":15478,"ĠMunicip":15479,"abac":15480,"iper":15481,"nof":15482,"sevier":15483,"Ġgramatika":15484,"mission":15485,"0428152":15486,".../\\":15487,"acle":15488,"ĠDiet":15489,"etball":15490,"Ġobi":15491,"Ġupotreba":15492,"ĠMethod":15493,"ĠLabs":15494,"ĠRenault":15495,"+\\\"":15496,"kid":15497,"042511":15498,"Ġ1076":15499,"Ġenciklop":15500,"APTR":15501,"Reina":15502,"Darby":15503,"esia":15504,"ĠCRC":15505,"ĠTitle":15506,"Ġ\",,\\":15507,"irano":15508,"Ġ1449":15509,"Ġposeb":15510,"Valera":15511,"Gal":15512,"Sim":15513,"West":15514,"ĠOkt":15515,"Ġdra":15516,"Ġbecause":15517,"zim":15518,"Ġ1057":15519,"Ġmorn":15520,"Il":15521,"water":15522,"Ġ1038":15523,"Ġ1222":15524,"Ġ1275":15525,"ĠBla":15526,"Ġkan":15527,"ancelar":15528,"ĠElectronics":15529,"jene":15530,"0428154":15531,"Ġ1247":15532,"ĠCB":15533,"ijer":15534,"ervus":15535,"Ġsecret":15536,"ĠAleksandra":15537,"Ġ059":15538,"deks":15539,"Ġsre":15540,"ĠBlogger":15541,"hon":15542,"komm":15543,"0307":15544,"Ġ1295":15545,"Ġwindows":15546,"Ġnom":15547,"thod":15548,"urovi":15549,"ĠShift":15550,"RIA":15551,"Peter":15552,"ĠCru":15553,"0582":15554,"ĠBlan":15555,"Ġmachine":15556,"ĠKat":15557,"ĠEco":15558,"2756":15559,"ardziej":15560,"ĠDalibor":15561,"ĠCompetition":15562,"043520":15563,"engl":15564,"ĠKl":15565,"ĠLac":15566,"Ġwireless":15567,"Ġucitelj":15568,"emy":15569,"Ġzab":15570,"APTRICK":15571,"Nik":15572,"Ġ(...),":15573,"ĠIran":15574,"ĠNag":15575,"ĠAlan":15576,"azivanje":15577,"ndrome":15578,"ĠSalute":15579,"=/\\":15580,"dac":15581,"cator":15582,"Ġeuro":15583,"Ġ1374":15584,"Ġszczeg":15585,"Ġmetodo":15586,"WB":15587,"cont":15588,"non":15589,"Ġ1164":15590,"1794":15591,"ĠVeter":15592,"Ġrun":15593,"undament":15594,"venazvezda":15595,"erve":15596,"eny":15597,"ĠSide":15598,"ĠBrazil":15599,"ĠGate":15600,"ĠIntesa":15601,"201383":15602,"adel":15603,"Ġopp":15604,"1648":15605,"term":15606,"emon":15607,"uevo":15608,"Ġdell":15609,"Ġdiskurs":15610,"RqN":15611,"Er":15612,"ĠMam":15613,"ĠMission":15614,"ĠCuri":15615,"ĠTanjug":15616,"ĠHat":15617,"skie":15618,"tican":15619,"RAS":15620,"ĠRespons":15621,"1202":15622,"dfe":15623,"digital":15624,"asta":15625,"lek":15626,"lier":15627,"issance":15628,"ĠCompan":15629,"ĠTerra":15630,"ĠBuilding":15631,".]]>\\":15632,"0428153":15633,"Ġjugo":15634,"ĠBros":15635,"ĠNAD":15636,"Ġnicht":15637,"Ġbomb":15638,"Ġlang":15639,"ĠInt":15640,"Ġ..\"}":15641,"ronika":15642,"Ġistorijska":15643,"ĠConsulting":15644,",*":15645,"Ġ1338":15646,"1241":15647,"ĠTransport":15648,"20141990":15649,"ankovic":15650,"Ġphot":15651,"Ġrecogni":15652,"1056":15653,"oting":15654,"ustin":15655,"IMA":15656,"Ġnovosti":15657,"MareBG":15658,"ĠSher":15659,"tification":15660,"Ġsna":15661,"Ġcross":15662,"?..\\":15663,"ĠZD":15664,"3055":15665,"zabeth":15666,"Ġcrimen":15667,"ĠIdenti":15668,"eine":15669,"pass":15670,"acum":15671,"''),":15672,"Ġcovid":15673,"ĠJed":15674,"urovic":15675,"20141929":15676,"ĠCaes":15677,"ĠSunPorno":15678,"Ġgratisindo":15679,"cur":15680,"ĠIDE":15681,"ĠBart":15682,"lija":15683,"ĠPrograme":15684,"voda":15685,"anima":15686,"ĠBroj":15687,"wikimedia":15688,"ĠCinema":15689,"neg":15690,"042510":15691,"orije":15692,"leas":15693,"Ġboris":15694,"lide":15695,"Ġplace":15696,"Ġrespons":15697,"ĠByzantine":15698,"Cy":15699,"gers":15700,"Ġori":15701,"ĠBoris":15702,"Ġavi":15703,"atena":15704,"oza":15705,"AGE":15706,"ĠDomain":15707,"ĠSOCI":15708,"ĠMotherson":15709,"(=":15710,"ĠBou":15711,"ĠKunst":15712,"ceo":15713,"ĠViv":15714,
[...]
