#version: 0.2
3 8
4 38
0 438
3 5
4 35
0 435
4 1
4 5
4 2
4 0
4 40
0 440
0 45
4 41
0 441
4 42
0 442
3 2
4 32
0 432
3 4
4 34
0 434
045 8
0 41
4 4
0 44
044 3
3 7
4 37
0 437
3 3
4 33
0 433
3 1
4 31
0 431
0 42
044 6
044 7
044 8
4 45
0 445
3 6
4 36
0 436
045 9
2 0
042 1
20 1
. \
044 4
041 0
045 2
041 8
041 4
041 1
042 0
042 2
042 3
041 2
0 40
Ġ (
. .
Ġ 1
041 5
0 2
Ġ( \
040 8
041 3
041 7
0 0
- \
042 6
042 5
02 6
201 3
" \
042 4
Ġ 2
Ġ -
042 8
Ġ1 9
Ġ 20
Ġ 201
t e
02 5
) ,
042 7
" :
x t
te xt
" }
{ "
č Ċ
Ġ "\
0 1
\ "
0 3
\ "\
Ġ 3
Ġ 5
Ġ \"\
. "}
20 2
041 6
) ..
Ġ 6
, \
: \
) \
Ġ 4
202 6
Ġ20 0
040 2
Ġ 7
Ġ1 8
) .
/ \
040 9
1 9
? \
Ġ 8
Ġ1 0
; \
026 2
Ġ 9
Ġ1 5
a d
! \
Ġ19 9
.. .\
00 0
026 8
a n
2 1
01 0
Ġ 0
i n
Ġ1 2
201 4
[ \
Ġ I
Ġ1 1
) .\
o n
o r
201 9
Ġ ,
e r
] \
Ġ1 7
. ,
\" ,
Ġ1 6
e n
1 0
.. .
026 7
Ġ j
6 3
Ġ S
Ġ3 0
a r
t i
Ġ1 4
1 1
b b
d a
Ġ2 5
Ġ1 3
Ġ o
Ġ /
a l
Ġ M
1 2
02 8
e s
00 03
Ġ C
1 8
010 9
Ġ201 8
Ġ201 7
Ġ201 6
_ _
' \
Ġ A
Ġ |
Ġ20 21
Ġ201 4
Ġ201 5
0 6
Ġ19 8
i s
i c
o m
Ġ20 20
d e
0 5
Ġ201 9
Ġ2 1
Ġ P
3 9
Ġ 2013
01 63
2 2
Ġ s
Ġ p
.. ..
a b
1 5
Ġ X
Ġ2 4
Ġ 40
026 4
Ġ W
( \
Ġ201 2
a c
r e
201 8
Ġ T
Ġ2 2
Ġ1 00
Ġ19 7
Ġ B
Ġ5 0
202 2
2 5
I I
u d
1 6
Ġ201 1
b a
1 7
1 4
e d
02 7
Ġ R
Ġ2 7
026 6
i l
Ġ m
d o
w w
Ġ2 8
Ġ t
Ġ2 6
u s
j e
h e
026 9
o l
Ġ2 3
0 9
Ġ [\
028 1
u f
Ġ :
Ġ K
Ġ .
026 5
a o
Ġ201 0
a s
Ġ D
Ġ E
l e
? .\
Ġj e
c e
Ġ19 6
r o
\" .\
Ġ2 9
Ġ a
1 3
5 0
r a
i t
Ġ L
Ġ F
Ġ V
2 7
Ġ w
Ġ200 8
o v
Ġ G
c a
Ġ 31
Ġ k
- -
j a
Ġ N
o s
Ġ200 9
b e
0 7
6 1
a a
Ġ n
0 8
e t
a t
Ġ O
__ __
Ġ =
a e
4 8
) ;
4 39
Ġ19 5
0 439
2 6
Ġ6 0
Ġ200 7
i a
Ġ &
Ġ H
Ġ ...\
' '
f o
e j
: .\
Ġ 35
Ġ -\
2 9
2 8
. )
2 4
r i
026 1
o g
Ġ c
Ġ ^
ti on
4 6
Ġ200 6
e w
4 9
2 19
' '\
u n
r s
2 3
Ġ J
e l
: /
Ġ200 4
an d
\" .
Ġ20 00
m a
Ġ [
in g
Ġ200 5
i k
e e
19 9
Ġ 45
4 7
te r
c h
Ġ .\
ĠI I
Ġ f
Ġ 32
Ġ, ,\
Ġo f
Ġ199 9
ww w
Ġ +
Ġ20 03
Ġ i
Ġ7 0
a m
Ġ h
u t
Ġ8 0
201 5
) :
Ġ 36
6 0
Ġ b
Ġ20 02
Ġ ...
7 8
Ġ v
u r
Ġ 01
a v
Ġ in
Ġ ''\
6 5
Ġ d
Ġ '\
201 31
Ġ9 0
Ġ \"
Ġ19 41
en t
b o
Ġ20 01
u l
:/ /
Ġ *
.... ....
u m
Ġ "
Ġ U
c om
8 0
Ġ5 00
01 61
Ġ Y
f e
8 35
o p
Ġ e
Ġ3 00
9 2
202 1
Ġ 37
20 0
f f
Ġt he
_ \
7 0
219 1
201 6
Ġ 38
Ġ 33
9 5
7 5
Ġ20 22
Ġ199 1
ud c
c o
% ,
7 6
b y
9 9
t t
s k
e c
i m
Ġ l
Ġ 42
9 0
201 2
Ġ15 0
5 5
b c
201 7
027 0
s t
b d
! .\
Ġ199 2
n a
Ġ and
6 7
Ġ 34
i v
o d
027 1
20 20
? .
6 4
Ġ4 8
Ġ 41
5 3
Ġ y
i g
e b
5 1
6 6
or e
t a
) ;\
Ġ g
9 8
Ġ199 8
Ġ u
) "}
Ġ199 5
028 3
2 21
e a
7 7
02 4
Ġ199 0
o k
i r
% )
____ ____
8 8
5 2
a g
. ),
tt p
8 3
8 6
: .
Ġ 000
o t
a y
. )\
5 6
i d
in e
ĠI II
027 2
010 7
Ġ %
5 7
c i
Ġ199 6
ĠI n
5 9
b f
Ġ40 0
Ġ3 9
045 6
Ġ1 20
f c
e m
f a
Ġ /\
Ġ x
II I
5 00
C E
! !
Ġ- -
201 0
7 2
u e
Ġ199 7
Ġ 44
8 5
Ġ7 5
o j
Ġ z
c c
a k
ĠX X
Ġ de
7 9
u b
8 9
a j
01 7
Ġ5 5
er s
. .\
Ġ0 9
6 8
Ġ 02
e y
201 1
i te
Ġ6 5
7 4
is t
6 2
. {
l o
Ġ0 8
es s
201 41
i an
e p
7 1
5 8
-- --
a p
9 4
Ġ4 3
9 6
02 3
8 2
Ġ25 0
1 00
Ġ19 45
r an
Ġ 00
e x
8 7
8 4
5 4
Ġ199 4
n i
l i
v e
7 3
Ġ199 3
201 32
9 3
Ġ q
t h
ĠT he
S T
8 1
Ġ0 7
Ġ on
Ġ re
k a
ĠI S
Ġk m
6 9
Ġt o
! "}
es t
.. ."}
or g
V I
Ġ #
01 3
Ġ >
Ġ Q
Ġ0 5
Ġh ttp
ĠI V
a tion
v i
9 7
h p
9 1
Ġ19 44
Ġ )
Ġ0 6
Ġ4 6
Ġ 03
u p
Ġ* \
ma il
4 63
044 9
Ġ198 9
o w
20 09
Ġ ,\
Ġ www
Ġ {
e f
Ġ- --
Ġ0 4
0 463
Ġ6 00
i z
Ġ9 5
Ġ4 7
. :
uf ff
o b
ĠS t
028 4
Ġ19 18
ufff d
a f
o u
* \
026 0
e ad
Ġ18 0
.\ "
........ ........
i ja
Ġ7 2
i on
Ġ5 3
.\ "\
% ),
Ġ5 4
te d
Ġ6 4
Ġ5 1
), \
om m
Ġ r
Ġ Z
Ġ19 4
219 2
Ġ4 9
i p
Ġ1 40
e v
Ġ5 2
on d
Ġ19 42
Ġ8 00
Ġ da
= \
l a
e g
ĠX I
Ġ1 000
os t
Ġ198 0
Ġ Ġ
n ik
ĠC h
3 01
Ġ6 3
221 2
Ġ5 6
Ġ-- -\
028 2
Ġ19 14
h t
; .
ic a
f or
Ġ ..
r u
Ġs t
Ġ <
Ġ5 7
20 08
it y
, .
03 01
B N
Ġ8 5
Ġ198 8
Ġ ;
] "}
in a
'' ,
t u
us s
+ \
i o
p a
ĠIS BN
Ġ[ ...
% ..
? !
og le
3 00
Ġ5 8
Ġ198 6
:/ /\
Ġ1 01
ĠA n
Ġ194 3
Ġ198 1
B B
. )..
o ogle
ti c
Ġ6 2
. ).
c y
ac k
Ġ--- -\
Ġ9 9
al l
p e
4 301
00 00
Ġ11 0
n o
0 4301
d y
n e
Ġ197 0
g e
Ġ7 00
. -
Ġ198 5
Ġ" -
Ġ6 1
r ad
ar d
20 05
ac e
Ġ6 8
Ġ198 7
` \
20 06
20 07
Ġf or
er b
A T
i j
> \
t o
v a
Ġ8 6
Ġ7 3
Ġ5 9
n A
or d
hp BB
ĠM ore
i e
Ġn a
Ġ198 4
ĠX V
I N
Ġ13 0
041 31
t s
Ġ197 1
g ov
ĠC O
is h
CE ST
Ġ6 6
Ġ6 7
... .\
Ġ19 48
o c
Ġp ro
' s
Ġ1 45
* *
Ġ197 9
Ġ(\ "\
ĠG oogle
i ti
& \
Ġ19 12
ĠS p
00 1
i b
045 1
ĠR uss
en s
Ġ7 8
r ic
Ġ $
06 27
a ti
Ġ8 3
01 4
Ġ8 8
ĠU n
A N
Ġ197 4
20131 9
i je
a te
Ġ7 6
un d
Ġ198 2
40 0
Ġ6 9
r ess
Ġ16 0
Ġ7 7
Ġ196 0
\ \
Ġ19 3
ĠA l
045 5
ĠA r
k o
Ġ197 5
Ġ do
sk i
0411 92
E R
________ ________
l y
? ?
Ġ198 3
m e
o ur
on t
on s
Ġ- -\
n O
Ġ196 8
k s
Ġ196 1
ac h
ĠRuss ia
) ."}
Ġ197 8
as t
l ic
Ġs e
re d
Ġ197 2
te n
c t
ov i
us t
n T
Ġ19 0
ao j
Ġ( (
ar t
Ġ7 1
I V
Ġ19 39
Ġ8 4
or t
S S
il l
% .
ĠV I
Ġ197 6
n et
a z
Ġ19 50
uf b
Ġ7 4
20 32
ol og
A R
Ġ1 38
Ġ197 7
ĠP ro
200 4
Ġ10 5
. ;
Ġ9 8
u g
m p
Ġ9 78
Ġ19 40
Ġ1 35
n C
Ġ197 3
n K
---- ----
? !\
ĠB ey
Ġ196 9
ic e
Ġ35 0
Ġ12 5
Ġ9 7
20 00
ĠBey ond
Ġ8 1
ĠE n
Ġ19 20
ed ia
Ġ9 6
Ġ7 9
l an
Ġ9 3
0 20
ar e
s r
Ġ8 7
Ġ8 2
Ġ ?\
ĠN ew
m ent
Ġn e
Ġ '
Ġ[... ]\
R ead
u ro
Ġ }
Ġ9 1
04131 7
\ ":
) )
h o
01 44
Ġ19 46
m an
0425 2
q u
20 03
Ġ196 7
Ġ195 3
! .
O R
Ġ :\
Ġp hpBB
Ġ9 2
Ġz a
k e
y s
D F
CE T
3 02
Ġ- >
045 7
or y
v o
ri p
r om
s s
Ġb y
' ,
| \
Ġ19 15
VI D
Ġ1 37
@ \
Ġ10 4
Ġ !
20 02
as s
f d
ĠC omm
03 0
ut nik
Ġ19 17
Ġ19 38
Ġ196 5
bo ok
Ġ8 9
ar y
Ġ17 0
u c
% )..
b er
Ġ )\
p h
Ġ10 6
Ġ2 20
) :\
g o
Ġhttp s
Ġ196 4
ra v
k i
} }
: "}
an a
te s
ic h
Ġ19 29
l d
199 9
Ġ1 19
Ġ an
en d
re e
o z
ĠXI X
l og
20 01
] ]
Ġ193 0
Ġ196 6
d f
ĠV II
tion al
4 302
Ġ1 32
n M
0 4302
g l
h ttp
02 49
Ġ19 63
n j
Ġ[ +
Ġ19 19
Ġ1 21
0428 1
n I
ĠM ar
Ġ1 42
Ġ9 4
en ce
a w
Ġ10 8
Ġ be
A L
Ġ1 02
... )
Ġ `\
Ġ al
f y
Ġ19 37
p p
ĠIn ter
Ġ \".\
Ġ19 36
Ġ| |
h er
Ġ19 47
Ġ te
Ġ196 2
Ġ is
? "}
, ,\
Ġ01 1
Ġ1 03
20 3
e T
f t
! )
ĠV III
s p
Ġ10 7
n P
sk a
06 2
c f
i re
ĠC o
m er
2 20
l av
045 4
Ġ19 21
e o
n S
he l
i es
R A
Ġ9 00
ĠCO VID
00 02
r y
Ġ" .
l ine
Ġ1 31
Ġ195 6
M ore
j u
, ...\
an je
os ted
i de
I C
r b
E N
c rip
Ġ2 40
iv ers
Ġ195 9
% .\
a B
06 4
Ġ11 5
Ġ19 35
Ġ12 44
Ġ1 34
Ġ19 49
Ġ195 4
Ġ ?
ĠS erb
Ġt h
ĠO p
0 37
01 1
Ġ195 8
Ġ19 34
Ġ195 7
Ġ11 1
Ġ1 41
ace book
Ġ11 2
ma tion
Ġ ce
e ar
un g
v er
Ġ45 0
av a
I S
Ġo d
Ġi z
Ġ[+ ]\
i h
p hp
Ġ195 5
u de
Ġ19 16
na tional
3 05
01 5
0 49
o ut
Ġ195 2
Ġ10 9
Ġ[ [\
H z
Ġ1 36
it h
00 01
or k
cc te
. [\
Ġ11 3
Ġm m
ccte pa
% \
l l
20141 9
ti t
ĠT e
an t
o je
11 1
O N
201 33
an g
w s
or ld
ĠR e
................ ................
Ġ19 28
for mation
00 11
e S
Ġ19 23
Ġ19 13
E C
Ġ1 33
ĠR ead
ra z
c d
01 38
Ġp o
crip t
3 06
0410 1
P DF
Ġ19 24
8 00
Ġ19 31
E D
ĠT h
Ġ1 44
ĠA d
6 00
u a
ti s
ĠD e
. ).\
en a
u re
Ġ19 22
Ġ12 4
r on
Ġ19 33
ol d
Ġ19 00
199 5
! \"
ra m
or a
Ġs p
] .
Ġ195 1
l j
ov ic
el l
S A
Ġ19 03
Ġ18 78
Ġ11 4
l and
, ,
Ġ19 10
Ġp ol
1 01
ent s
01 11
Ġ12 8
r p
ar i
ag e
ar a
Ġ11 7
om p
Ġ2 10
Ġ18 3
Ġ11 6
te m
R O
! ?
I T
Ġ12 9
r is
02 1
Ġ19 25
m in
r es
041 41
Ġ11 8
I D
Ġ> >
E S
d i
de x
15 0
Ġ( *
\" )
Ġ19 32
il i
u k
Ġ ),
X X
Ġ12 3
ĠE uro
lo ad
00 9
ik a
Ġ !\
ĠP l
1 20
ic al
!! !
Ġ20 3
er e
u be
Ġin formation
Ġ19 08
a in
ĠP h
ĠJ o
a ao
r en
E T
!! !\
ri g
201 35
ub l
01 53
e C
ro s
199 8
ĠV i
Ġ2 12
il e
ĠUn ivers
Ġ/ /
ĠB o
Ġ19 05
Ġ @
p l
av e
r ac
Ġ{ {
ĠT o
is s
ig ht
e A
t om
Ġ ad
u z
01 2
Ġc m
ul t
20 33
Ġ le
O S
ĠS h
I n
Ġ ..."}
Ġa go
o ci
ĠW in
1 10
B y
Ġ# \
01 45
A D
s ch
Ġ19 27
ati ve
03 9
an ja
Ġ12 2
- -\
v en
Ġ12 6
ite d
ĠM ob
02 46
7 00
199 7
an s
Ġ19 26
ĠF acebook
. /
n al
os ti
] ,
Ġ19 11
p er
n H
ĠB e
w it
ĠC on
or i
A C
ik ip
) )\
I L
Ġ17 5
Ġj a
01 46
l ov
11 7
\" ,\
Ġ[ -
01 31
ĠO n
ite l
ow n
ĠE x
on e
199 0
06 31
P osted
19 45
01 52
Ġ36 0
199 6
Ġ et
06 46
e X
? )
V i
t al
ĠR ep
A M
01 42
Ġs u
ĠXV III
) -\
38 1
Ġ ''
Ġ ....
Ġ( ''\
02 47
Ġ12 7
040 5
ĠM a
199 1
02 44
0411 1
da j
ont in
t or
201 36
Ġ15 00
e M
iv e
0435 1
ĠM o
er v
Ġ23 0
ĠC re
c he
r in
C O
es ti
Ġ en
ĠMob itel
ĠM e
at h
ĠF or
s z
b ack
c W
ad a
3 07
0420 2
J A
do ws
Ġ ar
0422 1
! ?\
Ġ18 48
l in
10 9
O L
\" ."}
02 48
Ġ \\
T he
ĠI X
at a
al e
er n
an i
10 7
o us
A S
c on
0438 1
ar k
Ġ3 000
e W
Ġp re
t on
wit ter
Ġs a
Ġ18 5
042 41
Ġ15 5
tit le
18 0
? \"
3 08
ĠX VI
ikip edia
l es
al k
ĠXI V
B I
E M
ĠInter national
om e
06 44
ach ine
25 0
ub lic
g mail
Ġ16 5
~ $
1 37
A P
0 63
Ġ20 23
201 34
01 01
199 2
as h
an ce
A tom
11 2
10 8
Ġ19 09
l u
Ġ15 3
Ġ14 3
n y
19 18
ĠJ ava
201 42
E L
ĠUnivers ity
ĠW ay
Ġp ri
041 42
= =
Ġp p
ĠY ou
01 03
12 5
Ġ7 50
S p
ol a
Ġ190 4
Ġ un
ĠI P
s e
ov a
d d
02 42
ic i
ĠS ch
Ġ19 06
n D
li p
/ ,
. -\
m en
ĠL e
ig n
ĠR T
c es
ĠX II
) [\
11 8
Ġ13 9
Ġ27 0
h n
am s
ĠF ree
'' .
M D
Ġ20 2
Ġ26 0
ul l
te l
ĠSp utnik
0410 2
a i
0435 2
c p
m o
Ġ( ...)
ĠM achine
1 21
Ġ ~
Ġ15 6
S cript
ra t
al i
Ġ18 76
Ġl a
http s
01 6
en er
ab le
ĠW orld
Ġ[- ]\
Ġ ca
Ġ19 07
Ġ, ,
f er
f b
199 4
Ġ14 7
01 51
ontin ue
Ġs am
n V
on g
m l
ĠM an
ĠJava Script
M L
n g
Ġe x
2 37
Ġ20 5
ĠP ol
Ġo b
e B
12 2
10 4
ew s
Ġ15 2
ĠComm ons
in i
u x
U S
.. .,
Ġw eb
ĠĠ ĠĠ
ĠWay back
ra g
e P
en ti
ĠP ress
ĠCre ative
Ġ ti
n N
1 32
0422 2
Ġ14 6
Ġ18 4
c tion
z a
19 41
ĠWin dows
p o
Ġv i
AT O
er t
0 02
o ft
s h
ĠS ta
1 19
201 37
rig ht
Ġ14 9
Ġc h
Ġ28 0
0 46
Ġ1 200
Ġ or
Ġ18 96
10 5
1 02
z e
4 305
0435 3
Ġje z
ĠEuro pe
ĠT witter
c Hz
0 4305
ok ia
45 0
fc r
1 35
ĠT im
ĠAn d
Ġ32 0
a h
Ġ15 4
Ġ19 02
c k
ul ar
Ġ19 01
ĠH e
25 3
Ġpol iti
12 9
R E
a A
01 60
Ġ14 8
Ġ17 3
ak o
0411 2
i ma
! \"\
gl ish
ci ja
en e
12 3
a il
ĠN okia
Ġ[ &
Ġs v
l ad
ĠO r
Ġ16 3
2 48
1 42
ĠN e
ĠOp en
olog y
1 40
ov e
0421 1
ĠI N
Ġa t
Ġ15 1
own load
C omm
13 0
d it
IN E
11 3
Ġ6 50
sk e
Ġp ost
og ra
-------- --------
hel lip
c l
P S
199 3
in dex
e K
ĠX L
025 9
Ġ18 90
ran s
'' .\
ĠP op
ĠR es
...\ "
Ġ15 9
> >
19 3
Ġ16 2
i f
3 03
ĠL a
n W
a je
1 31
Ġ15 8
te rs
Ġ15 7
Ġ( +
Ġ18 95
e D
Ġ5 000
Ġ5 50
al a
10 6
Ġd es
ĠM il
ĠM us
m s
tu re
Ġw ith
an n
ĠIn s
our nal
d u
g y
: :
ist ory
- ,
. (
1 45
Ġ16 1
Ġ16 7
n E
Ġd i
32 0
nA U
as e
u al
ĠP ar
Ġn o
or n
Ġ18 6
03 94
R I
Ġ16 8
k t
og rad
09 3
cp hpBB
21 0
q ue
O M
Ġ16 6
Ġk g
Ġ180 4
Ġ16 4
in d
am e
ĠC ol
Ġf rom
o od
ik e
e q
19 89
s on
201 38
35 0
k u
Ġs h
Ġ it
r v
0421 2
1 38
er a
Ġp ar
12 4
ation s
\" ..
n J
Ġ18 80
) -
ĠS ci
p or
Ġ19 2
11 6
ĠX III
il d
ĠF ran
ord s
g or
Ġ--- --\
ation al
01 48
20131 8
Ġ17 7
a ho
Ġ17 2
! ),
Ġ as
Ġ[... ]
an k
c an
ĠG u
Ġ17 4
E O
ĠS rb
ow er
1 41
i er
Ġ16 9
Ġ18 98
Ġ( -
Ġm ore
ĠU N
16 1
4 432
Ġ17 6
on es
ĠXV II
0 4432
Ġ18 99
ĠC ar
ĠN o
Ġ22 5
18 4
as ter
06 28
in k
ĠIS O
aho o
ĠNew s
Ġ ?.\
Ġ17 8
Ġ20 4
ĠP ri
n ov
r it
Ġ18 97
ni je
16 5
21 1
0425 3
es e
0420 1
22 6
n ost
2 34
ic k
Ġ21 5
Ġ18 67
r al
) ).
\" ),
I A
B C
Ġ"\ "\
Ġ17 9
ĠI MD
b al
Ġ18 92
ĠA mer
Ġ20 25
0426 1
Ġ2 11
1 39
000 7
Ġ ro
oc k
16 0
E E
Ġ ac
19 4
ĠO N
en i
a u
Ġ us
d A
ĠC l
Ġp h
M S
ro p
p df
ĠI s
19 85
Ġc omm
ic s
op y
ut h
o ja
25 4
Ġ0 64
ĠIMD b
1 34
Ġ33 0
. +
01 47
ĠD ownload
03 95
ĠA g
tion s
tic s
Ġ17 1
9 00
' .
in t
Ġ18 82
Ġ ist
19 88
ĠL im
0422 3
ut sch
Ġo p
38 7
21 4
er i
67 2
3 41
o f
un t
19 86
Ġm e
e L
05 65
1 36
3 32
Ġ18 75
Ġ18 94
a ja
Ġ3 40
11 4
Ġ18 1
Ġ18 70
Ġ: )
l as
Ġ18 89
17 0
Ġ. .\
w ikipedia
26 05
i et
1 03
0 31
Ġ18 85
ĠP e
ud f
00 3
2 40
Ġpoliti ka
or is
in s
Ġ18 88
, \"
en je
da k
Ġ18 7
________________ ________________
R S
Ġk oj
Ġ ).
ĠA c
0426 2
Ġ36 5
ao je
Ġr ad
ing s
Ġ18 2
221 21
I P
Ġ2 35
e F
e le
16 8
ĠS te
ĠR om
11 5
ht ml
ys tem
18 9
19 84
eT he
Ġ18 60
Ġ40 00
c q
ubl ish
ol e
1 33
Ġ he
U N
2 32
e E
h r
m i
ĠC omp
Ġ18 93
Ġ203 0
n d
Ġ138 9
? ,
ĠH T
ĠW ar
Ġk nj
T A
Ġjez ik
Ġ02 1
S ub
ĠD is
Ġ18 81
ĠB log
ti v
. (\
Ġ: :
in fo
^ \
Ġ18 9
n B
ĠR o
n F
o ol
19 87
Ġ20 6
am p
Ġ18 68
Ġc on
ig h
Ġ18 8
m b
Ġs rp
3 40
ĠSerb ia
il a
Sp utnik
x x
22 65
00 19
12 7
ti tu
. ]\
3 09
I M
g u
r ba
Ġ2 22
Ġ2 32
Ġ183 0
h at
3 42
Ġ8 40
Ġ18 84
Ġv e
Ġ2 41
Ġ18 00
d c
... {
Ġh a
ij i
Ġ %,
+ ,
ĠB l
ed u
ear ch
Sub Comm
ĠLim ited
V III
v an
g ram
ĠN ov
e N
h a
ĠXX X
r as
R L
L INE
ĠM ic
ĠM on
19 80
ĠA ir
19 81
Ġd er
Ġ \",
17 5
in o
19 83
19 0
e i
0422 4
am es
21 5
ĠM A
n ing
ĠOn line
Ġ: .\
ion al
14 3
Ġ und
it al
06 45
D A
Ġs z
er y
1 63
01 41
4 303
19 82
Ġ= >
Ġ29 0
i x
0 4303
. [
T S
Ġ19 1
ĠD O
Ġu p
4 306
ri d
Ġ18 15
0 4306
ĠM ag
r z
p ort
23 0
ĠAr ch
ĠE U
ni h
15 8
% ).
Ġ20 8
i i
d w
e R
Ġm il
Ġ20 7
Ġ22 6
Ġ11 000
Ġm on
Ġ& \
w n
n R
ers on
Ġ2 38
n G
2 42
0414 3
ro up
Ġg od
on y
Ġ2 18
ĠP re
ĠG e
Ġ2 21
p r
or s
0 47
K A
01 92
37 5
/ .
. );
Ġ18 77
Ġ18 83
Ġ21 7
15 9
e O
ov o
et a
Ġo s
php bb
em ent
ir nije
12 8
Ġ ;\
2 39
ti ve
uf e
ĠA ss
Ġ18 71
# \
r est
ed i
ĠN ATO
ĠON LINE
Ġ* **
m es
Ġ25 6
Ġ18 86
Ġw ee
g a
ĠSt ud
a x
Ġ( .
b or
15 5
y n
18 5
ac ija
C I
e u
20 5
Ġl i
Ġm o
Ġ20 9
Ġde l
Ġ21 3
n II
ol l
Ġ21 6
ĠF il
01 49
06 48
ik i
05 61
ar s
r ia
ĠY ork
19 79
Ġp os
n og
at o
\" ;
ĠB el
a is
20141 8
Ġ ba
19 78
k y
2 41
Ġin ter
Ġo v
}} \
Ġ18 61
ĠS oci
op h
ĠR ad
06 33
R C
Ġ18 69
i rs
Ġ ."}
) ?
Ġre ad
ĠA pp
c E
ur g
al is
Ġ @\
J E
063 9
030 4
Ġ21 4
I X
g rad
p ro
ĠPl us
e H
0428 3
opy right
ĠS R
z i
Ġ ili
} \
y le
Ġ18 79
Ġ2 19
ed er
D E
F ran
ĠT op
1 000
lo w
ens e
e G
Ġ38 0
ĠJ e
041 44
.. ...
{ {
00 10
0438 2
Ġ8 50
Ġq u
an o
20 7
8 44
n L
28 8
m m
21 16
Ġ18 91
ĠW eb
Ġ2 45
v ic
Ġ| \
do j
0425 1
ad e
21 7
v od
19 70
Ġ18 87
os lav
er man
O P
! {
21 22
e k
n er
Ġy ou
ĠO ff
n s
ĠG re
r ist
e https
0428 2
Ġp od
p s
Ġm i
041 32
1 44
ĠAl l
v al
Ġ2 34
220 8
ĠC S
B A
old id
Ġ18 13
25 7
ij u
V II
ia m
S t
Ġ31 0
ĠC ent
q us
ol u
Ġ2 37
e as
01 8
Ġk a
U T
24 3
v or
Ġ2 33
da y
le x
I ON
H E
0426 50
Ġv o
Ġc o
0 38
ros oft
i el
vi ew
ĠV ol
f x
Ġ22 3
01 29
2 61
dak cija
? \"\
Ġ2 31
ri b
Ġb i
4 61
Ġ18 50
28 0
19 75
00 5
lo bal
ĠP or
ar ea
0426 3
29 0
ĠY ahoo
Ġ2 36
b an
Ġs i
ĠI C
ĠVi ew
Ġre p
Ġ raz
ĠHT ML
i um
ĠL i
014 3
D e
ĠH istory
19 14
on a
ener al
12 6
2 36
Ġp l
0415 2
Ġr es
26 0
Ġd is
15 6
042 42
02 2
ĠQ u
Ġre dakcija
0 48
18 7
16 4
IN G
Ġ2 39
Ġ ).\
ĠN ational
Ġ22 7
Ġ42 0
14 8
ac t
ĠP C
19 69
Ġ18 72
P ol
22 3
14 6
Ġ ........
N U
n X
ra in
f r
P ro
Ġ2 42
Ġ27 5
Ġst ran
ĠR SS
ĠE l
ĠSerb ian
* ,
05 76
tes e
Ġ 440
Ġ18 63
Ġ22 4
ams ter
S D
v et
Ġa ut
19 2
01 39
ot o
19 74
L A
ĠW ord
ĠS T
Ġ18 66
l er
d en
c G
26 8
19 76
27 7
for m
19 72
ĠH IV
v is
Ġ18 64
H amster
Ġf ull
Ġ18 62
19 77
de l
Ġ17 00
r t
S N
g er
ĠM y
ic an
ĠJo hn
Ġd u
0421 3
n osti
010 8
ĠS c
19 71
ric ted
a W
Ġ25 1
15 2
iet u
02 41
ĠL ib
ĠC om
le t
19 5
h as
Ġd r
ĠIn d
ad em
ĠP DF
al o
. ,\
rest ricted
da e
Ġ: )\
ĠF E
c j
19 73
Ġp er
restricted area
ĠBe ograd
o und
, +
b g
ĠS y
Ġ37 0
ĠU RL
19 68
w e
am b
an y
C o
it a
00 8
19 44
05 80
k m
16 9
A F
ĠH er
m us
Ġ13 00
nH D
s a
Ġ26 5
um an
j en
ur al
Ġ el
at vi
Ġ22 8
Ġ32 5
14 9
p ress
19 67
at or
22 64
el op
ĠK B
d in
Ġm et
S P
06 41
C C
22 48
Ġ ab
220 6
ul a
Ġ25 5
ĠB ro
ten t
Ġ16 00
o te
Ġth at
) )"}
Ġ40 4
ĠD es
] .\
202 3
32 1
ĠEn glish
Ġ22 9
Ġ4 80
I tal
ov an
ian o
T ube
b ar
18 3
Ġ25 3
Ġ2 44
d q
15 7
at ch
Ġb ro
ĠS an
Ġof f
ĠP et
d er
ĠP o
O V
a ter
22 4
0410 4
ogra ph
ĠC or
Ġ30 5
I F
ĠC an
844 33
22 2
l je
Ġ18 65
21 3
ch n
P ress
Ġf il
Ġ18 73
0428 4
sk og
ro id
ĠS ec
); .
om en
) ),
ĠC ontinue
lic k
.. "}
ol i
lov en
Ġ24 3
20 9
e Y
et n
ak e
Ġread ing
ĠEurope an
?? ??
040 6
Ġ18 35
...\ "\
ĠTim es
. /\
041 9
/ .\
O T
? !.\
Ġd ru
Ġ18 39
b log
j er
Ġ24 6
0410 3
Ġ18 74
ond on
ĠXX I
ca tion
y can
ja ve
ĠSci ence
Ġwee ks
2 38
L E
bb en
Ġ31 3
rba ycan
ĠN or
ĠB i
sr b
out ube
14 7
\" ).
S R
ĠT rav
19 64
D is
o ok
00 4
Ġw h
Ġ18 40
Ġ25 00
le ct
ao ja
n III
Ġ3 01
19 39
Z S
19 66
Ġ25 9
sz le
Ġk om
Ġ18 12
Ġ18 57
Ġ ]
0435 5
da s
n u
c s
at t
Ġ25 2
19 60
00 7
Ġ24 9
szle tese
szletese bben
15 3
g i
) ?\
ov id
' .\
ufe ff
Ġ18 49
Ġ18 47
Ġ24 7
an u
22 9
tu ra
ĠB ar
et y
rv at
uth or
g ra
c us
O G
25 1
Ġ31 6
A G
Ġi ma
Ġ %)
re t
BI SS
irs t
or um
18 78
ot h
C h
Ġj o
or an
0412 1
ĠS er
20 8
15 1
ĠJ ournal
he m
ĠC D
ik ed
d an
Ġkoj i
ĠBo ok
? ),
` ,
n ja
out h
20 6
Ġ18 58
Ġj ed
I d
u rs
19 61
\" "}
Ġ28 5
27 5
15 4
le y
Ġ2 63
Ġk ao
o x
Ġ25 4
02 33
W ords
l ed
u ri
0425 4
c b
u ra
Ġ{{ \
36 5
j an
ĠN et
w ay
33 0
ĠD an
More SubComm
has MoreSubComm
hasMoreSubComm ents
. ]
j o
Ġn ov
op is
24 9
ol do
Ġ er
! ,
Ġf ac
ĠT r
ĠM ed
ĠP a
19 29
36 0
19 6
ĠPop ular
ĠJ a
0428 17
ĠP ublic
26 4
E n
27 2
49 7
\" )\
ĠE N
re f
Ġ18 59
re b
21 2
iv a
Ġ18 06
re m
b A
16 6
01 62
16 2
da l
ĠS m
................................ ................................
P L
ĠR eg
ĠS im
2 45
Ġre g
Ġ ra
al s
i us
Ġs k
19 65
+ +
Ġp r
ĠIns titu
ĠRead ing
I G
Ġ26 4
ĠMic rosoft
ex y
Ġst ud
203 0
ĠS i
in ess
Ġ24 8
ĠL ondon
ĠA s
Ġ3 03
j i
w ork
... )\
05 6
16 7
01 9
L ietu
en o
is e
at in
ter national
w ard
ĠS ystem
C H
je ct
c A
Ġ% ..
Ġ27 1
L atvi
Ġ26 2
ĠU SA
ĠAd Words
26 5
en n
ĠMA IL
... ),
Ġ18 38
ĠUn ited
ĠL in
I R
j p
Ġm ed
ĠFE ED
Ġ43 0
ĠG eneral
, /
d uc
Ġ18 33
19 63
ar od
Ġm in
Ġ0 63
for um
ĠS up
Ġ6 000
il o
ĠT er
Ġ18 56
f i
ĠG r
iz jave
oc ia
om o
ĠP M
ar m
E F
Ġ30 4
Ġ `
ĠD ev
07 6
om a
ang u
t y
T h
ĠOpen Id
av as
Dis qus
ĠM et
C D
d is
ĠK os
Ġ* *
Ġ( @\
ut s
Ġp e
n os
4 307
Ġ are
p ol
25 2
M oldo
M A
32 2
Ġ25 7
0 4307
Ġ26 8
Ġs ta
as a
0415 1
Ġ18 44
en ja
Ġ( =
be k
AR S
Ġ30 6
is m
n p
Ġth is
Ġ _
ĠF l
19 20
65 87
Ġ26 1
Ġ40 1
U L
Ġp lan
% ).\
. --
ĠA m
Ġ31 5
Ġ11 00
ric k
ev er
Ġi mp
)) ).
02 45
x y
us iness
! )\
ĠG roup
Ġ27 2
Ġb r
a fa
Ġ27 3
ĠX Hamster
ĠM ac
c ess
c ted
g es
19 50
an e
ce gov
Ġon line
ĠI ma
th er
6 41
37 0
ĠIS SN
09 2
Ġ18 41
ĠP ost
P A
Ġ29 8
an ge
Ġ26 6
0418 2
Ġ fo
Ġ28 8
ate st
ĠB u
45 1
Ġ18 46
Ġ30 7
Ġ31 1
ĠPh il
Ġa m
ĠM edia
iz e
g ar
19 48
ap p
ĠYou Tube
c m
ĠB est
Ġ{ \
Ġ20 24
\"\ "
____ __
Ġv al
Ġ000 7
Ġ25 8
Ġ18 42
Ġp erson
Ġ18 34
19 33
4 341
0 461
I K
rom e
17 1
com m
31 0
Ġm an
0 4341
).. .\
p ri
Ġ18 14
A r
ist or
for d
Ġ26 9
19 12
Ġ38 1
Ġ28 3
Ġc ol
ĠN at
2 33
ĠS w
avas cript
fcr k
i en
18 8
Ġ32 3
Ġc an
AT AL
ĠAnd roid
Ġpro te
l os
Ġ26 7
C P
38 0
r ol
17 8
s pa
ur es
19 38
17 9
7 50
ent ar
~ \
28 2
19 62
Ġ32 4
32 3
ca j
Ġ29 9
ian a
Ġ30 8
Ġa g
en ter
Ġ33 3
25 8
v ar
Ġv ide
al d
it s
26 6
Ġ18 52
Ġ31 2
st at
U n
01 76
Ġad min
.) ;\
0440 2
Ġ ter
ĠP er
27 0
ĠMus ic
Ġ18 09
2 35
t r
ĠL AP
00 12
33 3
0411 3
e J
ĠB os
ĠB r
Ġ29 3
d rav
ĠPl ay
ac ije
Ġ3 35
ĠHIV ATAL
t ina
un s
ta in
D et
ĠO F
2 31
b le
0421 4
ĠCh ar
28 4
ĠHIVATAL OS
Ġ30 9
un e
Ġ28 1
Ġ27 6
Ġ27 9
al th
Ġc omp
000 4
20 4
nI n
n Z
w are
19 54
ĠLAP JA
ĠOff ice
03 98
6 50
Ġs up
ce p
19 59
ĠR ec
27 4
ĠB er
iz ev
ĠInstitu te
{ \
Ġ28 6
Ġp ra
] ]\
Ġ ]\
g et
0 33
Ġv on
Ġ27 8
01 10
Ġ29 5
Ġ35 5
f ic
ĠD r
a q
ĠS P
Ġu z
4 308
01 19
alk an
Ġn is
19 40
Ġ28 7
u te
Ġ16 90
Ġp df
0 4308
grad e
ĠS z
IC A
0412 2
ĠY U
Ġ27 7
ĠD o
l ja
U R
rac t
E G
19 58
ĠAmer ican
]] ,
19 34
ĠU S
** **
29 6
ĠTrav ian
29 2
32 9
Ġ5 40
un c
erv ice
v oj
con om
ĠB y
Ġ> >\
y m
ĠM in
n om
tic al
ar ch
n v
l im
39 1
Ġ27 4
ul ture
3 45
\" ?
olog ija
ev ic
19 1
red i
Ġ+ \
01 64
0443 1
\" ).\
in ter
31 7
Ġp op
iv er
% ;
b i
18 2
Ġ4 60
00 6
Ġ28 4
Ġ18 18
Ġp s
Ġ3 90
22 5
Ġ31 8
Ġ18 36
ĠL u
e V
17 4
19 53
k g
24 7
te ri
Ġ28 2
N A
ĠA P
Ġ37 5
0411 12
ĠF ire
dit aj
Ġ18 53
193 0
ro w
0435 4
Ġ3 02
0438 5
. '\
uf f
um ent
ch en
ĠC ity
Ġ41 0
ĠI tal
O D
17 6
18 1
Ġ45 1
0438 3
Ġ ________________
ĠM i
ot or
ĠD av
ĠW h
ĠR ob
Ġ18 27
19 8
09 4
jp g
$ \
E P
! ).
) (\
/ -
e z
049 1
S erb
Ġ5 20
ĠG erman
l ag
ris ti
n IV
ĠH ar
l at
k om
17 7
Ġ140 0
Ġk on
17 3
Ġ3 42
ul ti
Ġ28 9
ul tura
41 2
ĠM B
um b
im e
Ġmon th
Ġ3 37
ĠRes earch
4 300
) =
?? ?
Ġ9 50
Ġ ________
ol o
, ...
ur y
4 342
21 6
I ST
19 7
21 8
Ġ18 37
, "}
0411 6
Ġp a
re me
e iv
hel p
06 29
Ġp oz
0410 5
c u
es ter
ĠA N
ĠK o
0 4342
Ġt r
r ing
ti o
19 21
e je
u ch
M Hz
010 6
31 6
iel d
) )..
A l
03 93
o do
e ja
i al
en g
ĠF o
046 5
nC opyright
19 52
te t
ĠU ni
ug oslav
st vo
Ġs rb
ĠI T
19 36
Ġknj izev
y a
18 6
ae l
cegov ina
k l
ĠW e
Ġm ere
19 35
ĠS al
Ġ" (\
0421 9
Ġ7 20
pl ay
Ġ4 70
elop ment
ĠA R
19 46
ĠN A
Ġ ed
19 55
un da
s i
p ar
0 4300
ik o
Ġ29 7
.... ..
ĠRe al
Ġs ve
i tion
19 56
j ed
cy cl
0428 5
er o
Ġ29 4
4 309
z ab
05 0
19 57
20131 99
Ġ3 95
ic o
il la
0 4309
B S
Ġ18 54
in al
Ġn ije
iz ed
Ġ( @
Ġm em
is ion
Ġp red
ĠP ower
Ġ32 1
Ġ18 51
ĠAss ocia
Ġt re
m ar
31 9
at al
ĠD V
os e
u je
Ġ000 6
Ġ9 001
ĠA t
at ri
M P
017 3
ĠS o
29 5
Ġv el
vi ous
ĠS u
ĠTe le
45 6
cycl op
her e
d E
Ġ5 60
P h
Ġa z
r k
Ġp or
rid ge
Ġ all
! ...\
B R
Ġ31 7
ro ss
os a
025 0
D P
ĠW ill
Ġ29 6
Ġ3 34
19 47
= .
== ==
un k
g en
ĠD el
S h
v el
d x
Ġa pp
her cegovina
e I
w in
P H
ud i
0441 1
22 8
0435 6
Ġ0 60
ĠC ons
ĠH a
Ġ32 2
on i
n t
ber g
Ġ18 45
ast av
. ''
Ġ17 89
Ġ18 05
ĠP ublish
ig ital
c B
D C
c K
ĠT a
0442 1
ĠT rans
Ġ18 55
Ġ( %)
ĠTe chn
V F
- (
re am
Ġs c
Ġ3 45
Ġ29 1
Ġ34 3
ĠM al
. '
Ġ18 20
og a
m at
og u
ĠDO I
42 0
OL Y
ol je
OR T
27 14
ĠGe org
w p
- )
U P
219 0
b q
Ġm ob
ĠK ar
as k
gov or
ogra f
Ġ18 32
is ta
as p
Ġ18 31
ĠCO BISS
ĠT ur
N O
31 3
ag es
et t
17 2
us e
Ġ18 07
19 27
Ġ3 38
7 10
ti ca
T P
iti es
Ġ32 9
Ġ33 6
w v
n ow
ĠPro f
j ub
e Q
Ġy our
ĠV al
b Q
Ġw as
O C
c ed
Ġ20 50
ĠL G
y p
n b
= \"
il le
d lan
ĠC ovid
ĠAr t
Ġk v
i ra
25 5
ĠE v
at us
31 1
19 24
Ġn ap
k ov
0418 1
Ġ18 10
ĠSR PS
ĠP lan
Ġ3 41
d n
22 7
5 50
Ġ31 4
ĠN a
ti ka
ĠG o
ĠV er
ĠI RC
ĠRom an
ap t
Ġm od
19 28
! ...
it t
ov er
19 13
\" ...\
Ġi m
20131 5
g an
19 32
Ġal i
24 6
ĠS Z
19 49
Ġdo i
ric h
and ard
ag ement
. ;\
ĠB re
Ġ7 000
nT he
02 40
25 9
U M
25 6
? {
Ġs oci
ĠP an
Ġg r
or m
ep tem
[ [\
ud io
ĠH o
eb f
19 31
Ġn aj
? \",
e xt
ĠA ut
Ġ29 2
ay s
b w
con tent
!! !!
32 5
Ġn ot
ĠSta tes
ĠWord Press
__ \
Ġ31 9
19 37
E X
19 25
ĠSt ar
ou g
A pp
k on
n ia
06 1
ĠW hat
ĠSch ool
Ġ18 26
il ity
Ġ37 1
Ġ50 7
ĠE C
ro v
Ġ18 21
ĠU p
nT ag
31 5
all y
0428 6
Ġ53 0
ul ation
Ġk W
c ol
Ġ es
ĠA p
Ġ33 1
Ġs aj
ĠCol le
ca te
id d
Ġ36 9
Ġ36 8
ĠComm ent
35 5
00 14
ĠT V
ee k
L iked
ĠL ove
pr il
iv es
Ġm ar
T V
20131 95
66 6
Ġ32 6
t he
Ġk o
ebf ng
ja v
ĠV ic
38 5
ion s
ĠI mp
9 08
ĠO b
19 42
L e
fo x
ĠCh rome
Ġn as
19 19
el a
eg o
op ic
Ġ63 0
< /
221 7
t v
02 16
; /\
nS p
0421 5
Ġ32 7
c je
6 20
ĠA b
sk o
Ġ3 32
35 1
Ġ42 5
3 34
n By
Ġ41 5
Ġ36 1
Ġ8 000
do c
ate gor
Ġs l
ab ic
Co V
VF OLY
.. ....\
st ract
n ews
ĠP H
VFOLY AM
uro pe
Ġ17 90
un ic
ĠJ u
s er
ĠE ast
Ġv ol
ĠEn cyclop
3 37
ti m
31 8
ĠN ik
rad a
ĠC ri
ra te
et h
Ġ40 5
ec t
0426 4
de d
ĠB rit
am o
ar h
0438 4
48 0
Ġprote cted
r or
19 51
Ġ4 65
20131 0
Ġl ine
Ġ35 1
** *
Ġ18 08
m il
28 9
ĠC N
ib er
ĠS rp
rz s
01 13
Ġ35 3
22 19
ĠE du
Ġ5 12
v es
ed n
y ar
19 22
S M
ĠL ic
ubl ika
Ġn i
.) "}
: ...\
ĠC ont
ublish er
ce l
ĠG lobal
0438 0
ĠBl ack
A V
) ]
et s
07 0
O n
Ġ32 8
4 332
T I
Ġ35 2
Ġ34 4
0 36
ĠS e
Ġp rav
ra ft
ort al
54 3
ch ttp
En glish
0 4332
en cy
Ġ35 9
am il
M ap
Ġ( =\
B E
ĠEn g
ĠP RO
is k
19 26
a E
l or
5 40
c ar
ac i
ib li
ĠL atest
ĠB BC
0418 3
nP osted
z bek
ĠS k
ĠInter net
ous e
.- -\
olu tion
ĠA ug
010 5
Ġ33 9
ams ung
ĠM otor
s o
ur n
ĠM at
ĠA ust
= -
ĠH ol
ĠSoci ety
ĠF in
05 75
us h
OR E
ĠC a
c www
is ter
it te
ĠM ay
Ġ6 10
ĠP rin
ĠJ E
S C
Det al
ĠIn st
ing ton
Ġ6 20
h am
u le
Ġ38 5
Ġ- .
re et
as ti
XX X
26 66
olog ical
. ''\
3 35
Ġ(\ "
s l
25 00
Ġsam o
le ment
06 0
Ġ184 3
n m
19 23
194 3
da te
Ġ34 7
Ġp ot
y l
ur ch
Ġ35 7
32 6
\" -\
Ġ>> >\
v ir
um e
Ġ[ [
Ġs m
Ġe v
n U
Ġ 435
d ki
Ġa p
ĠMar k
Ġ5 10
ĠM er
Ġ40 3
ĠI t
T O
Ġ \".
A n
Ġ^ \
09 28
fer ence
w ood
is a
ĠW W
nSp utnik
Ġ 441
Ġm ag
ĠA ward
I EC
{ :
Ġ34 8
land s
z s
em ber
35 3
os p
li ed
r d
ra tion
0428 7
ac a
y y
Ġk V
Ġk oje
26 2
ĠD u
om b
Ġ35 4
ta k
Ġ45 5
ir d
I Z
ĠL aw
Ġ6 40
ĠP al
or ts
Ġ( <
os s
Ġ _\
Ġ35 6
ug h
le ks
n ab
ĠC ap
chttp s
Ġ38 7
ĠM or
r ary
re en
29 4
b X
l ass
): .
19 11
De utsch
Ġ18 28
pa in
31 4
0445 2
19 16
46 0
19 05
el i
EC T
2 63
C R
26 9
Ġdo b
Ġg ra
Ġ36 6
9 50
g ory
03 91
org an
B M
el s
b all
in es
S I
Ġ5 01
31 2
2 44
B e
T i
ĠLi fe
\" ?\
Ġs te
ĠD i
b Y
Ġc ar
ĠJ ul
ra va
Ġan al
Ġ5 70
99 9
ĠR ed
20131 98
65 7
Ġ( ,,\
Ġ[... ]"}
ĠE ric
0440 1
ĠR ev
Ġ )..
ich ael
33 1
Ġ% ),
Ġs ec
s ite
40 4
em ens
= \"\"
Ġ36 3
Ġ ________________________________
29 9
un do
utsch land
Ġ5 80
ĠFire fox
ac ional
Ġt rans
nik a
02 9
ĠPro gram
man n
ĠKos ovo
ĠBel grade
ĠC r
a ir
41 5
ĠL ab
34 6
ĠCh rist
ĠS amsung
00 15
und i
ĠIn c
Ġmob ile
ĠG ra
ĠS ARS
Ġ18 29
ĠE lect
26 7
Ġ% \
ĠO ut
u er
ĠJ avascript
ĠDav id
101 6
uts che
be l
Ġ145 3
20131 7
Ġ37 3
Ġ18 11
op le
06 47
ĠB ri
38 9
an j
201 21
Ġv er
).. .
ĠG ree
m ed
Ġ- ----------------
27 6
... ).
n je
g r
ĠTh is
ĠO x
Ġa k
p i
c X
4 435
Ġ 433
ve z
Ġ38 4
iz ation
5 12
ic es
Ġ37 8
z er
ĠS ony
sk om
Ġ41 2
09 40
a O
st yle
Ġ4 90
0 4435
our ce
27 1
N I
Ġin fo
lo bo
ĠD ie
Ġ36 7
05 40
ĠW i
017 1
02 19
ĠF re
c z
0 35
! \",
19 03
27 3
Ġf t
01 59
ss on
! !\
U C
ĠDes ign
ĠA M
41 0
ĠN am
ĠG al
ĠS S
L a
ens is
Ġ7 37
O K
ĠP art
v in
27 9
u tion
ĠLin ux
! ?.\
A A
0445 1
Ġ3 92
e da
ĠS un
z o
Ġ34 9
Ġ41 1
ĠC hem
Detal jer
angu age
ĠB as
ĠE di
or ks
Ġ um
d O
Ġc ont
Ġ ri
Ġn ew
ĠT om
.) :
ro und
w o
ĠRep ly
28 5
Ġ6 80
19 00
l ig
Ġ100 00
0 200
p os
m y
0420 3
ĠAssocia tion
+ )
34 8
it o
Ġ12 19
n Y
M ar
Ġc ri
0 32
ati v
ĠO s
Ġp ower
u ka
Ġ17 91
19 15
Ġ$ \
y outube
0428 8
y ch
Ġ40 6
ĠSi emens
ĠC C
5 16
P US
042 44
Ġ36 4
037 3
nD e
Ġ( !)
apt rick
f il
k ol
ti ce
k ovic
ul d
EN T
8 50
Ġ( )
Ġw orld
C ontinue
bb a
k st
Ġstran e
19 10
ĠD on
E spa
Ġcomm ents
33 6
Ġ> \
Ġb o
bo x
! \".\
Ġweb rzs
20131 6
p re
d k
G RA
Ġ18 25
de o
Ġ36 2
in us
Ital iano
Ġ34 6
ES CO
lo ck
om an
bor nik
Ġ est
2013 9
ĠM art
0441 2
L U
ĠMo ja
/ "}
n im
29 3
ditaj te
0431 2
in ar
n VI
eb ru
Ġ17 93
id er
idd le
f W
Ġoff ice
p le
ĠF ri
34 3
E ST
ĠNet work
da m
ĠB ul
tu gu
w ord
Ġh ave
ĠJ ames
y al
Ġ39 7
ĠT HE
Pol ski
ak a
Ġ37 7
ut u
045 3
Ġ38 6
ĠSta te
c M
cate gor
etn ica
ĠA D
ĠB usiness
42 5
risti an
l ing
Ġ18 17
l am
38 6
Ġ40 7
ĠF e
ĠC ate
Ġsrp ski
ud d
Ġ0 65
0426 6
Ġ37 9
19 17
! ).\
ic us
el f
02 10
ĠAmer ica
ĠK a
c ia
iss ion
ĠR A
b en
p etnica
o h
en es
t ra
Ġ18 22
ĠIma ge
m on
19 08
qu est
'' '
d ka
ult ur
0432 1
), .
Ġ... ]\
ol f
u j
ĠAc adem
19 07
Ġc om
os h
18 99
Ġm eg
32 8
ĠW il
Ġ10 80
ĠRep ublic
r um
el y
Ġ38 3
ur ity
ic tion
Ġ38 8
0426 5
categor ized
T H
v ac
im o
ace ae
06 7
e mail
b urg
ĠS lav
Ġv reme
n is
red it
Ġn on
Ġ( >
Ġl og
ire ct
ĠTim e
05 7
ap an
35 7
Ġ41 3
32 4
ĠPar is
u ter
Ġd an
34 4
ib le
k er
28 6
nP re
er ite
ĠA f
ĠA DA
v esti
Ġv id
ou rs
oj an
s c
05 74
/ )
ĠA cc
Ġ00 15
Ġgod ine
ĠC enter
nW ikipedia
ic y
ĠB al
ĠH ot
35 4
Ġ37 2
is te
B L
Ġk ako
ĠĠ Ġ
ic t
07 3
ĠU k
) (
Ġ37 6
0420 4
ĠDev elopment
Ġ37 4
ĠL o
Ġ rat
34 7
ĠE r
37 1
up load
y d
ĠEdi tion
0446 3
Ġ45 6
ws er
\" ...
ci al
\" !
st ru
28 7
b r
ar is
07 2
ĠPa ul
201 45
ĠL eg
ĠMotor ola
Ġmonth s
27 8
ĠOx ford
Ġo ut
Ġ42 1
un i
ĠAn g
5 60
L C
ĠH el
N ew
21 03
Ġ5 55
Ġ15 21
Ġ6 60
: \"\
tic le
Ġ137 1
Ġ8 60
ĠD ep
Ġo l
Ġ3 99
ograph y
Ġ 431
35 9
oz of
Ġw e
f fe
041 37
comm end
ĠO ne
ra j
l s
? ...
en ces
Ġd ie
amb ridge
44 4
ar o
40 5
S E
Ġw ar
Ital ia
s ed
A z
Ġ18 24
ĠK ing
? )\
je k
ers ian
ight s
Ġ42 3
and er
ĠĠĠĠ ĠĠĠĠ
18 96
Ġrep ublika
ĠF ac
d r
'' ..
Ġsh are
te in
Ġ 432
ĠL og
e In
Ġ help
, .\
05 31
ch ange
39 5
c w
ci je
Ġ39 1
40 8
0428 10
Ġ17 76
e vi
40 3
ĠComp any
un ter
Ġ40 2
on ia
it z
Fran ce
\" '
av anja
ain t
Ġ5 25
Ġ35 8
0435 0
.\" ,\
Ġ18 01
te ra
20132 0
s App
Ġm is
ig a
Ġ !!!\
35 6
63 0
ti es
) :.\
ĠApp le
zab erite
Ġ40 8
AR T
00 13
Ġa v
oj i
sh ip
J I
Ġc s
ki y
Ġ42 6
0414 8
Ġ35 00
Ġ145 9
Ġ{{ #
ĠSrb ije
ĠA B
ĠE p
ĠLic ense
ĠVic tor
c er
ĠDV D
ces k
ĠAl ca
ĠSrb ija
tis h
Ġs o
Ġp ublic
n title
Ġ{{ /
{{ /
ĠD em
0428 9
re commend
Ġb olje
Ġ40 9
A K
39 2
SubComm ent
Ġ01 3
Ġl j
Th is
ĠP res
3 38
) !
37 9
esti val
Ġ38 9
na uthor
-------- ----
Ġ41 4
ĠE conom
d b
Q L
Ġo ver
Ġ[- ]"}
k ovi
07 4
Ġ00 12
042 32
ult ural
Ġ9 000
ĠA lex
Ġ\\ (
n Vi
., &
29 8
Ġ7 80
ist on
c S
ed ce
6 10
Ġm us
ĠE ar
Ġ17 92
Ġin s
Lietu vi
06 5
u o
34 9
ĠM od
f an
ĠP R
0424 3
040 4
f p
Ġf ak
Ġj er
b it
np ublisher
nP B
ĠV o
Ġ39 3
0425 5
nj ournal
el la
Ġs in
un a
Ġ 445
m u
ĠX P
il j
aj u
P ersian
Latvi e
36 7
unc il
y r
U D
ust om
36 1
ĠAn ti
05 5
re g
v u
0442 2
ĠUn categorized
Ġz n
bb o
ĠC H
ĠEric sson
I CE
S c
v est
ĠH rvat
Ġ38 2
r abic
45 8
Ġ42 4
Ġc ons
39 0
N S
G L
ĠT E
0428 12
Ġs ub
Ġ145 5
4 442
28 3
ĠS ad
nA B
A B
M X
ys is
Ġh ar
ĠC ambridge
ĠI L
Ġ17 18
33 9
Ġ{ \\
025 2
O p
bb zbek
53 0
fcr kiy
ĠI z
5 11
ren ch
0410 6
ce m
40 6
Ġp ok
ĠEdu cation
ĠRob ert
45 7
ĠSerb s
Ġ18 16
nC ontinue
ĠS a
ĠMoja hercegovina
te ll
av i
ĠAlca tel
18 68
w iki
i ro
nab stract
< \
Ġ39 6
nIn ternational
Ġpro f
ĠLib rary
Ġf e
tit ut
Ġ !!!
Ġde v
ĠS loven
Ġm aj
38 2
im ir
0 4442
ĠJ os
Ġh as
- (\
f in
ĠRe view
lo ud
35 2
ĠO f
ĠRad io
d ATO
=\"\" >
ĠS ol
40 2
0428 11
C A
f q
al es
/ -\
45 5
Ġt rad
Ġ4 75
Ġfac to
duc tion
Ġs er
Ġ134 6
t ro
36 2
ti l
co unt
Ġ120 4
28 1
E B
Ġa udio
Ġ00 11
Ġw ork
pl or
ill s
38 8
0438 6
C ar
l ar
Ġ5 35
ff er
e U
ag o
f O
ĠZ e
Ġre c
Ġ17 88
40 1
ĠD rag
Ġ17 50
ee v
42 7
ch er
08 0
la te
Ġab out
Ġ5 05
Ġd om
:: ::
Ġps ih
Ġs av
Ġk ori
k p
Ġ18 03
y u
18 76
h an
ĠB a
inter est
F C
ĠCo dex
D ari
ĠPh ys
Ġ42 2
Ġknjizev nost
w ar
42 8
n ess
ĠFor um
Ġ !!
Ġsp ec
ĠSt andard
ou is
42 3
201319 18
ĠR el
Ġ 442
Ġ44 4
ĠCl ass
32 7
. :\
ategor ies
eas c
ov anje
]] .
Pol ska
Ġc or
.. ...\
n es
ir us
ven easc
d om
en z
* )
ĠR ich
sk oj
Moldo va
. ],
n um
Ġh is
rbaycan ca
re men
M undo
bbzbek iston
ĠH uman
Lietu va
nDe utschland
ĠL es
Ġw ill
l ik
Latvi ja
aA rabic
Moldo veneasc
ĠNam Ti
Italia Italiano
France Fran
fcrkiy eT
nInternational English
Polska Polski
Moldova Moldoveneasc
Mundo Espa
Lietuva Lietuvi
nDeutschland Deutsch
Latvija Latvie
0443 3
Ġ7 47
m et
0428 15
ĠIs land
____ _
Ġon e
064 3
ad o
D R
25 02
g in
Ġ21 000
Ġist or
t n
e h
35 8
ĠGre en
Ġmil os
Ġ41 6
y th
re w
84 3
Ġ6 70
ĠP s
ĠD ef
Ġpo de
l ack
Ġ: :\
Ġ4 76
ĠM aster
ĠA C
P o
I O
Ġ39 4
Ġ48 5
p an
Ġs ize
0415 3
0428 14
ĠS ervice
urope an
ĠS vet
ĠP interest
Ġ 438
ĠE st
41 8
37 7
Y S
nV II
is ti
Ġ... .\
19 06
z n
29 7
ĠS M
5 15
47 0
ester n
P al
ĠD ay
b us
031 3
Ġ42 8
et ing
ski h
ĠCo ol
ost ok
0428 13
u el
u ma
190 4
Ġ4 39
v r
Ġi de
Ġaut ora
v n
Ġ 437
uc k
7 42
0428 18
03 99
sr p
ky pe
ĠC ro
ĠPh oto
upload s
36 9
Ġ41 7
u redi
Ġl o
Ġsv et
Ġpro gram
0428 0
Ġ7 77
19 09
Ġo st
g ed
ed s
z t
ĠM el
0411 5
op er
qu es
? ).
a ma
Ġ17 83
Ġ41 8
R e
ĠX ML
29 1
) \"
20131 2
S K
ĠI D
25 51
Ġ6 84
99 0
ĠM en
Ġsaj ta
Ġ3 98
P or
6 12
Ġn j
Ġ42 7
36 3
Ġ ur
ĠC am
iv anje
06 32
36 6
ĠM iddle
Ġ17 74
AN G
m ark
Ġf irst
Ġg rad
sp ot
c is
42 6
\": \
e um
ĠL ink
Ġf ran
O VI
das opis
Ġh er
37 8
013 0
Ġz drav
m it
ĠM ichael
ĠD ata
at s
?? ?\
er ing
c ul
c le
ĠD om
20141 7
ĠK on
h ip
Ġe mail
Ġw aptrick
g oogle
od i
20131 3
18 79
ual ity
ku rs
41 1
] \"
unda tion
Ġ5 11
Ġ17 70
od y
ain st
Ġg ov
ra ti
ab e
z an
45 3
Ġi d
Ġ01 8
Ġ9 60
ĠB an
Ġm g
ĠE d
ĠJ ot
ee p
nH ub
h u
ĠMan agement
0421 6
F i
Ġ17 97
Ġ/ /\
bo ard
oft ware
il s
id s
Ġ5 90
ĠH D
Ġ17 87
0411 4
ĠPor nHub
dis play
ess ion
21 26
ĠC V
20131 4
nZ a
om as
vir on
ra y
Ġst ar
37 6
s erb
it an
ĠOr gan
ER S
ten s
38 3
ĠP ay
39 3
Ġ 434
nC lick
it or
th ers
18 48
Ġkv ad
O VID
Ġ42 9
>> >
ĠR E
Ġv s
) !\
ĠT rad
? ?\
ĠR ef
ĠM ov
w atch
ob er
d W
Ġ- ),
Ġ4 99
Ġ18 19
Ġ8 20
ĠEng ine
ĠSp ec
nC ategories
0428 16
IN A
Ġ9 25
ash ington
Ġm l
J o
ĠE X
4 441
v as
Ġ6 66
at ur
\" ;\
36 4
Ġ73 0
op e
ĠB alk
Ġb ack
ĠA st
at ing
Ġn je
Ġbe z
ĠT or
Ġ41 9
09 1
ĠHe alth
iv il
49 0
ĠSup er
ĠSp ort
Ġ6 12
024 3
025 1
ear s
ma te
Ġ17 80
c C
ĠA G
Ġv an
27 05
Ġ18 23
olog ia
ri ve
? \".\
d iv
s ec
ep h
Ġ= ==
0 4441
38 4
ĠP ath
Ġwh ich
ĠEncyclop edia
ĠGeorg e
42 1
ri al
Ġ5 15
ist ry
j al
40 9
36 8
ĠT re
ction s
] \",\
es ite
Ġh istory
w eb
k an
Ġ8 02
ar ia
Ġ5 49
ras mus
rat nih
os oph
y pe
ĠG en
ĠO ct
z en
ĠP r
0440 4
ti a
ent al
Ġmet ara
ig ro
display style
c T
ut a
ĠH or
Ġ44 8
ĠCo uncil
__ _
ING ER
p t
\" -
Ġ9 11
ĠFran ce
41 9
d no
ĠS O
ĠUN ESCO
41 3
Ġ* *\
Ġst r
ĠVictor ia
je t
af t
ĠN i
ĠN ovi
T ER
ĠB ank
er g
0432 2
om i
Ġn arod
Ġ44 9
m edia
ĠF rench
Ġp rin
20133 0
ti f
Ġ48 4
ĠD a
ĠM em
ĠC up
ĠCl ub
) /
Ġm or
O W
Ġ50 4
n od
39 6
id es
Ġ----------------- ------------
ĠO S
Ġ45 7
b ol
viron ment
li fe
g n
42 2
bo j
i ft
th odo
Ġ5 32
Ġf ol
19 02
05 3
Ġkvad ratnih
Ġ right
Ġt ako
el le
041 33
18 95
98 5
ĠSt reet
020 8
44 3
ron ic
EN I
, -
Ġpod esite
Ġa ko
ĠM ad
Ġz na
Ġs ystem
Ġn ame
Ġval utu
ĠReal igro
Ġft C
uss ia
Ġm ark
00 16
ĠI st
ĠM ih
ĠC li
ĠO P
p rav
020 3
v ent
E U
Ġ17 94
ĠF eder
and ar
48 5
Ġ4 74
ĠE dit
ak s
Ġit s
in u
ĠS W
ĠS ur
18 80
Ġ48 1
all en
el t
ĠWhat sApp
Ġz bornik
02 15
AT ION
n ey
Ġ 436
is che
n c
ĠL ive
ro vi
Ġ17 96
g al
w ell
ĠC opyright
ĠS outh
Ġ02 2
37 3
ĠD er
000 5
nja k
7 20
Ġk oris
Ġ7 40
X II
' t
37 2
Ġt ar
p end
Ġvide o
Ġ17 95
at her
b l
ran sp
Ġpro ble
ĠNor th
041 45
ĠS INGER
aw es
ĠAN D
ĠSINGER ICA
Ġ17 39
041 320
ĠC al
19 01
Ġph ones
047 9
037 4
Ġ6 01
Ġ4 63
nj i
l ation
if ic
Ġbro wser
y e
ĠF un
ĠMa x
m ore
Ġ title
ar ed
ri v
Ġ4 79
blog spot
ĠT our
h i
06 8
> >\
ĠS CI
0428 20
Ġc it
or iam
ri es
ĠR ock
ĠStud ies
o ung
at ure
us a
Ġ45 3
Ġ0 62
0408 2
l ess
Ġm ogu
m al
es ta
ĠAn al
ĠS ER
E A
w ik
Ġg a
` .
P orn
ur ing
b W
42 9
; "}
Ġl ow
ĠO d
ĠPH P
Ġm ade
ĠPro ject
) /\
\" !\
+ -\
ot s
18 98
093 0
ound w
Ġ16 83
ĠI F
18 67
ru c
.[ /
ĠH ow
.... "}
Ġk oja
est o
en te
ab a
Ġfak ul
Ġ17 37
Ġov de
p ost
in ese
Ġs ite
Ġ44 7
r us
ĠC IA
07 1
awes erb
ail y
18 81
Ġin to
44 9
oundw aweserb
ĠS H
mp eg
37 4
Ġm undi
ĠW est
50 4
41 4
18 94
ig e
O ST
Ġ6 36
' )
T e
Ġm y
T Y
0422 5
ĠM uz
o o
01 28
Ġ7 60
ĠC atal
09 0
da t
ĠTechn ology
In ternational
Ġvi ews
41 7
re y
ru g
y w
ĠW all
OR I
Ġti me
as y
ĠH ouse
41 6
da v
is i
R U
l ay
ag reb
Ġ45 4
Ġ ass
ĠA v
Ġs ch
Ġ17 66
** *\
L D
Ġ17 98
Ġ il
201319 45
0418 6
ik l
os it
- >
Ġ5 02
Serb ian
ĠJ an
ĠO V
Ġ4 64
27 09
c D
ĠB ig
f acebook
ĠS A
ĠD C
ĠD oc
gl as
ĠH istor
ch i
RA M
........ ....
ĠA z
47 3
h en
na k
Ġp i
/ /
ba j
6 19
46 7
5 21
Ġ5 38
ĠI BM
0428 19
ĠL and
? ...\
je v
6 40
ĠS um
Ġknj i
c Y
Ġb ut
4 434
44 8
min ist
ĠWill iam
c ts
ĠI l
jed or
ĠW eek
42 4
05 1
Ġsv oj
f j
I B
Ġ18 02
end er
56 2
Ġ[+ ]
it as
ĠG ar
y ahoo
ĠAug ust
ĠH u
ob i
Ġ10 54
46 5
Ġ44 3
un tu
Ġ=== >
ĠRuss ian
Ġt u
Ġdo wn
ĠFo undation
40 7
en ov
nC OVID
Ġo t
78 0
ci p
cG PL
win ning
Ġ5 27
AN D
aster n
t ar
P a
O J
Ġ12 50
ĠA tt
c raft
ĠV lad
.\" "}
ĠG old
Ġ.. .,
8 02
d Y
5 70
ĠW al
* *\
ti me
om y
ci on
ĠUni on
0 4434
Ġ6 25
er gy
T E
s ter
Ġs ur
0412 3
5 01
ĠE mp
Ġ5 65
66 2
st va
az ine
ĠBalk ans
95 8
ak ing
Ġf ree
Ġ< \
27 13
cB log
037 5
07 5
Ġ45 2
Ġ48 7
art ment
ĠCN N
ĠCent ral
cBlog This
ĠC he
Ġ" -\
Ġg o
nI zaberite
n k
ĠCor por
.\" ,
ĠXL VIII
p ec
ab l
Ġ45 8
} -
ĠY ugoslav
73 0
01 27
n n
% )\
Ġ5 51
in dows
48 9
ĠM S
ĠCh urch
06 42
c ent
201 219
N E
' ..
up a
ĠEn ter
0446 1
b XX
0428 22
ord er
48 7
ĠM aj
ĠPri jedor
Ġm ail
Ġb u
ite t
226 40
01 65
ĠJ apan
ij al
0428 25
rib ution
ĠD al
Ġm u
46 8
Ġ5 22
ĠB alkan
ci ence
m as
T C
Ġ5 33
Ġc ent
S pain
cG NU
n ici
e an
59 37
ĠD A
Ġca p
Ġ4 72
ĠA leks
18 89
Ġob raz
ĠS il
5 20
... ).\
ĠColle ge
ĠW ashington
on ic
he ma
49 5
0428 21
15 00
cem ber
0428 24
Ġ135 0
G C
18 77
ĠH ung
Ġ14 92
enn is
Ġ4 68
ĠH igh
55 5
erv ices
Ġtre ba
l ovi
5 26
te mp
ĠV is
ĠU l
RO P
nV III
ĠC as
Ġ6 90
ĠV el
Ġ organ
Ġc as
01 57
ĠSp ace
39 9
5 65
0428 23
ĠG i
g ent
um ber
Ġv ers
ĠBook s
Ġ( ?)
Ġ8 65
iti ka
20131 1
18 64
d es
Ġ6 16
ĠEx plor
Ġjez ika
ild ren
ĠNov osti
0445 3
39 8
Ġ48 3
ĠMar ia
Ġvel ika
Ġ4 61
Ġbe t
20132 4
Ġ08 00
ĠR az
45 9
Ġp osted
ol os
ĠH P
ob ar
Ġ44 6
Ġt a
eptem ber
Ġ( :
thodo x
V A
6 21
Ġ17 99
ist s
all ing
z z
Ġ15 26
ĠL atin
26 06
be ograd
______ _
Ġ0 51
ĠH y
ĠA do
F il
Ġ; )\
45 4
ibli ote
le g
iv o
ly wood
18 91
0 34
ic u
oris te
vi j
ĠF irst
88 8
~ ~
CO M
do vod
iz z
{{ \
N ET
e ter
m is
n f
18 92
18 82
st ant
ĠP ark
>> >\
us an
000 6
l en
Ġ4 95
Ġ4 62
5 10
Ġc lass
ĠS ave
ĠG ames
Ġp it
Ġbro j
Ġne ma
04283 0
Ġ- ,
g ress
av lje
ern ment
Ph one
[ /
Ġ5 63
ĠP at
enti fic
07 7
Ġ4 67
ĠF er
ar ian
ti k
ĠD igital
48 1
Ġ140 2
47 9
ut ure
44 7
09 39
ĠCon ference
Ġn et
Ġc re
49 3
05 4
ici al
ĠUSA ID
ĠPublish ing
18 90
ĠA L
48 4
Ġb ook
B D
ol ic
ĠB en
Ġ5 75
ĠGr and
ĠInd ones
) ?.
Ġ17 75
tu al
e te
Ġp on
ĠN av
Ġ48 8
48 6
ma g
oug ht
Ġl es
201319 14
ĠC y
rop ol
Map quest
v ers
Ġ7 70
ber t
ĠP age
ĠRich ard
Ġ ut
eg a
037 2
Ġrad ova
0433 1
c al
sk y
Ġ.... ..
ĠV ir
Ġ.. ...
E uropean
Ġ21 00
Ġ45 9
Ġb log
iction ary
18 75
Ġ5 88
Ġ4 66
no te
n www
* .
E x
f X
Ġ17 17
on line
ĠAr h
P G
Ġdr ust
83 0
{: }
C on
39 7
ĠZ oran
b og
ĠIn formation
ĠCO N
ide o
ĠPe ter
18 93
ot her
7 60
ĠM ulti
Ġvo da
ht m
041 40
t z
et te
Ġs lu
ĠRep ort
Ġor ig
ĠC ustom
dal us
F OR
c in
45 2
... )..
em o
Ġn ad
amil y
Ġ5 39
O H
ĠArch ives
m os
Ġ ud
201319 41
k n
Ġ17 68
Ġ16 89
ĠNe xt
Ġ7 10
ag er
ĠMart in
ĠD ec
u ad
In ter
Ġk ultura
Ġ17 77
M B
k ar
ip l
ros lav
ĠH al
Ġ145 0
Ġp res
Ġn ever
Ġn ast
ba t
Ġmem oriam
: -
Ġ6 26
ĠIP A
ĠB or
ĠP and
ĠMar ch
Ġthe ir
nPre vious
Ġ20 26
ĠO l
app y
Ġ01 2
180 4
44 6
ff ice
s m
Ġ6 51
0428 26
Ġ15 20
r n
ĠM P
g le
e in
i os
Ġ7 11
Ġt alk
67 9
Ġplan a
' -\
um p
Ġl ib
Ġfil ozof
0408 1
Ġh igh
Ġg re
8 51
A d
ĠT ra
ann ica
re ad
ur l
66 8
et ad
5 19
Ġte mp
0428 28
ĠEC TS
ce v
C S
20132 5
Ġ5 85
Ġ5 36
ĠS D
ĠJ ust
Ġa ir
ĠSh ow
06 6
ent a
f w
ap er
ĠMus eum
ĠAust ral
Ġ15 50
ĠA ct
Ġ5 18
ĠL anguage
( )
s u
48 8
5 27
T T
Ġli fe
is njak
Ġb ar
Ġv ostok
Ġg u
Ġvo dovod
d ress
S oundwaweserb
t d
Ġ8 80
18 84
Ġd in
2013 0
Ġt opic
Ġ% )..
Ġ4 71
d ke
0428 31
0410 7
ĠK i
ir l
li on
!! ??
/ ]
Ġol ga
k up
ĠC A
ĠPor tugu
ĠBri tish
ĠIn dex
Ġ6 61
Ġdru g
ĠSw ed
e en
20141 99
iver z
ed t
ĠS E
Ġb ilo
Ġd en
ra w
Ġ48 2
ag ram
ro vic
ot ball
p us
Ġ4 73
Ġ16 99
ĠDownload able
ab or
sk im
ones i
d ina
Ġ4 78
Ġd on
01 75
Ġs ome
ĠT em
! ...{
and ra
Ġmilos evic
Ġpoz oriste
6 60
ĠFil ip
Ġs r
og y
n oj
040 1
0428 35
end s
02 18
Ġ50 9
ĠF ile
ĠEn gl
Ġ5 29
ĠF el
\\ \"\
Ġod nos
ĠD iv
Ġ48 6
eder lands
z na
Ġh rvat
ĠE A
Ġ% .
Ġt ra
ĠG od
lick r
M il
p is
Ġ12 82
ĠB ran
ĠR S
ĠSt an
Ġ133 0
0428 27
Ġ4 77
I AN
ĠS am
A O
ĠPC R
7 25
u an
ja va
osit ory
ĠZ agreb
i da
ĠS in
ak on
Ġar ch
ĠMag yar
g ue
042 31
ĠB lo
09 15
Ġ' ,
le ase
X I
ĠR a
ĠSt rate
0431 1
3 020
vis ion
ĠC L
5 90
Ġm it
0428 29
47 6
ag y
Ġf in
ĠB ab
word press
0422 6
Ġw ere
9 29
09 26
Ġdel la
: -\
67 1
47 1
18 88
47 5
ĠBul gar
04301 1
t re
az z
nj kp
nTag s
g round
st av
ĠL ouis
ĠG ym
red nik
ĠDe utsch
0426 18
ĠSp orts
Ġ= \
! \".
b ra
ul i
ĠC er
7 11
Ġ4 94
o de
Ġb io
Ġre lig
Ġ4 93
22 98
ven ska
46 4
ac v
. %
v id
Ġ50 8
je vo
xx x
20141 98
ĠS MS
ĠR h
ra ine
ĠT i
Ġ5 26
nov osti
18 71
ĠH all
221 219
Un ivers
P O
63 9
Ġt ak
04301 9
d ar
Ġ17 72
18 35
3 010
H T
Y U
ĠH ome
ĠM Hz
Ġp og
ol ar
ĠCorpor ation
n as
- %
Ġs red
ĠJ ovan
ĠEU R
led ge
Ġi Phone
59 1
ĠC el
Ġpower ed
E W
Ġ6 11
Ġ5 06
Ġ5 95
1 200
47 4
S ense
Ġrep lied
ĠAn dalus
Ġte kst
ĠC IT
O B
u ters
Ġcomm ent
76 8
in er
Ġc r
Ġp rom
Ġe k
Ġr us
ĠRep ository
ĠAndalus ia
k ultura
0428 40
Ġph il
M E
Ġ5 13
ill er
ĠComm un
ĠP G
ĠG es
ĠGree k
o ta
ti g
Ġ70 4
ĠPro te
0412 4
Ġl iked
n w
Ġ5 37
Ġ5 52
ron g
c O
ba s
Ġ6 33
Ġn ik
046 7
igh ter
Ġp ic
ĠMuz ika
Ġ ................................................................
20 39
Ġa f
Ġ5 21
ĠCh inese
20141 6
ĠJot form
8 40
N et
Ġ54 3
39 4
93 0
041 34
Ġ5 23
Ġ02 3
ĠS C
z am
Ġ4 92
Ġ5 16
IS H
Ġsrp ska
+ /\
ing er
Ġ4 69
ĠCo unt
raz etad
ĠSta tis
77 7
d s
w y
Ġ5 34
ĠD E
an ov
ĠA k
ĠLe ave
je m
ĠAcadem y
J U
06 34
` `
fc l
> "}
V O
ĠF r
Ġ83 0
ĠPand ora
0428 37
ĠGre at
77 4
ĠZ A
ar ad
n by
Ġ5 28
fa ult
AT A
ĠB et
76 7
da ta
T R
ĠM ir
18 97
Ġ00 1
ch a
0428 34
'' '\
ĠEx change
Ġ` `\
le te
at ory
oc al
7 70
Ġ5 17
5 06
Ġ17 58
ac y
96 9
7 63
0428 32
ce ll
c re
18 85
0424 6
Ġ4 91
Ġ5 68
Ġv is
46 9
all ery
5 80
M O
ore ign
W h
Ġ( (\
Ġv ia
46 6
ĠG ran
Ġde m
u ec
Ġ8 70
ĠS he
49 9
: )
00 96
Ġ4 98
n ica
ĠH en
Ġz av
ĠBrit annica
ĠP os
300 1
D K
Ġs vi
U AG
0438 7
it u
Ġ16 48
ĠAl ban
ĠC P
Ġ5 53
ĠT ri
ĠB W
Serb ia
Ġ ul
Ġ8 21
Ġ5 31
.), \
ĠT ube
Ġ9 80
- )\
5 13
ment s
.. ,
47 2
ĠOV DE
20132 3
AR D
ce mb
ĠCan ada
ĠIsland ora
de m
ĠE qu
ĠA re
ĠE s
ĠDis qus
ĠDep artment
Ġ20 27
Ġ12 20
ai rs
D razetad
18 49
ol s
ĠSy ria
in j
n blog
Ġ9 99
Ġund er
Ġ48 9
18 83
r h
Ġ5 45
ot al
ĠTur k
Ġc he
id ent
...\" ,
6 80
ed ija
ĠV oj
ANG UAG
ma z
H O
M C
lj eno
Ġo ther
u i
tic les
0428 38
ĠN BA
ic ine
Ġwee k
01 00
Ġs im
Ġ45 00
ĠCont rol
Ġ5 41
Ġ16 88
ĠSoci al
f ol
Ġj un
NU MX
305 7
Ġb ud
Ġ( ?!
Ġ5 61
er us
7 40
on da
ĠM it
K O
Ġp H
4 3010
ne k
ĠU b
ad es
or th
co de
Ġpol i
Ġ........ ....
Ġw ho
Ġ17 65
ĠG NU
ĠFil m
0 43010
ĠThe me
ĠRo yal
G B
Ġm ic
88 6
75 1
de lj
49 8
Ġ17 84
anje m
erv ed
Ġ5 03
Ġg en
iv ed
ĠC R
ĠA li
ĠCo de
ĠGu ide
Ġ( .\
ĠI AF
st a
Ġ17 20
Ġ16 50
Ġo kt
02 20
Ġ16 87
ju ba
ĠP en
ĠF lickr
Ġ( -\
Ġ8 88
k en
Ġ5 81
Ġ17 16
and s
3 000
041 38
it ary
0428 33
Ġ1 440
Ġ4 96
ĠY our
ion e
20132 8
ĠS V
ĠD aily
nM il
ĠItal ian
e Z
Ġ5 76
ip p
ĠF BR
6 24
0428 39
ad v
ati s
ĠS Y
ĠSec urity
I JA
ĠE rasmus
ĠYou Porn
ĠE m
ĠH R
ĠPol icy
Ġdi ffer
\" ?.\
ĠB I
w a
ar io
042 9
5 05
b E
Ġ5 62
Ġle g
6 11
Ġ9 20
N D
Ġ6 28
ĠR os
ri e
Ġse ks
27 64
5 23
Ġ6 85
ite ra
ĠPet rovi
Ġcri mes
ĠU K
u v
Ġ84 3
ĠJe an
Ġre al
0421 7
ir il
Ġ5 14
ĠV an
P P
bb e
---------------- ----------------
nR e
9 60
p red
le ar
Ġ5 57
18 86
Ġs mo
Ġg ener
Ġ5 44
Ġ145 6
ĠA th
5 02
ĠF i
ĠA pril
v ol
} ,
Ġ5 86
ub er
Ġn astav
6 45
G Y
041 36
0425 0
88 5
ĠU s
0440 3
ir th
. *
Ġ14 63
Ġp is
ĠT A
ĠG RA
li e
itt le
ĠL IST
Ġ5 67
A dd
r ent
221 22
ĠQ R
Ġ5 47
Ġv oj
Ġin st
ĠDe cember
t witter
Ġr u
h ar
95 3
Ġk ri
ĠWh ite
ab s
Ġan ti
Ġ0 69
te lj
Ġn am
Ġ17 64
ĠPs ych
Ġt ri
ĠL ANGUAG
08 5
Ġ93 0
Ġ2 400
Ġ ................................
Ġ7 67
Ġn em
ĠCate na
ĠI ll
49 6
Ġz em
or es
Ġp art
75 5
H S
( ...)
ĠU DC
o om
0428 48
ĠL ast
Ġ6 15
0428 36
ess ional
f ace
ad i
Ġ15 57
, ..
0428 50
Ġal so
t vo
z iv
ro d
Ġk od
Ġ133 1
T eX
an ju
ĠEn vironment
Ġ11 50
ĠM ORE
07 8
% ;\
0428 49
ĠL td
Ġkom un
6 08
Ġ17 78
ro ugh
ĠE spa
0435 8
ma ti
Ġin d
ot re
6 25
ĠTh omas
Ġ ]"}
00 18
202 5
ay lor
Ġn ego
55 6
ĠM ED
Ġp ov
ĠExplor er
8 20
M T
Ġ100 1
48 3
ĠP RI
Ġo ur
Ġ17 85
ĠD onesi
ĠW ith
Ġc entar
Ġv a
ĠS co
ĠAng el
ĠD et
Ġc y
68 4
Ġ134 8
ograf ija
u es
ĠR em
Ġag ainst
ĠE L
: ...
026 3
Ġ5 78
01 02
ĠM ak
ĠFor ce
Ġgod isnjak
ĠSwed ish
ĠE astern
w er
Ġ6 05
Ġ7 87
Ġ00 00
ok i
van ced
Ġ17 40
ĠRec ords
Ġ5 24
P RO
Ġe p
18 56
ĠBo x
b n
it us
am bo
Ġb iti
Ġ5 46
ur t
iv al
Ġ6 02
h l
Ġ... )
88 9
+ ..
ĠL ight
z av
0428 41
an do
20132 1
5 25
Ġ14 39
7 24
Ġ- {
Ġg las
ĠM oz
47 7
ust ra
/ :
i ed
ĠAd minist
ĠPM ID
b x
Ġ145 1
ĠNat ural
Ġsav remen
ĠAnd re
0415 4
Ġm a
ĠF estival
k in
Ġ5 19
78 9
ĠG rada
ĠPol i
( \"\
z ija
ĠN ato
ĠS lov
ĠF OR
d Q
ĠB ol
50 8
Be am
18 87
55 9
ard ian
CO BISS
e av
n ers
Ġ15 94
S L
ly mp
v at
iz life
ĠJ ack
50 7
ĠOct ober
ĠSystem s
we en
18 60
Ġ0 20
ĠI g
5 89
Ġ7 17
m ina
94 3
iv anja
Ġ17 60
Ġ13 95
ĠJ une
ĠAg ency
Ġda ta
Ġ17 53
? ).\
Ġ5 83
Ġdo k
Ġ1 024
p ng
ĠP av
rin t
5 75
ul ts
65 1
c The
18 39
ĠG mb
49 4
ĠS aint
cep t
0428 42
ĠB ur
/ /\
0428 45
Ġ0 66
ĠEx per
bb n
Ġ9 90
49 1
Ġ\"\ "
Ġ6 03
Ġgod ina
Ġ0 34
Ġ7 68
Ġ17 73
49 2
Ġ10 50
ac tion
ĠM os
Ġ17 35
Ġ17 63
ĠS AD
Ġg e
ĠCh ina
Ġ( $
P C
c r
c en
n ev
0428 44
Ġ6 06
Ġz lo
or o
ĠCent re
at re
. *\
5 09
Ġk ra
Ġ( ...)\
89 7
Ġs lav
ĠB it
ĠP OL
11 11
et o
08 8
Ġb l
Ġe mp
47 8
Ġb ran
65 6
up rava
03 92
Ġ0 32
ĠPhil osoph
ĠEngl and
Ġ7 99
ĠAd Sense
ĠU SD
s v
bo ut
Ġe T
ab il
8 10
Ġfakul tet
Ġ153 0
ĠG ov
fo ot
m aster
p ons
RE AD
ECT ION
00 17
Ġ2 200
Ġpl ay
Ġadmin ist
Ġ6 22
SS Y
7 90
0446 2
0428 47
Ġne ed
6 17
ta g
Ġ6 32
ock et
Ġtar get
ĠGym Beam
0428 46
Ġk r
ĠNov ember
ĠB ack
am i
iv ing
Ġ5 48
Ġ17 51
IV A
Ġp ut
56 8
8 80
Ġ6 14
Ġ144 4
f ul
Ġ ill
is ch
X III
am en
b ac
0438 8
Ġv lad
65 5
ĠT O
Ġ5 84
ĠH and
ĠIn tel
ĠK ef
Ġ135 5
Ġright s
da g
m ing
Ġ5 59
ĠChar les
G E
5 34
Q u
0428 53
Ġ132 1
ĠLANGUAG ES
ĠD irect
ĠAg ric
em in
ap s
ĠFran cis
Ġ15 16
Ġ17 86
ch an
cc v
8 70
55 4
iz am
Ġg et
ta tion
F P
F A
te st
ĠB Y
ĠL ea
18 00
is chen
? -
ĠI van
, )
c tive
ĠAcc ess
\\ )
f ri
06 23
ĠR et
ĠSp ring
ĠQ ue
BB C
Ġist ra
7 15
ĠD ut
Ġn av
c x
AR H
Ġ5 82
86 8
e ba
Ġ5 42
90 4
79 3
201419 45
05 2
Ġ( '\
80 4
im edia
an as
ĠD ictionary
Ġna uc
Ġ138 0
Ġ~ \
S O
Ġ4 97
ri k
ĠZe it
d j
t op
Ġ6 55
5 29
J avascript
p ris
ari us
6 42
Ġ( *\
Ġ6 41
ĠM ain
ĠGmb H
5 95
ĠT vor
Ġ\" ...
0428 52
ĠM W
de pend
Ġk ada
EM PUS
5 48
ul es
ĠFran k
f el
Ġ18 000
ĠKef alo
Ġ5 89
ĠB ra
! ..
55 1
20 70
eb izlife
Ġer ror
st an
f bd
Ġj av
R ad
Ġ17 81
57 9
ĠT ennis
Ġ6 62
Ġ[ ].
9 78
Ġ6 27
Ġ6 08
A Z
W orld
!!! !\
b u
ĠV as
em b
67 4
p en
, (\
EE E
10 80
ĠK le
Ġk ol
67 7
ĠP L
ĠE D
ĠF rom
w orld
Ġm al
Ġd j
ĠComm ents
/ ?
un o
s en
ĠCon f
89 3
m od
18 61
0435 24
40 00
048 6
18 41
F T
8 01
75 4
138 9
Ġ6 39
9 20
0428 51
Ġbe ing
ear ning
ĠDis c
ĠPre vious
6 06
ut o
5 92
he im
ul us
46 2
ĠTvor ca
R u
h al
Ġg roup
angu ages
6 70
B o
an da
ĠA T
Ġ60 4
57 3
ĠMat hema
Ġx Hamster
ĠOp er
Ġ6 35
20132 2
B eta
20 2019
Ġ5 66
ĠE P
ĠS ub
ĠM as
ĠM u
Ġs ig
ĠW ork
Ġb re
n ec
0428 55
ĠAward s
i dae
ĠCh ic
Ġiz vor
ĠG B
C l
ad ov
z l
z y
our ces
ĠUk raine
Ġ9 40
Ġs ad
Ġs eptem
Ġ142 7
rb ija
55 8
0428 54
18 15
N o
it ation
6 46
04284 3
Ġ ??
Ġm ol
ĠFil es
ĠL os
Ġ5 93
ri ke
ca t
c P
Q U
5 61
ĠG ener
og ue
0435 7
Ġl ong
Ġ ????
01 26
Ġk omp
ĠR ights
64 3
/ ?\
Ġm ate
18 70
ĠSER BI
18 69
65 9
M W
Ġz ap
ĠAn ton
p ou
ĠH an
% -
d ia
0434 3
58 4
18 74
4 3020
0 43020
5 35
ĠK S
-- -
Ġ+ +
Ġ20 000
Ġ5 99
< <
fi ed
ĠG er
ĠDO O
% );
K os
0428 65
03 02
69 7
pe ed
ĠAr ts
Ġ14 85
ĠL az
ĠTo day
5 76
5 32
ĠA ff
06 9
Ġ01 4
ĠPay Pal
202 7
Ġ5 77
g od
l ia
Ġ6 07
ĠR u
ĠS I
ĠSec ond
ĠAR T
ag le
Ġk ad
ele ct
5 14
18 42
ĠK al
Ġ________________ ________
033 6
n ic
in ux
ĠRep ubl
ĠS F
ro z
sk u
8 08
E K
d X
ri je
li es
is on
Ġnje gov
Ġ8 10
Ġp es
ok ies
n http
op s
ĠP A
6 02
h od
Ġh uman
Ġ173 0
Ġ17 79
ĠK N
ĠRo ad
00 83
Ġo vo
Ġm at
ĠCh ristian
nN ext
Ġ6 31
ite c
ĠAs ia
042 20
eS t
48 2
Ġ ran
ĠA ge
el o
3 046
Ġ15 70
ĠG PS
Ġ55 8
iz a
88 2
? ;
f Y
ĠS ara
59 6
ĠXL VI
Ġus e
5 28
att le
ĠE F
Ġanal ysis
55 7
Ġ7 07
Ġa u
Ġ140 01
183 0
Ġ5 87
Ġj anu
Ġn m
z u
p et
ut t
8 11
05 9
ĠT ar
Ġk az
T D
Ġf re
201419 18
Ġm en
85 8
6 31
20132 6
0428 58
/ %
ĠX NUMX
ĠVol ume
tell ig
Ġ6 09
Ġz u
ac ion
ĠN ight
55 2
ĠMod ern
ca p
v ey
201 22
Ġ6 13
B O
78 5
nG oogle
0428 56
ci pl
................ ........
7 12
W eb
0441 3
0428 59
Ġ17 45
65 3
Ġch ar
l ight
ĠC u
7 29
ia tion
65 2
C a
Ġ6 21
Ġ11 070
88 4
Ġist raz
08 9
ad y
em bar
75 3
pe ti
ip s
5 24
Ġ7 27
: --
ĠE th
ĠS ing
v ala
Ġ137 7
5 41
ĠP ra
ĠU rb
Ġ7 90
or ies
Ġl ic
0428 60
Ġ6 75
!! !"}
Ġ8 26
om la
eri od
ĠB og
55 3
olu tions
in ski
ĠF A
el j
ij an
f ield
6 61
A nd
S H
ul s
Ġlj udi
m ir
201 44
Ġ5 56
58 7
5 31
an ish
Ġp ass
12 82
tic us
itte e
5 18
do v
6 75
Ġq uality
ug o
R AN
p k
Add ress
ĠM D
ĠM I
09 47
ea u
SS N
ail s
0428 63
8 60
w eg
Ġ17 69
18 72
==== ====
9 80
Ġ0 37
ri an
UT C
ĠU DK
0428 57
ĠS eptember
Ġ5 64
da ja
Ġcol or
allen ge
ĠH ills
Sh are
Ġ( ).\
ĠS oftware
Ġ+ ,
ĠEn d
Ġne k
oug h
l us
5 33
Ġ8 11
ĠC EE
ĠT el
Ġmed iana
Ġ00 01
Ġc er
Ġan y
ĠMil an
UC N
5 67
ĠT ro
I ES
5 42
it ch
Ġde f
NO ST
? '
Ġl ist
M ag
ti ll
nC S
ic rosoft
qu ote
Ġ16 60
95 5
: ----
o ff
on om
Ġb an
Ġ text
ĠT aylor
Ġt n
op ol
ĠElect ric
Ġ8 37
ub le
ve k
Ġ __
Ġ-- :----
Ġ--:---- :--
: ."}
0438 9
ĠMov ie
Ġ ent
an cial
Ġ134 9
Ġ6 77
18 66
is tem
Ġk ar
86 2
Ġte le
B G
ĠR AM
Ġ65 4
ĠSci ences
ĠMag azine
Ġ7 18
ĠM ess
09 9
ĠSer ver
Ġ13 45
at ar
67 3
ĠUS B
Ġi h
ac he
Ġe gy
Ġ55 4
ibliote ka
Ġk u
Ġ6 17
ĠL et
75 2
Ġdown load
Ġ ing
ĠBl ue
3 027
042 40
7 37
Ġ5 79
Ġg l
ebru ary
18 47
ĠBos nia
6 01
8 36
c L
ca pe
ĠB ill
6 16
b re
8 06
Ġos nov
on ian
ĠEar th
Ġ5 73
! '
5 36
O r
ĠC lin
27 53
- .
Ġl ike
58 2
Ġo k
a Q
ĠN ic
te k
ĠCent ury
ĠW omen
59 7
031 1
0428 64
Ġ6 42
ho ut
Ġ0 31
ĠV ideo
**** ****
Ġp atri
5 17
lo ok
iti s
? ..
Ġm nog
70 4
8 67
z ik
um en
ĠNat ure
cemb ar
Ġ143 0
ĠK om
est ra
Ġf ebru
aw ei
Ġ6 19
ĠI v
nM oja
02 12
ut or
com e
60 4
ĠAdo be
ĠC la
ĠW estern
ki h
Ġ art
ar ka
ni e
20132 7
p lan
ĠS av
Ġ8 90
ĠD un
0420 5
do wn
ĠComm unic
0 387
ĠW ater
08 6
be t
ate gory
ĠMi roslav
Ġ ?!
te le
Ġ17 41
ĠB ojan
68 1
58 1
ite s
ĠAn n
5 86
r ts
ĠEn ergy
z m
0435 11
0428 66
ĠG ood
ate s
Ġ5 72
18 58
Ġh om
ĠRA ID
z ant
eC h
184 3
Jo hn
de t
ĠW EB
ĠB io
ĠK n
H R
. ?
ĠB and
ĠV ers
ph y
way s
78 7
lin es
Ġpe ople
Ġ6 23
ĠC SS
Ġ7 15
Ġ17 11
Ġm ost
57 1
Ġ17 48
im us
Ġ121 7
ĠEuro p
EO GRA
E l
22 22
as te
ĠD en
it ar
ver y
Ġp ress
88 7
ĠPar ti
Ġq ue
ĠSan ta
D I
ĠIns titut
ĠAtt ribution
0428 61
0428 68
n th
??? ?\
ist oc
0435 9
Ġ01 5
ĠInd ust
6 22
Ġ ten
Ġ17 56
Ġi f
ak i
Ġ- (\
ĠY outube
ric e
anu ary
Ġ7 57
Ġ12 80
Ġa pril
0428 62
ĠT est
5 22
s vet
z ren
Ġi OS
{:} {:
65 4
y an
ri ja
sp ec
b s
k os
Ġ6 18
ĠL ex
95 9
20132 014
20135 0
le an
Ġin cl
6 05
Ġe qu
ĠB on
Ġ+ /-
6 32
P M
Ġ120 00
ĠLink ed
j ana
Ġ5 97
18 13
78 8
ea k
Ġ17 67
, \"\
in ac
57 2
ch t
ard s
Ġ6 29
ĠC ur
ob ro
z v
0442 3
or ia
ĠJ ac
st ar
we et
W ik
ĠO ri
89 1
046 2
ol as
fer en
jen ko
por ted
ĠGu ardian
st r
W W
c N
ph a
c ing
Ġ16 92
18 65
b id
Ġs erb
ĠBer lin
ĠN astav
Ġ5 71
] :
Ġ15 000
Ġh oc
stru ction
ap i
Ġnj ih
ab ility
76 6
)) )
n https
78 4
m ary
Ġvi ew
ĠSte ph
0428 67
Ġo per
Ġ5 69
r il
3 044
4 438
j es
t us
Ġ7 25
Ġsrb ija
Ġproble m
18 21
l ju
ĠPh ot
ĠP ort
100 7
ST EM
7 26
ĠS ky
89 4
D IR
ĠO lymp
79 1
038 4
Ġ6 65
iv i
Ġu redi
: \"
Ġ15 60
o a
oz ic
lobo dan
ep arh
Ġdo c
0426 0
Ġ17 52
De utsche
ĠGree ce
nMil jenko
8 21
an te
ĠM M
ik u
ĠCh amp
lj en
M y
d ni
ten eg
ĠC F
0428 70
- ),
Ġ7 49
Ġ15 19
nS rp
Ġ6 24
dlan ak
nMoja hercegovina
6 67
iverz itet
Ġt here
5 45
. ].
K on
5 85
6 35
p age
Ġm art
olog iju
M an
Ġ134 7
9 12
Ġ00 7
od or
0428 69
ĠT w
Ġ6 45
0428 71
ĠC s
ĠP od
Ġje l
im en
im ent
ori al
S ch
18 63
3 013
ĠP S
F F
h ol
ĠEngine ering
is tic
Ġk os
Ġy ear
ER EF
ĠRe uters
Ġn ews
Ġ5 74
59 3
ĠSm ith
041 35
ild ing
f l
0 4438
5 44
ich te
ven tion
ĠG mail
... /
ic ht
le de
0412 5
Ġs al
os loven
98 3
20132 9
Ġ5 92
Ġ15 36
0445 17
ĠT EMPUS
95 4
ĠW C
m g
Ġ edu
Ġ( )\
7 18
d na
ĠO C
ĠXL V
Ġ7 32
Ġb alkan
Ġ17 82
Ġs y
f lu
tt o
0 201
6 28
ĠF ar
ne z
: :\
57 4
f Q
ĠXX III
F S
Y Y
Ġda y
ani el
ĠEdit or
7 75
Ġ !"}
Ġ: .
I KA
0426 8
ĠDO C
ĠS ORT
ĠJ as
78 1
5 47
ir es
Ġhar v
DIR ECTION
Ġ8 211
ad er
da p
ĠInst agram
ĠJul y
ĠIndones ia
Ġd rag
IS C
, ..."}
Ġ17 71
in n
ĠDe utsche
ĠJapan ese
\" (\
Ġ16 10
7 17
ĠK M
86 9
nI X
ours e
09 5
Ġ23 00
Ġ16 40
ac ter
OL OG
Ġ15 40
ĠM edi
ĠL ev
l t
Ġ6 72
ĠEN GL
Ġ17 62
13 00
8 52
Ġk ultur
Ġon da
ĠSt yle
05 8
V M
88 1
3 028
18 73
ĠMih ail
ĠB ell
5 000
5 39
6 34
m ic
20132 016
2013 40
ĠR oll
Ġt aj
un ch
b ed
ing u
c R
is an
ann el
7 14
Ġl ink
crip tion
7 45
9 15
it age
L O
ov ery
7 95
ĠTe am
X IV
f al
ĠP i
Ġj ul
Ġm edia
ĠStud y
ĠL XX
eb en
ĠSim on
0428 72
Ġs um
ak er
8 75
0414 6
ĠA rs
ati o
h op
Ġ17 49
ĠC amp
045 0
an ti
ĠI EEE
0410 8
ĠF ood
ĠVi ol
. <
5 88
o y
Ġs kype
Ġl juba
Ġ135 4
4 345
om et
ĠL ook
ĠY oung
0443 0
Ġ9 70
Ġb ude
ens us
5 03
H A
p y
p x
18 50
ĠUb untu
ĠJE SSY
Ġ( !),
18 44
ĠO K
te ch
Ġ5 91
Ġp et
Ġokt obar
Ġp om
ĠR us
Ġrad i
ĠS earch
il y
Ġ1 199
ĠD J
9 01
0418 4
Ġ7 12
fo je
ec k
ĠS ong
ĠN ations
ound s
alling rain
ter n
ikip ed
( (
Ġp al
Ġv ar
Ġl ight
Ġl atin
io us
cus er
Ġ15 71
Ġ16 97
Ġi g
Ġ17 15
c ast
042 45
ustra ted
Ġk or
ang er
ĠNA SA
e ks
ĠComm ittee
Ġ142 0
mer ican
- ..
3 017
Ġ8 85
Ġk B
ĠTe xt
s ic
s oci
Ġ7 24
iz acija
Ġ" "}
ĠMed ical
ĠENGL ISH
S EE
in ki
cs ession
0415 5
... ]\
ĠC ine
ĠR OM
7 38
ĠB lu
l ast
Ġs ex
as c
i que
99 7
, (
0428 73
ĠL y
59 4
Ġ--- -
itera ture
Ġp age
3 025
Ġ14 76
06 37
ĠP ers
ĠW y
foot note
Ġo m
ra k
Ġ140 3
N ews
c or
is p
07 9
Ġn ep
Ġ140 5
ĠS U
Ġk ey
Ġsp ambo
5 46
p ia
do s
ĠHol lywood
ĠCIT EREF
is lav
Ġap pe
st ven
Ġnet work
0 4345
ĠM ass
Ġc ulture
ĠEx press
r and
ĠC ir
137 1
oper ation
8 25
c Q
5 98
ĠS on
18 52
Ġthe y
ĠOr thodox
b ro
Ġ145 8
Ġsup port
8 42
Ġn ow
serb ian
6 03
0414 7
ĠGerman y
6 09
, !\
h ard
6 18
Ġ17 21
Ġo cc
6 85
ĠUn der
0 2021
S QL
.... {
li o
Ġ170 4
ze ch
n x
ĠComp uter
Ġad dress
Ġfil m
ĠSim p
6 26
] )
sp c
ĠPe ople
! ?!
- /-
T RA
n ad
z ar
Ġ17 59
ĠE dw
Ġe m
ĠT ag
Ġt op
S te
ĠP ocket
be c
20132 010
3 02021
75 7
76 9
pe k
port al
ĠS N
ĠR SD
I E
6 13
Ġ17 14
in et
0421 8
ed om
Ġis k
7 07
Ġ7 14
ĠL ong
ra tor
Ġst yle
ĠPo int
9 10
Ġ5 98
ok ie
6 15
7 06
id en
l ub
ov ac
77 2
Ġto u
6 07
0426 19
... ?\
ĠP oz
0428 74
ude fc
Ġ17 10
18 59
66 9
3 024
Ġ13 90
fa j
ĠXX II
b es
56 9
ap a
ĠP ack
Ġe le
IS A
i fe
Ġ5 96
ĠW olf
ĠB O
68 7
Ġ[+ ]"}
03 00
ave z
in je
l on
Ġj oj
4 302021
0 4302021
Ġ ?.
ad t
33 98
Ġh al
6 44
Ġ7 06
ĠS ervices
ĠC ivil
Ġ101 8
Ġph oto
Ġ15 12
6 90
02 13
Ġs ci
76 2
3 002
R EM
Ġ14 60
77 1
ĠF ox
Ġkomun ik
5 49
M i
Ġ end
Ġkom entar
6 38
G e
es te
ĠJos eph
b um
eparh ija
7 36
9 70
ĠE ss
68 2
IG N
te gra
M I
9 46
2014 3
7 47
d z
Ġf el
ay u
P re
ĠFri ed
ĠS et
78 2
6 48
l it
202 4
18 40
ĠHu awei
5 37
g g
0428 80
ĠP O
Ġ100 000
Ġ75 4
O ffice
Ġo ko
Ġw hat
h ot
Ġsh ow
Ġ16 86
ev a
nM O
048 5
Ġ17 02
ri m
Ġd ana
enti a
y er
Ġ17 55
Ġ14 98
ĠF ra
Ġ32 00
ĠK ey
ĠE c
75 9
Ġ7 65
tro duction
lic ation
18 62
` `\
ĠS v
ĠV in
10 02
ah asa
ĠJ el
Ġst atus
land ia
Ġ6 46
N ext
i ter
Ġ7 05
ĠCh ildren
Ġc ond
5 83
s up
ud s
ĠK ore
RI G
7 21
101 9
Ġl and
89 6
ar um
ilj ana
ab les
Ġ6 38
75 8
0000 1
ĠChic ago
09 6
og ni
ĠSY STEM
Ġ( #
Ġ8 63
ĠSt art
Ġk now
aks im
v ille
ĠC AN
ĠB ay
ĠeT winning
J O
76 4
77 3
ĠB ern
99 8
06 35
ĠD ra
Ġh omo
org e
ĠIL AC
Ġm oz
erb ia
ĠC ER
ol j
4 340
0428 75
65 8
vo je
Ġ17 36
ĠN u
ram ew
) \",
O UT
c H
69 1
ĠBrit ain
ĠH om
aw a
AC CP
SP Z
ĠBro wn
Ġpor od
ĠLea gue
on to
Ġ6 37
in ion
ĠV ar
Ġe xt
v ari
ĠI UCN
Ġbet ween
0428 76
Ġ17 57
Ġs ervice
fe ct
L AT
0445 4
Ġ27 00
ĠD ar
K E
Ġm ulti
ĠL en
Ġth an
vod ina
ĠNik ola
7 13
o S
ikl op
7 16
g ust
ti um
re p
Ġ5 500
... ?
26 65
74 3
ĠC loud
08 4
78 6
ĠAd vanced
ĠW ik
Ġh ogy
s ve
Ġ7 63
on de
Ġs ada
ri j
Ġfor m
8 33
09 7
99 3
0428 77
ĠA BC
P R
0431 3
04141 1
uz z
Ġres erved
ur us
la in
ĠPop ulation
a Y
Ġ15 28
res a
ĠS ig
ĠR at
ĠO ver
q ip
/ (\
ist o
7 32
G oogle
o tis
Ġ8 25
es i
ĠC all
lin k
Ġh ow
/ ;
F allingrain
c as
Ġ20 35
Ġ7 35
ach ing
Ġ7 42
ĠProf essional
Ġan n
? \".
Ġ17 01
av y
In s
5 66
ĠS pain
ĠProte ction
ĠJ ugoslav
79 6
0 4340
c op
Ġst o
Ġ144 8
is ed
ĠO R
og l
mb ol
Ġz v
eri al
Ġfebru ar
a fo
Ġb ih
95 6
Ġistraz ivanja
03 97
Ġ7 22
Ġb it
ĠL as
Ġprof es
im i
Ġg ot
Ġ7 31
Ġ13 96
el jen
Ġ6 34
ĠH z
ĠRaz govor
02 35
0428 78
ĠW ild
Ġm ov
X L
ba e
ĠD ist
aoj oj
8 15
na j
0410 0
Ġ15 66
or sk
ĠG ame
ĠSci entific
ĠF uture
fc n
:::: ::::
C T
s g
Ġ16 20
Ġ1 025
umb ers
ĠEconom ic
' :
ir it
Ġ8 67
ar p
ograph ic
7 33
25 88
20136 0
let ter
vez da
08 3
Ġd ist
Ġ\" ...\
7 99
Ġp rist
Ġa va
Ġv irus
0425 6
at ro
srb in
6 14
ud es
Ġe in
8 05
p oz
w ords
0428 83
0428 79
ĠA uthor
ĠY outh
z h
Ġ6 49
Ġ17 025
ĠD ays
ran a
Ġst var
ĠMo del
7 05
ĠC ross
Ġ138 1
Ġknjizev nosti
78 3
75 6
sp an
Ġjanu ar
k k
0417 1
ĠA S
Ġ.... ...
\\ \\
18 24
ĠL j
0442 4
Ġ[ *\
AD A
ag en
ĠH am
0425 7
Ġ17 25
ĠC ulture
nT o
M e
ĠK now
oj o
ĠD eb
ĠV u
ĠHe art
Y ou
Ġ6 56
ĠC ard
, -\
Ġd iv
.. )
0415 0
ac ht
hel l
va te
Ġnov embar
ĠS ir
ĠA ction
04301 2
037 6
Ġ9 12
ĠY ear
Ġz bog
4 3027
0 43027
Ġ7 51
Ġ11 80
er cial
AR I
ought s
Ġ16 49
09 32
Ġ6 44
ĠD ance
ĠH E
us ion
Ġ00 18
ĠA bout
eiv ot
% -\
ac cess
ĠH on
AN JA
Ġ163 0
95 7
ens ch
_ {
Ġ8 12
re ement
221 23
vij esti
G lobal
ĠLe k
5 64
X V
ĠH ead
ĠComm ission
X IX
99 6
p ut
Ġ15 27
Ġ26 00
79 4
v ed
Ġj ournal
IV E
rk va
Ġw o
ĠMa il
# #
B ENI
Ġseptem bar
0428 82
Ġ7 21
Ġgov or
ĠAff airs
Ġco unt
Ġfol low
adov no
s rem
ĠCEE PUS
5 38
n ROP
Ġaf ter
ĠTo ol
ier re
ĠN ederlands
ĠL jub
Ġb es
7 61
0432 3
Ġ17 61
li x
arch ive
ransp ort
0422 7
Ġ17 22
Ġc f
Ġdiffer ent
d ing
Ġ9 88
ĠR ap
il able
ID S
gra ph
Ġ17 26
6 29
Ġc al
98 9
k at
z ent
ĠA qu
ĠP ic
RO M
0432 4
Ġ9 10
ĠG rad
ĠPhys ics
ĠS l
ĠM is
us ta
Ġst art
Ġ7 41
Ġt ag
0428 84
Ġ9 55
il ic
ĠE le
8 17
W indows
Ġp an
C ol
Ġ7 08
Ġ0 61
ri x
Ġt oga
Ġf a
4 3013
Ġ5 94
0 43013
CO VID
Ġmod er
h is
Ġ12 34
ĠM O
Ġpar ad
ramew ork
Ġ6 81
ĠN IS
ĠTe ch
gent ina
8 12
Ġ28 00
ĠV en
lic h
Ġs ud
bo t
98 8
ĠCro ati
7 35
u u
ny e
6 78
B F
Ġ10 20
Ġop en
6 23
Ġ14 94
ic ian
ĠB ut
ĠZ a
Y o
depend ent
ĠRepubl ike
3 093
T U
Ġs ee
ĠH appy
6 33
0428 81
Ġ6 48
de k
ĠW iki
ĠN ova
5 77
de vi
io que
ig er
3 031
ĠF ield
Ġ119 8
ĠE S
ĠF est
ran g
rain ing
0428 86
0428 100
ontin u
tellig ence
ĠF oreign
ĠIn fo
Ġ6 67
Ġ7 75
Ġv r
Ġna u
________________________________ ________
Ġ6 52
ĠAut o
87 3
ĠSp anish
olog ie
ali for
v aj
Ġ7 91
ĠP RE
04301 6
Ġima ge
9 76
N C
ĠM ol
Ġz aj
8 90
T o
c F
in ary
Ġm er
as i
04301 4
weg ian
Ġbe en
ĠC our
ĠN ow
ĠSt ory
lad en
M a
3 023
0426 7
is ad
Vi ew
0428 87
ĠC ast
Ġ01 6
, ''
: +
b on
ul ta
f A
ĠJ ones
20133 3
if ied
0446 4
ĠM ary
ja j
ĠUrb an
Ġc all
la w
5 78
8 07
Ġ17 03
08 2
Ġ........ ..
ĠLinked In
ĠG a
Ġ119 0
Ġpar ti
ĠWW W
Ġ7 45
Ġ17 33
iv osti
L I
18 51
Ġc u
or ary
17 39
th ur
03 05
ĠG et
Ġ64 3
i tional
w ap
us k
Ġc os
Map landia
ĠD at
k ri
Ġ7 02
ri um
ĠNe bo
ad s
am er
AR E
dit anjem
5 63
0428 85
Ġ6 63
Ġ144 3
do w
ĠD ru
AN I
Ġ137 0
'' )
6 27
d ko
h y
ĠV a
Ġ6 59
da o
ab ase
id ual
ĠD ark
Ġ[ *
Ġi P
RA V
om ir
ĠOrgan ization
e ave
ĠF air
D S
Ġp m
it hout
olog ies
ĠI de
ash ion
ĠPublish ed
8 48
Ġ6 78
Ġ6 87
ĠC AD
ed r
and i
Ġinter national
ĠL ist
ĠN em
Ġdru gi
W ord
Ġorig inal
ĠStrate gy
is ten
08 7
88 3
Ġ.... .....
Ġt ro
ĠN O
Ġsp ort
Ġdis c
ar ije
ac iju
ch ichte
4 3028
Ġp our
95 1
95 2
Ġknj iga
0 43028
c lan
02 21
o e
Ġ8 91
ĠSt ra
ĠFo otball
Ġ15 80
sk enov
ĠGu y
ĠT es
ĠK ultur
d nik
ad u
rav el
9 11
) ).\
0411 9
ĠSt and
Ġistor ija
0424 8
ĠF I
08 1
Ġ6 68
ĠM ont
ĠO ld
04131 1
Ġ( !?
02 14
ĠM E
H e
Ġ16 06
ĠW orks
ĠF act
Ġ78 000
Ġ8 05
18 33
ra vo
ĠU P
ĠK r
ĠDe fault
028 7
Ġt wo
ĠG ro
ult y
0428 95
Ġ6 64
Ġv it
17 18
f on
Ġo g
Ġ17 13
Ġbe l
Ġ1 435
01 24
06 49
lan a
Ġ'' '\
Ġ15 37
ĠS or
ĠS LU
ĠA da
yn am
6 63
Ġm as
ĠD YS
ĠAn th
/ ),
ĠT rib
ed o
Ġde cembar
8 66
ĠS ve
7 27
ĠB at
16 00
ĠArch ive
Sc ore
h in
0428 88
gl es
uz ej
7 22
G S
01 17
Ġ6 57
Ġo ba
77 9
Ġnast ava
02 36
Ġk at
ĠBulgar ian
ĠN ap
Ġ141 2
Ġen g
Ġp f
fo ja
ĠMed icine
ĠVlad imir
8 45
20132 012
ĠFl ash
m el
0410 19
or f
ĠP ass
Ġn y
0432 6
Ġ16 85
ĠM ate
\" >
Ġ8 15
Ġw ater
at z
Ġb ol
7 41
7 23
ĠT xxx
ĠN ot
8 09
U p
en c
ac ters
Ġm og
tor s
: ,
Ġ1 441
Ġ! ?\
EN CE
ĠOr to
eiv anja
ĠStatis tics
18 32
0428 94
ĠL earning
Ġ; )
ima pia
ĠLu ki
N e
18 53
ĠP ink
Ġ131 4
ĠS ee
7 28
99 1
k tiv
Ġin form
Ġ119 6
Ġte st
8 38
ar ticle
re ich
ut ro
________________ ________
ĠLog o
M ed
ĠF ebruary
Ġ140 4
Inter net
Ġ8 45
ac c
ug ar
Ġ174 3
ĠJ anuary
8 22
Ġ6 53
D N
041 450
ĠChem istry
Ġ8 62
im al
0443 6
\", \"
ĠD j
ĠN Y
ib or
ett ings
4 3025
ĠH omo
0 43025
Ġ17 07
037 7
ĠPart y
B EC
b O
0438 11
Ġ15 41
.... ...
201419 41
Ġmi ra
09 24
mi um
8 29
Ġ7 85
ĠA ko
ĠStud io
Ġ ess
ĠH ill
Ġobraz ovanje
ĠS qu
18 54
Ġm es
79 7
ĠM ur
h ov
Ġn ag
ĠDownload s
4 3017
0 43017
T F
Ġ7 13
Ġp at
ĠB A
op en
ĠSm art
9 95
C L
an al
Ġda s
Ġ145 4
IT Y
in y
ĠE xt
rac tice
Ġ132 5
9 40
9 22
ĠS ab
ĠO rig
Ġqu o
Ġmic ro
ĠB ru
ĠB EOGRA
uds man
Ġ13 92
Ġ141 5
6 95
Ġp eriod
ch o
n XX
Ġ17 12
ma x
< .
ĠB ad
Ġpri m
Ġ6 47
ĠV es
ĠForum i
B ar
0428 91
AL E
) |\
K I
Ġs ol
ĠF ant
Ġ17 23
az i
20133 1
6 96
Ġ7 16
av en
Ġweb master
7 65
U SA
an ovi
as tic
Ġ11 89
Ġ6 73
ĠAnal y
7 19
ĠS em
18 18
Ġ141 0
ĠIC T
9 27
Ġ20 28
4 3024
0 43024
ĠO T
6 98
ĠI r
Ġg oran
201319 44
ĠSpec ial
0442 0
Ġ16 09
ĠD rive
ĠDem oc
6 47
8 26
p w
Ġ6 88
al ity
iz er
uk ad
P N
m ond
ba te
23 02
20132 019
Ġmus ic
Ġ000 58
eg el
+ .
Ġ13 91
ĠM ik
6 49
W A
s te
co in
ĠP rav
ĠZ oom
nK a
ĠArch ived
vac y
8 14
0428 89
Ġ12 36
ĠIN TER
Po int
Ġraz voj
Ġ145 2
ĠAR M
8 46
ĠJE Z
Ġ1 030
ĠR am
ci te
Ġ! !\
nth oughts
09 8
Ġn ar
ĠYugoslav ia
skenov ine
Ġ16 67
Ġse k
ĠL E
7 76
sch aft
Ġg ood
ac es
he t
ĠG R
04281 01
M o
Ġ7 53
ĠJ er
Ġs em
ĠLe h
n l
Ġ6 98
. ?\
k og
Ġc lan
ab led
ET A
6 65
ĠS K
ĠD H
ĠL ittle
Ġ131 6
uni or
9 13
m obi
Ġ17 38
M M
ĠP ap
ĠO m
' ),
k ey
0411 16
Ġ8 64
Ġ+ ++
Ġtrans lation
ĠOC LC
uro p
85 4
Ġ1 010
ĠL ov
Ġl os
enes is
P ar
Ġ 040
Ġn acional
yth on
0441 4
Ġ8 79
im it
ind er
???? ????
Ġ ................
ĠR EP
Ġh o
7 01
Ġn at
Ġz el
7 31
Ġw ord
la ti
conom y
6 36
Ġ7 33
Ġ16 80
ĠK IS
ma tic
20132 013
0410 9
ĠB EL
ĠTurk ish
7 39
0422 8
ĠAlex ander
eljen ska
nI SSN
ĠT R
Ġm oj
Ġy ears
9 07
il je
Ġw ap
Ġ\" (\
Fil m
3 026
Ġ16 12
ĠS ea
Ġ13 35
ĠH eb
e ti
N ov
en ad
ĠCh allenge
Ġ101 5
pou ke
7 46
8 32
M et
p u
p od
09 38
Ġk i
ou v
ĠOut look
w ah
F O
m k
ĠD NS
ĠSlov ak
ĠS QL
Ġ123 0
ĠNastav ite
K B
Ġv es
Ġ6 91
ic on
Ġna uka
9 2020
S ARH
ĠS ar
P an
Ġre t
Ġsch ool
2013 35
0428 93
ĠP red
ĠSpring er
\" (
temp orary
L inux
ce t
0428 92
ri er
6 99
ic in
ĠR IA
Ġa tt
op ular
< <\
Ġ7 55
ra vi
Ġf r
rac es
ĠEx cel
Ġti mes
C om
g s
Ġ15 95
ĠB N
ĠLab or
26 70
GY ES
va ti
jav ljeno
r oll
ruc ture
itec ture
srem skenovine
8 55
ĠKar l
n ect
il ib
ra el
Ġl anguages
20132 015
eN ew
alifor nia
mp n
2013195 5
pris e
an us
Ġljuba v
V al
0421 0
ĠH ACCP
ĠBas ic
ĠART IC
8 76
d enje
b ran
t w
Ġ8 75
d on
0426 57
219 3
Ġappe ared
ro ach
Ġd uring
99 4
y es
0435 10
Ġre k
Ġ8 09
18 55
17 87
Ġt om
ĠSt y
rad e
HE GYES
i tions
0428 90
ij ana
ter y
ĠTele gram
i ae
Ġ7 03
6 37
? :
0428 96
Ġm ax
ĠD as
Ġf ile
20131 00
ony m
r oris
re da
ĠK ol
le m
7 44
Ġ7 36
ĠC zech
Ġt ab
ĠG y
op a
ĠCel ok
0428 97
ĠI A
om ob
Ġdev elopment
Ġ15 52
ĠThe ory
Ġ138 6
Ġ132 6
ĠAP I
9 25
G o
Ġ6 99
ĠAir craft
a ut
te x
Ġl aw
Ġ% .\
Ġ136 0
Ġ6 71
co okies
lic ations
ĠK e
ĠXL II
ĠKIS HEGYES
u h
ĠAn y
\": .\
ung en
ĠLi ter
0424 7
Ġ15 17
an ski
en ted
ĠRel ig
ĠS r
Ġ65 8
ron ics
in h
bc d
F ree
Ġ8 76
Ġ137 5
04281 03
cell ence
M on
0412 8
ti st
ca ja
ri te
IN AL
ĠLib er
an sk
ĠSrb iji
pol itika
ĠPhilosoph y
ad m
ĠSte fan
Ġsta te
7 98
R ED
Ġ| _
0428 98
Ġ300 00
Wik imapia
0428 99
D r
Ġ7 81
ch estra
ni z
Ġ17 46
Ġ= =
ach er
os avlje
ir k
EN A
ĠCri mes
eev nost
ĠM ap
ast ko
f ch
Ġ1 040
ĠS yn
Ġg ran
S ARS
Ġ8 42
do vi
ĠO st
ru z
- :
Ġ15 72
ĠM iss
Ġw ell
ct or
ac o
ĠR i
ĠMon teneg
ĠI Q
ĠF ol
Ġun iverzitet
ĠC os
ok e
to col
AN N
ho use
Ġreg ion
p es
ĠS EO
ĠS kype
ur d
Ġ137 3
ĠM LA
Ġl anguage
Ġjed an
ĠD ream
rs te
ell er
L S
u da
Ġm ir
ĠThe atre
Ġst av
ĠEmp ire
6 94
ĠH in
20138 0
srb ija
K S
ĠUn ported
nO n
6 83
Ġman agement
ĠAlban ian
L Y
Ġ7 76
und er
Ġ132 0
7 78
8 95
0426 12
ĠT IM
Ġt an
ĠL ar
Ġb or
01 32
ĠIn vest
6 76
8 03
8 61
k nj
l la
ĠPhil ip
tain ment
. ]]
ĠDe ath
ĠG O
ur is
6 88
Ġ16 42
ĠWar s
04105 49
ad ian
Ġ6 86
Ġs ho
Ġ36 00
vas eljenska
5 99
7 49
7 02
C V
IC AL
ogl edi
8 24
i as
Ġ7 01
Ġt w
ĠD own
6 86
ĠW atch
Ġpro cess
9 001
Ġ7 78
ĠH A
Ġ(+ )
roris m
ĠR ot
ĠIC TY
v ia
Ġ20 40
ĠS olutions
Ġk ome
ĠLa TeX
ĠGov ernment
6 89
d T
Ġ15 55
Ġve z
srb ist
Ġ8 06
Ġ* .
d K
2019 90
inj arije
, !
z oki
Ġ14 93
ĠC M
ĠL uc
ĠG Hz
na p
tra ils
Ġtrad ition
t an
Ġ8 69
Ġpo int
M al
g em
Ġ17 44
Ġ17 09
ĠTh at
nov isad
Ġ7 500
ĠI d
Ġ7 34
ĠkW h
8 31
0412 6
Ġn umber
Ġ8 01
ĠT her
ĠG it
ĠN E
Ġth rough
ti ma
a X
Ġm aksim
ĠJ es
ĠN ar
utnik news
11 00
18 06
Ġf i
CC N
ad or
Ġpoli tics
n Q
ĠF ull
Ġst ru
Ġne ko
ĠRef er
p ov
4 3023
0 43023
Ġ( .)
Ġ" *
ĠJo h
Ġpra va
Ġdob ro
98 6
ian ce
IC S
? [\
ĠPro vin
041 20
-\ "\
ĠT al
ka ans
ĠMag num
7 09
U BL
n IN
ap v
mm un
Ġ12 60
en de
ov ana
ĠARTIC LE
Ġ8 13
Ġ16 94
st o
U K
z el
ĠF und
ap ter
8 37
ĠA MD
at u
Ġe lect
AT E
04281 02
ank ovi
for man
AN A
Ġ........ ...
ĠPet ar
unic ip
V C
r up
ti h
ĠW ien
ord ers
Ġ17 19
Ġm ake
am ent
Ġ136 5
Ġar ticles
Ġsrp skog
Ġ( %
Ġ6 95
Ġ7 95
al t
Ġe ar
ĠB ib
ae il
ok a
7 08
k ing
Ġp ers
je cts
ĠE R
Ġdan as
6 64
Ġ142 1
8 53
8 79
Ġ14 81
Ġ6 93
Ġf er
20132 020
04301 5
Ġn al
Ġc ite
Ġre cep
eL a
8 41
F acebook
l ist
18 31
ĠW ho
as on
Ġ17 31
Ġ13 32
ĠF le
7 92
ĠF a
um ents
0420 7
Ġx xx
20137 0
Ġ2 2000
Ġon ly
7 48
Ġ16 66
0426 9
ij ski
atvi e
H g
f est
Ġ16 01
id i
ĠIma ges
0428 104
ol jub
8 65
ĠR un
98 7
IN T
Ġ10 66
eg in
Ġstud ija
, [\
0411 7
Ġ7 71
ĠS ound
ĠL ine
ul u
ĠMan ager
ĠSw iss
ĠF our
98 1
Ġu rednik
ĠM ig
2013 34
201319 95
IF A
Ġrelig ion
6 93
8 47
ĠC at
Ġv ir
lo od
Ġ8 46
ĠProgram me
Ġ7 09
lement s
e el
Ġ6 74
el li
st or
20132 017
8 16
2013 45
Ġs itu
Ġ10 02
Ġ9 07
cc les
af ety
Ġpe dag
3 030
8 13
Ġ17 54
ĠH old
rad io
ĠMel ayu
7 34
P inki
Ġ6 89
ĠI M
12 80
ure au
nt opic
9 75
y o
ĠP ot
ĠG L
ĠJ un
pri zren
ĠAp pe
* .\
b ers
k or
ĠE T
) '
0426 60
ĠDut ch
Ġm ay
id th
per i
k et
0438 10
Ġ6 69
Ġ9 95
ma tika
ĠDel o
in ation
fr ica
d ne
Ġp rip
ĠCon gress
ĠXXX I
aeil ge
G A
Q W
Ġ31 000
N ivosti
Ġd ire
oje Nivosti
4 3031
0 43031
8 72
Ġ12 40
ĠA er
17 98
ĠR og
ĠXL IX
ĠMil itary
Ġing y
c I
ti va
ĠH aw
ag a
0434 4
Ġ15 47
op tion
8 92
ĠF amily
100 1
rag uje
Ġ12 35
Ġe g
Ġ8 18
ir an
0415 6
Ġ6 92
18 45
is ation
p ot
0428 105
Ġ8 08
ĠG ru
du ct
N on
Ġ rs
= \"\
n h
Ġ...\ "
Ġ" (
Ġ13 40
ĠM r
us ti
Ġ101 4
0428 106
Ġ16 32
nm ojeNivosti
Ġ8 36
in da
ĠL CCN
Ġzn am
Ġ12 76
ib us
ĠMus ical
8 56
ĠS EE
de v
ĠXX IV
Le ave
Ġodnos i
d ie
Ġ15 25
ĠJ azz
ci ent
ĠCons ult
nO b
ĠSec ret
ĠJ P
047 5
! -
9 37
ar ies
ĠP as
ĠMen u
0428 109
Ġst ory
ĠTrav el
Ġ9 24
Ġ" .\
Ġpro tiv
Ġ} \
Ġ120 8
9 36
ĠB attle
ĠV iber
nA R
Ġ6 82
id ance
rain ian
etn am
8 77
9 23
k ins
ĠTer races
Ġ8 22
Ġ" '''\
Ġcomm un
ĠRoman ian
Ġingy enes
? !"}
Ġ17 34
027 9
ĠR F
ĠL A
un arod
st and
Ġg rada
Ġ142 3
Ġal eks
B ox
W Y
ev o
6 92
Ġ );
Ġ15 90
Ġs il
ĠU ser
ran je
Ġsv ak
ĠXL VII
Ġv esti
Ġmaksim ovic
Ġs ac
ĠG av
fa Score
ĠHen ry
ĠT K
ĠD aniel
ta j
co ka
AS E
p al
s b
Ġ9 65
an ka
Ġ141 3
Ġar ea
ĠSrp ska
A I
y am
Ġl jub
ist an
SR BI
d ara
Ġ7 74
ĠF ort
ĠN OV
CD L
ĠPlan et
ĠM ath
ci ma
f je
v lad
Ġ3 030
ĠM EM
ĠD rop
Ġb est
A ll
d ig
bb f
Ġte am
Ġ14 80
!!! ????\
0420 0
Ġnis un
Ġphil ologia
ĠT otal
ĠG ND
9 92
Ġ7 56
ro om
Ġl ive
Ġte chn
Ġ9 23
Ġ15 65
8 63
m art
y en
\" ]
ae v
uro pa
ith uan
Ġav gust
Ġ11 85
ĠT H
ch es
ĠPol ski
Univers ity
B T
0438 67
Ġ8 78
Ġc ur
st ud
Ġz ur
AR Y
Ġ142 6
rac y
U RE
18 36
ĠViol ence
D ownload
Ġ15 98
ĠR ay
Ġb is
n ame
s ub
ar es
Ġres earch
8 64
ĠK re
ĠV ision
ock ey
ĠBre aking
On line
9 16
Ġ7 92
ib ility
4 440
18 38
Ġp rv
ab el
av no
0000 00
Ġuz bek
/ )..
S ta
Ġ7 29
Ġ13 41
Ġp ort
Ġn ed
Ġov aj
abs rs
8 49
A c
Ġ6 83
Ġ9 29
Ġ7 96
9 65
B Y
0428 108
Ġ14 68
ĠV ia
20132 011
8 57
06 50
Ġt ons
udsman apv
B u
Ġs et
ĠW ikipedia
ĠD AN
04141 4
Ġba s
d un
Ġw in
ĠN ation
ris on
tr l
Ġava ilable
z ic
ĠN GC
ĠĠĠĠ Ġ
IP A
Ġ** *\
ict ures
k h
0440 5
ĠT y
Ġh and
res ent
nF acebook
ĠHer itage
, +\
0426 16
ĠW izz
Ġ101 6
kon om
onym ous
ĠS SD
18 34
ĠG irl
2013 32
ĠM ons
Ġj as
ĠFin ancial
ĠPrin ce
ĠS en
18 57
ab y
ro t
ĠO RIG
ul um
ok o
Ġ134 3
Ġdes ign
ĠItal iano
Ġb ic
ak es
ĠDet injarije
ĠC are
ĠV ik
ĠOp inion
ĠFr ont
S ex
X VI
Ġ7 28
Ġb irth
for mes
Ġraz govor
Ġwh en
8 18
ig her
ci o
ĠQue en
ĠG ene
ĠAr thur
ĠIP S
ĠCli o
l is
ĠB ird
ĠF al
ĠIn telligence
ire less
Ġ9 76
er ija
ĠE gy
Ġde c
ivers ary
uk u
ĠKi B
Ġ15 82
ĠC ourse
ĠD DR
Kos arka
0 202
ĠSer ies
Ġ11 66
Ġ16 54
ij ska
ro g
ĠL I
Ġpro jek
Ġ16 14
Ġ16 91
he ad
Ġk al
cc ess
Sp ortal
On lin
Ġorgan iz
in ews
or al
um er
Ġu b
Ġ137 8
Ġ9 45
Ġsz er
9 31
Ġ6 500
ĠH ell
Ġnis u
Film ski
J utro
ĠC alifornia
ĠR od
ĠXX VI
Ġstud ents
osp ital
obro Jutro
B ukad
18 14
rs Press
rs vaseljenska
rs Sportal
com vijesti
org IT
org Filmski
net http
ĠSvet Kosarka
erus ija
BBC Bukad
SRBI JO
Onlin erusija
obroJutro SRBIJO
rsPress Onlinerusija
BBCBukad obroJutroSRBIJO
q as
ĠS L
Ġf ig
Ġv red
st vu
Ġex p
ĠT en
Ġ500 00
Ġun ivers
Ġback ground
ĠAt lan
A m
S F
Ġv ul
ĠMihail o
E mail
.. ?\
ab ri
Ġx y
ĠSy mbol
9 34
Ġc oll
Ġ74 3
edi tion
ĠC E
ĠG az
8 28
in ts
Ġo wn
ĠC ase
ang el
ĠC ath
99 99
ĠL XXX
9 06
Ġ17 32
ĠB G
Ġ\" -
Ġedu cation
/ ..
ĠCon stant
ĠFac ulty
Ġ6 79
Ġ15 22
ĠDV B
AL I
h ib
i alis
Ġre f
Ġfe ed
O F
c J
Ġ9 27
ti al
18 46
an ta
cc er
ĠHung arian
20 82
ĠO t
9 05
j as
0418 5
tit y
dk og
7 03
A merican
Ġ 010
ĠE li
Ġs ounds
Ġt ur
ĠK is
il og
ĠPro sec
Ġro d
amp le
0 4440
lj i
Ġ17 42
Ġw ay
ĠGu est
Ġsup er
Ġprav oslav
Por tugu
Ġm ac
qu is
Ġ121 5
049 0
Ġ>> "}
ĠDis qas
Ġ14 70
ĠR en
98 4
ip ment
Ġcon f
H F
Ġ8 27
ost on
ed y
Ġb usiness
BEC SE
c ao
0448 0
ĠN I
Ġg lobal
ĠSt ore
az in
ez ija
ĠFin n
Ġ17 27
Ġ15 53
es c
ĠKing dom
) ?.\
ĠR ain
Ġh ere
ond er
ĠTe ams
Ġstud ent
9 26
H ub
S i
ĠH ans
Ġe ffe
ok u
ĠMar ko
P ublic
ig ra
04281 10
Ġwo uld
ĠDelo itte
t ov
T ag
ij as
0428 111
Ġ11 68
ĠF ORE
Ġ* ,
ĠUk rainian
an na
AN T
duc ts
9 14
ud o
ĠTer rorism
9 72
Ġ16 05
Ġ16 16
ĠW ood
Ġ140 00
04301 8
9 17
Ġ8 33
ĠB C
Ġbe y
Ġimp f
ĠAf ter
Ġthe me
ĠSrb iju
2013 37
Ġ15 14
Ġg de
Ġpre ma
Ġ7 44
ĠM cG
ir ls
ĠCommunic ations
g ing
Ġ7 79
Ġ15 33
Ġ12 61
Ġ= ====
ĠSrp ske
H D
M ET
W S
ĠM k
20133 6
133 1
Ġill ustrated
Ġ ____
0440 0
an ts
Ġf un
Ġ6 76
Ġh istor
ietu vi
ĠOrto do
ĠS ex
ĠH MS
im g
dE V
Ġ1 438
Ġ7 26
Ġ138 7
ap e
v f
el in
Ġ 025
12 19
at um
Ġf ield
Ġl as
ĠGRA DA
V E
Ġ13 98
./ .
wik inews
9 45
Y A
Ġ7 73
ĠI B
do or
Ġt ome
ĠN on
st one
Ġdo es
ug a
Ġ9 71
Ġl ay
Ġ00 116
ob ert
04142 5
ĠRom a
TA SS
ma j
Ġac cess
doc x
ĠEdw ard
d je
0410 107
Ġ8 55
Ġ14 77
9 61
Ġ7 52
is en
ĠR ank
ĠG am
P lay
Ġ10 71
Ġ17 24
Ġ140 9
Ġdo o
ĠCon c
ĠCol or
N G
Ġ9 01
Ġ15 68
ĠAd ria
9 63
ĠK O
hel m
Ġen abled
Ġweb adm
) +\
Ġ7 23
Ġ15 02
Ġ12 21
ĠA SC
ta il
Ġx x
04101 03
Ġinter net
` .\
Ġ16 38
las ti
ĠHT TP
or ad
ĠB MW
ia ms
Ġ7 82
on ald
ĠA us
ĠB ac
Ġm alo
ra p
pe kt
Ġ17 06
98 2
ĠCate gory
ĠFeder ation
ĠSara jevo
8 39
ĠC op
Ġs loven
Ġp as
la z
Ġprist up
ĠW elt
il ia
us er
em p
Ġ7 38
Ġ: ).
Ġ133 3
ĠFilip ino
8 71
Ġm ess
ĠTrad e
8 34
g allery
ĠRe ich
, /\
Ġ 024
Ġ7 62
er ts
ĠO ur
az ar
Ġ7 72
un st
Ġweb site
Ġ0 02
Ġc la
fic ation
k al
ass e
ĠAustral ia
Ġ14 90
ĠV ill
ma p
ore k
Ġr om
Ġ7 19
ĠP ed
26 42
ĠUN DP
EF A
ĠL ike
ĠJ ud
ec u
Ġ$ ,
c os
0421 100
ĠK ah
Ġ. :
az a
ĠBro ad
Ġ9 53
Ġ120 3
ep t
ĠAn ime
Ġ142 5
. !.
l ada
Ġ17 47
Ġm ain
ch ar
uz ice
tens ion
0435 12
Ġ9 13
ad ow
Ġh ad
la h
ton mail
srp ske
Ġ11 75
Ġ14 61
Ġ14 66
Ġ00 02
ish ing
ĠKN JI
U z
Ġ ust
Ġ15 97
Ġk ulture
Ġf l
ĠWal ter
ti us
ĠM AT
18 09
Ġ8 77
Ġ25 000
Ġp ortal
ĠD og
ĠE ug
st rong
Ġz ak
ber ry
135 5
zant ine
U G
d I
ĠE ur
nJ a
Ch ar
Z Z
aj n
ĠAst ron
10 81
Ġemp ire
8 74
s um
0428 107
ĠJ ag
ĠCl ar
te p
ac iji
tt a
Ġ00 17
ĠRepublic i
A s
Ġ9 85
Ġ15 85
ĠK ap
od le
pro tonmail
S W
Ġ6 94
Ġ8 29
Ġ14 96
Ġn ovi
ĠMy th
b ir
ĠT an
ĠC orn
Ġ000 8
9 67
0437 1
ĠS ti
18 26
ĠN acional
ĠMar s
ĠPe ace
jan in
Ġ 026
041 434
Ġ6 97
it le
.\" .
\\ \
t va
0417 2
Ġ16 03
ĠA K
ĠT uber
ĠK u
Ġb ila
dap est
. +\
k ola
0428 112
Ġ9 15
ĠH it
tu el
ter na
Ġimp er
Ġ8 14
ĠI R
ic ar
ĠR OP
ard en
lan g
n en
Ġt ype
ĠAleks andar
S u
Ġ7 88
ov u
ari um
ĠChar acters
Ġ )"}
Ġ8 52
ĠK ao
ĠL ead
et ar
Ġf acebook
ĠAr m
020 5
Ġ141 1
nN aj
; .\
ang es
Te ch
! ''
Ġp aper
ĠJ adovno
ĠPortugu ese
X VII
Ġ8 61
ĠP osted
Ġn ational
eA r
0428 113
te g
ĠE ver
ĠJ on
N ational
Ġ1 433
ri ev
Ġte ma
ĠFl ight
Ġ135 1
nM o
IS O
ĠAppe al
9 24
B ook
041 440
Ġ16 72
ann es
Ġd igital
!! !.\
Ġrad io
Ġ9 35
is co
0265 1
book s
ĠCap ital
O ne
Ġ9 63
in c
op her
nE x
ĠBl onde
b ul
2013 38
Ġm ind
op st
urs e
Ġlatin ica
+ ),
C ard
Ġ17 28
ĠP atri
ĠORIG INAL
Ġ16 65
ĠR as
ĠMil o
Ġsrb ist
ĠD ipl
Ġda te
Ca fe
] ;
ĠSh i
h old
Ġ10 96
ist ar
_ (\
h iva
ĠV esti
ĠN OVI
up er
20134 3
ĠDiv ision
Ġ9 22
ĠOr well
Ġ9 75
Ġo u
Ġv as
Ġ12 41
nC ategory
Ġne ki
nov ation
. |
9 19
ĠI f
olog ije
N IK
n at
ĠG A
ut in
Ġ15 29
Ġs ing
ĠR D
ĠR iver
ĠG eo
037 8
ĠAgric ultural
R o
ĠP AR
Ġ( ,
ab i
srbin info
D z
h unter
ĠS iber
ĠT ol
ra ta
Ġthe m
Ġ75 8
ii i
ific ation
ĠVis ual
Ġ10 99
Ġ15 38
Ġ16 95
Ġi men
Ġ160 4
ĠUnivers it
8 217
Ġ16 69
1 017
02 17
ĠP rom
Ġn ach
Ġve ka
Ġov om
s erv
on na
ĠR ash
Ġ138 8
U ser
Ġ6 96
ĠS us
ude fd
ĠVo ice
8 78
Ġ7 61
ĠS ource
ĠP erson
op o
nX I
ĠHo tel
A ss
B el
S o
Ġ8 73
ĠC ry
ĠSR BI
X VIII
e ca
Ġpit anje
ĠE M
ĠE sp
G u
v ard
Ġ16 98
ĠiP ad
: {
H ar
h ost
ĠS venska
ĠT wo
Ġk ap
ĠSty los
8 59
9 02
ĠK op
ĠE agle
ĠFORE IGN
F e
o is
ad min
Ġo ve
Ġ80 4
ten je
con f
ĠPres ent
040 7
Ġ7 66
ĠM ind
ĠV e
av anje
ĠVer lag
) \"\
U B
ĠK omm
ĠHistor ical
Ġ( '
ĠL at
Ġarch ive
t in
er ry
Ġ14 99
un us
ĠNov og
prav oslav
8 23
9 03
V er
w an
Ġ8 66
od es
IS BN
. !
9 68
B r
Ġ154 3
202 8
Ġa uf
ff ic
20132 000
GRA DE
A g
L OC
c ir
Ġ8 93
ĠA frica
)- (
9 21
Ġ" ,
9 62
Ġ........ .....
9 18
0415 16
ĠT CP
az e
P T
R T
Ġ12 84
ĠSt one
Ġob lik
Ġit al
Ġpl us
0415 7
Ġ8 35
Ġ15 23
Ġ12 99
ĠIS IL
Ġ142 8
B ot
0421 10
Ġ17 08
IES EC
ĠTes la
F I
Ġs voje
ĠR oth
Ġle t
ĠJohn son
ĠFun ny
ĠJack son
0428 114
os k
ĠO thers
pa ign
und es
Ġmod ified
Ġbey ond
up e
ina ma
Ġ8 03
Ġ9 02
Ġhe alth
ov ina
ĠG IZ
Ġon i
eg ional
04302 2
nX II
Ġnis am
R ep
b lock
ĠD am
ĠE t
ĠPro cess
Ġza h
Ġ11 11
Ġ16 35
en ne
es a
Ġl im
u ba
Ġ15 46
Ġ15 59
17 91
Ġ144 6
20134 9
enti al
ĠF L
TH ER
f re
p ace
Ġ7 39
Ġ14 65
u ju
Ġ8 95
on o
ĠH IP
221 843
?! ?
ĠInd ia
Ġf ri
OM E
u ke
ĠS ada
ĠW ell
he in
Ġc rk
ĠCO ST
Ġmo del
A lex
ct us
dav anje
ĠSum mer
c ore
Ġ12 37
11 66
Ġ8 96
Ġ10 81
ar ko
Ġs us
Ġn u
Ġad resa
p ed
ĠIn troduction
ka z
und us
Ġ138 5
[ [
ĠS IM
rit ten
Ġac c
9 28
9 49
F or
Ġ15 79
Ġ16 70
ĠB ea
Ġle x
otis m
ĠP la
D V
Ġf al
Ġle ar
ĠPol ish
Ġ0 35
un ta
ĠUnivers al
ĠColle ction
01 50
Ġ9 36
ue v
l ica
u ti
Ġ7 64
ĠK ir
Ġ000 57
IF T
ĠAnaly tics
ing en
Ġg or
ĠCom peti
C N
2013 90
ĠN eg
Ġmis lim
kn own
Ġ7 69
ĠS om
ĠP RA
ab er
Ġ145 7
m d
Ġ15 93
ad al
ti vi
ĠM AR
ov anja
tiv es
umb ia
DP R
e ase
Ġ _____
ĠV uk
Ġ15 92
ĠBi ography
Ġpop ulation
ess ment
ĠSh op
en ic
... ;
Ġ13 08
ia g
ĠBo ard
ĠAmer ic
ĠMathema tics
l ot
in um
le ft
Ġn ova
ĠH il
ĠRead er
8 27
s w
10 38
Ġm lad
ĠF all
ubl ik
ĠAg reement
Ġ7 83
Ġun it
ĠMy SQL
ĠEnter tainment
0428 117
an to
Ġ11 02
ho us
0420 6
Ġ9 86
RS D
ĠProsec ution
k ole
Ġ8 44
Ġ16 93
Ġo thers
Ġm ort
lo ws
ĠBi as
raguje vac
e ava
Ġ8 23
Ġ15 03
for ms
Ġpost oji
Ġ10 72
Ġ9 54
Ġ11 01
Ġ13 99
Ġv ery
201418 78
0418 0
Ġ0 36
ĠS and
17 89
Ġ===== >
Ġ8 72
Ġ16 82
ĠS ev
ĠT L
od us
ĠChem trails
Ġspambo ts
Ġ7 84
Ġ15 96
Ġ13 93
tiv ity
N a
W iki
ĠH is
0428 118
Ġ7 48
Ġ15 24
p ic
Ġ16 15
Ġ: ))
ĠNor wegian
Ġ8 16
Ġ12 42
?! )
ĠTele graph
! ..\
ĠI G
ĠF ramework
Ġti m
- /\
T rans
0438 12
Ġ8 28
ĠI li
Ġp oj
AL L
ĠFried rich
ĠASC II
9 47
Ġ8 51
Ġ11 69
ĠB ible
ĠS eg
Ġ13 37
22 86
Ġ( ?),
Ġ8 58
en da
ĠMob ile
los s
9 33
co j
20132 018
Ġ138 2
forman ce
r er
Ġ ???
202 9
ĠO il
I JE
ĠE CDL
28 00
9 44
ĠF ashion
ay a
ass ment
ĠMic ro
ithuan ian
ĠS AV
ĠY ears
100 00
132 1
742 221843
8 98
Ġ7 86
120 4
ĠIns ee
Ġ15 42
Ġ12 29
ĠB lic
Ġ01 9
Ġd ans
c ti
i ri
Ġ13 42
Ġp u
Ġ7 94
.... .....
ĠXL III
ĠKore an
e Posted
x o
Ġ27 500
020 4
out u
ĠDan sk
Ġ15 51
co w
pp t
ĠHistor ia
Ġ15 78
ĠO D
bo dy
ĠAB OUT
9 71
L AN
Ġ8 82
al og
ĠD RAM
Ġh at
Ġon o
por ta
Ġmnog o
k r
Ġ13 97
ĠP ac
Ġr asp
Ġpro p
17 97
ĠD EL
fc let
ka i
eA l
ĠSrp skoj
kol iko
s f
Ġ9 26
os i
im p
9 32
Ġk n
ord ana
min al
Un ited
o ch
Ġ15 64
Ġ16 11
ĠS ho
Ġ100 5
Ġin t
Ġ101 2
ĠComm on
ĠTrad itional
soci al
f ar
\" !.\
Ġ15 32
ĠK ristian
ĠMEM ORI
; &\
). .\
Ġ15 73
rac le
ĠJEZ IK
Q X
ĠB RO
Ġz am
ĠOr chestra
eas es
ĠCan adian
Ġhar assment
0428 122
Ġs istem
ĠB il
Ġ1 445
Ġ8 07
Ġ12 90
ĠStud ents
rt v
Ġ________ ____
ĠEr n
0428 115
Ġ10 60
Ġ15 15
ĠM IT
18 10
ol t
Ġc ity
E d
0428 116
ĠI Z
ativ na
. |\
c it
z eg
Ġ9 52
Ġs avez
ĠR ena
ĠD R
ĠMoz illa
etnam ese
0410 380
Ġ12 70
Ġ16 51
ti r
kt op
ĠKah rs
ĠL iving
ĠV O
r g
Ġ16 13
ĠP il
ĠMal tese
ĠLeh mann
is cher
Ġl in
ĠHer o
ĠFeder al
17 00
ĠF ly
ĠNor sk
ĠAust ria
ĠA maz
ĠB ow
ĠChem ical
Ġ7 97
Ġ9 08
end i
. !\
R ussia
Ġca te
ĠRom en
ĠHeb rew
9 41
ĠD ead
Ġst ra
Ġ101 9
eA n
M us
com p
ic ija
ĠSerbian Cafe
ĠMonteneg ro
, '
Ġ9 17
}} ,
ĠTechn ologies
9 09
Ġ8 19
Ġ15 34
04281 20
Ġ(- )
nF ree
Ġrat ovi
ĠT yp
as z
ĠG l
A rt
Ġ9 05
Ġ15 09
je va
ĠPro tocol
ĠHrvat ski
0441 5
` ),
18 28
os ter
Ġ90 4
03 90
Ġ8 32
et z
IC K
20133 9
EC H
ĠWW F
Ġcas opis
9 66
Ġ136 6
4 3030
8 19
9 73
ĠXX V
Ġus ing
ĠT u
Ġa us
59 27
ow a
9 42
Ġs rba
ĠB all
Ġsp or
Comm ercial
0 43030
Ġ9 72
ĠAr abic
c up
ut ing
est ro
ĠAl as
038 6
Ġ7 93
ĠG or
B ER
da ec
Ġ... )\
Ġ\\ \"\
ĠApp lied
ĠChrist of
c entar
Ġ15 69
is tics
ĠB ahasa
ĠJ A
Ġg y
ĠOr der
P ri
n acional
ĠC ra
ĠX Y
ĠD ol
it um
ĠO THER
raz il
8 99
A ctions
Ġ- ----
ic um
fer a
d iti
is tika
ĠIn dependent
ke z
ĠRev olution
fa k
end ar
Ġ7 59
el low
Ġde te
04281 21
ĠRash od
F orm
Ġ00 3
9 35
I SS
v m
ĠK A
Ġl ook
fil es
3 048
y outu
ba sed
rans late
ĠEU RO
9 38
Ġj u
ĠK or
ĠF ed
AD IAN
R B
Ġ16 08
ĠR O
09 20
ĠG las
Ġr oman
ĠCh ange
ĠPoli tical
} .
ian s
to on
ĠCom ics
Ġ15 01
12 76
id ence
Ġ131 3
l ovic
Ġ8 56
Ġo gl
as ion
lo y
ĠTor onto
Ġ1 431
Ġ/ ,
ag i
sp utniknews
ĠL ock
Ġl at
Ġ15 87
Ġm ach
Ġ[ ]
ĠCommun ity
Ġzv ani
Ġ16 41
Ġ: )"}
et her
Ġ00 10
for ma
Ġ1 437
Ġ8 53
Ġw ithout
ti er
Ġ14 78
17 81
ĠK an
Ġd rz
04302 1
037 9
Op en
ĠCount ry
Ġmate ri
cipl es
% ,\
02 34
ĠF T
ĠJ av
qu i
Ġ11 86
04302 9
e al
027 5
n am
2013 41
ig an
ĠDe i
Ġpos s
f bf
w orks
01 15
er ce
ĠFor m
Ġpri ja
ĠFrancis co
ĠSYSTEM IC
Ġ9 39
ĠP on
Ġ140 8
c ons
w ig
y mp
Ġ16 84
06 40
Ġm uz
ian us
Ġpatri otism
ĠM eg
Ġs oftware
Ġr est
Ġbran ko
Ġ15 74
ĠC ultural
ok s
Ġ131 0
rit ing
ĠCAN ADIAN
Ġ1 042
im es
Ġ16 18
ĠK ri
!! ??\
ĠLu ka
ĠSteph en
g roup
v il
Ġre v
Ġ9 32
ta kt
vi zija
ĠBu dapest
Ġdev elop
Ġ ?!\
Ġ8 81
Det ails
A J
D L
G I
02 22
Ġ14 67
id ad
ph one
ĠAny Sex
ĠOrtodo xy
Ġp ap
Ġb en
ok al
Ġimp ort
'' ,\
por ts
Ġsm all
f red
ĠN T
ine m
ĠDat abase
Ġ9 41
ou ch
Ġjel ena
8 000
06 52
u tes
Ġ1 442
ed on
Ġ* -\
ĠU SS
und s
20136 4
ĠDan ish
ĠPOL ICE
en ni
da va
ĠM ati
ĠL ED
ts ch
gn ore
g on
Ġ8 86
Ġ16 71
ĠA V
Ġre z
Ġse arch
04141 0
Ġ7 46
Ġ12 33
ov ich
ĠG el
-- -\
Ġf unk
nTag ged
) \".
Ġ7 89
16 99
ĠL iterature
sed nik
Ġd ict
Ġl ar
ĠCO P
ĠAr gentina
nR es
2013199 0
g ang
0428 123
ĠR EG
Ġg ame
Ġst oj
Ġ141 9
ĠHa arp
ĠPart ners
Ġ9 03
17 90
ĠR ol
ro c
ĠOrwell ian
x w
Ġ10 77
Ġ16 21
ĠN ich
Ġre m
ĠInter est
ĠWill iams
R es
ti que
Ġ/ "}
Ġs cience
ro ati
Ġ... [\
ĠEx p
Ġ137 9
H IVA
b in
Ġn eg
ĠJ unior
Ġ136 8
ĠCP U
Ġ135 3
20134 4
Ġjezik u
reb ren
Ġmag yar
Ġann iversary
ad p
Ġs ine
ac p
ĠT aj
Ġ00 16
c iklop
Ġ8 59
18 12
ap h
ĠS out
ĠM ill
ĠP ython
22 60
Ġ135 6
Ġkoj u
Ġ\", \"
etn ick
ĠR ac
lav a
ĠBo y
Ġsk upa
Ġ9 49
ĠIn tegra
Ġ94 3
cul us
Ġ16 22
04281 19
Ġ8 92
ĠS rba
Ġ141 8
Ġus ed
Ġ8 34
de a
ori um
o i
ĠR ud
ĠVI P
UT ERS
d anje
k oj
z ig
ST RA
Ġ142 9
G MT
a ff
0428 126
ĠL or
tt le
Ġ(* )
pol j
Non Commercial
p ing
v ec
2013 42
ĠDoc ument
9 64
18 29
ic z
ee m
Ġ- "}
Ġ0 58
Ġ1 202
do l
Ġt v
ev ac
ill es
ĠTh ai
ĠBe h
Y P
Ġ17 05
av id
la ted
20135 4
nAR HIVA
> ,
a uthor
Ġ8 31
ĠH ack
nS lede
EN S
ha us
D O
0431 92
0413 0
Ġ9 87
us tice
ĠD ou
li b
Ġsrp skom
Ġ8 38
ard i
IC I
Ġop ozic
ĠRo om
ĠJu an
D ie
Ġ9 14
Ġ9 69
Ġ12 85
Ġ13 01
ĠF BI
Ġsrp ske
ĠMED IA
n ice
16 83
ĠL ud
ĠN ame
ma k
Ġ150 4
Ġ14 83
em an
Ġ132 7
F L
0444 3
Ġ8 99
Ġ15 45
ĠI ss
ĠB ud
ĠE u
m ath
ĠB ob
do k
ĠCh ris
nK o
nP ro
Ġstud y
Ġnap is
n ed
Ġ9 73
.) :\
Ġg b
ublish ed
a bb
lo yd
Ġis p
ĠIC MP
ĠDev elop
- .\
Ġ8 17
at y
ĠH um
Ġf ra
Ġl ing
Ġpsih ologija
ĠSERBI A
Ġm el
Ġn ev
iz on
Ġ131 5
ĠCON T
z as
Ġ\"\ "\
ĠS elect
ĠSy mp
G et
0422 10
Ġ11 60
ĠC ore
124 3
9 48
; )\
a ted
ĠM AC
ab av
201318 78
!!!! !!!!
B est
Ġb al
ĠAn t
142 7
olos ki
y x
Ġpri men
eD e
% :
ĠW OR
ĠInternational e
ĠAnal ysis
ion i
ĠLe on
ĠSrb i
Ġhal f
m f
Ġpop ovic
0428 129
Ġm ene
gl ass
Ġ9 28
Ġ100 4
Ġk ategor
Ġod gov
lov a
Ġsoci al
0428 124
Ġ16 96
ba ss
ĠD rug
Ġk Hz
ĠIs lam
nOb javljeno
ĠM ET
Ġde i
ide os
dr ina
ĠHrvat ske
g os
Ġ8 74
in do
ĠA x
ĠK ako
D H
76 84
Ġ8 24
an cy
22 61
ĠW A
ed m
ĠL O
Ġ... ),
ig i
04301 985
vo z
ĠAdminist ration
S al
Ġ8 47
da ju
ĠM C
Ġs an
ĠL it
Ġn omen
ĠSup port
Ġk N
kl ju
ĠEX IT
atur bate
C ent
v ena
ĠM G
ĠR out
306 8
Ġbud u
c V
ĠS el
es is
ab inet
ĠSte p
Ar ch
042 387
01 37
Ġst vari
9 39
C or
r ica
Ġ137 6
Ġ136 3
ĠLib re
Ġ16 64
ĠP ast
ĠT ab
ĠCar l
Ġres ults
bbo Y
Ġ9 21
ĠT ex
ri bd
tu ri
ĠHe in
ĠArch itecture
Ġ15 05
Ġ15 88
Ġs api
Ġ: (
ĠF P
at on
ĠCon temporary
K T
cl us
Ġtr ack
I s
0428 128
ĠH ard
wit ch
e ana
03 03
ĠM att
ĠA ud
om or
je vic
ig en
ust vo
St ar
4 3026
0 43026
0440 6
Ġ8 48
Ġ15 75
Ġw orks
tu gal
ĠMar ie
Ġ133 6
ĠWin ter
ĠPri x
Ġmark eting
9 74
0411 0
01 78
ĠL ee
ak isan
ĠXX VII
0434 6
0426 10
\" /
Ġ15 13
Ġs he
17 88
Ġt al
Ġvers ion
v ana
Ġ9 61
nS t
n ig
0428 125
0415 8
0428 130
18 37
log o
226 50
oph y
Ġ12 91
ĠS ac
18 07
Ġt og
Ġa uthor
114 3
00 90
Ġ8 39
Ġc opy
Ġd va
9 77
Ġ15 61
ed in
Ġ131 7
Ġ340 00
Ġaut oma
ĠStrate g
C omp
z or
te kst
ce ed
ĠPol itika
Ġrecep ata
0441 11
ĠA I
Ġh ome
Ġas pekt
H L
Ġ0 350
Ġ14 75
ĠSh qip
Ġfollow ing
w iss
Ġ13 05
Ġ33 00
ĠCar ol
Ġpred stav
ĠGit Hub
ĠFinn ish
c enter
ĠT ype
ĠF IFA
ca m
Ġl ast
Ġdo s
> </
09 35
Ġk ak
Ġre d
Ġstar osloven
P rint
f ond
Ġ8 83
Ġ11 18
ĠK en
st ra
0448 1
iz i
Ġqu i
Ġ........ ......
! (
A b
_ .
Ġ16 44
re c
ĠJ im
nN ov
20137 5
Ġ8 89
in as
ij en
W E
k V
ĠC T
ĠAr ticle
da je
Ġogl edi
Ġ9 89
ĠC ensus
Ġd ij
Ġ132 2
Ġ16 58
om on
ĠMo on
ĠM ys
ĠE mer
ĠN aj
IN K
Ġco de
ĠKle tt
C ap
Ġ ros
0446 5
ok at
raz y
ĠDrop box
Ġ( ~
ĠI m
ĠV il
ĠG T
at ures
3 042
n RE
Ġ16 25
Ġpro ject
pri v
Ġdom ain
Ġsavremen i
n us
Ġ15 89
ud ing
are BG
Ġ142 2
20135 5
UN DP
ĠPlay er
in ae
Ġ11 70
Ġs ource
ran ge
ĠCh ild
yd ro
ĠEnvironment al
f ac
Ġ16 07
Ġ14 97
16 90
it ate
gu idance
ĠHin di
0433 3
ĠC itation
ul ae
ĠY F
Ġz ad
ist ance
lo c
ord zm
ĠPost s
Ġid enti
e ing
0425 17
ĠH ub
ut ra
erv ation
R Y
} .\
0411 8
Ġ11 13
bb le
at no
vi er
res h
k re
re l
ĠD ub
un tain
ĠIn iti
ow ski
ĠVir gin
ĠBlo om
? ''
an th
Ġs lobo
ru ck
qu ire
ĠSu omi
k es
m c
Ġ17 021
ĠM IL
ian t
Ġ113 0
rp ski
riev ed
b os
01 90
Ġ11 87
26 40
ung s
ĠMo odle
jo omla
ĠCri men
Ġcont rol
Ġ: -)\
Ġ-- >
Ġov og
K ar
ar ing
18 25
ĠMEMORI AM
: )\
Ġ16 19
Ġm ora
Ġb os
Ġde g
ess or
gra ma
Ġfo t
ĠSS L
L L
T r
Ġ9 98
nG enesis
ĠSloven ian
S er
j ena
ĠM ost
Ġc ir
Ġc ool
Ġ000 66
ĠEar ly
wah ili
Ġ10 64
ĠP f
Ġm ust
as mus
ĠV it
ĠCh aturbate
ĠTr ust
0428 127
Ġp ob
027 6
ĠU V
Ġiz v
20135 9
ĠTE ORI
D es
n el
Ġm aja
Ġ>> >
Ġ10 85
Ġ15 08
18 20
ib il
ĠIP v
down load
0435 14
Ġ12 52
219 4
tic k
ten d
ĠI ce
ĠA le
ĠN umber
ĠH ay
Ġ164 3
voj vodina
$ ,
0435 15
0421 11
Ġ9 34
ĠM b
ĠM ach
ĠCh rom
) *
H el
Ġ8 68
Ġ/ .../
ed it
Ġf emin
AG S
Ġ12 27
ĠP ictures
ĠD or
bd c
Ġvi ol
ĠBi H
ĠClin ical
nez ana
ĠCour t
- >\
E Y
0441 6
ĠA FP
ĠF M
ĠF red
Ġr as
IP O
ĠQu ar
ĠThe ater
nT his
AR A
ĠPl ace
Ġmin im
uje m
ĠCli mate
Ġzlo up
as us
Ġn ec
im na
ĠEst onian
ĠChamp ion
r ys
t rip
Ġc are
ĠAr my
145 9
ĠCol umbia
ĠBab y
ĠD eep
Ġst andard
119 6
ĠWeek ly
b ig
y t
Ġ11 65
tis che
ĠDef ense
S ec
Ġ100 3
ĠO k
ĠEuro pa
Ġ !.
ĠP ok
ĠJ ah
AN JE
nD ownload
Al ike
Ġnauc nog
j s
re z
RO Z
B a
Ġ8 41
Ġ9 31
Ġ9 97
ĠH i
ev al
Ġmil lion
ĠPoli tics
+ .\
z ap
Ġ9 59
Ġps pp
ĠPower ed
Ġins titu
fri kaans
' \",
lo cation
Ġre action
ĠHand book
1 025
0410 10
Ġ15 35
22 27
ĠJ ug
oc ol
04281 36
20136 5
' ;
D ar
all ation
TRA IN
+ /-
s arad
Ġ11 83
Ġ16 34
Ġj ust
ĠP OP
at ors
li fied
man ia
ĠOp era
...\" .
3 040
ĠE in
ĠJ r
Ġde o
ĠCo operation
D er
d l
Ġ9 44
ĠH erman
221 1
az ak
20134 6
Ġfo od
Ġ16 56
le v
ĠN is
av er
id ar
ST AV
ĠYou joomla
z acije
ĠB ureau
Ġ132 4
- /
ĠK it
ĠG ram
Ġy outube
bal o
ma in
ant um
nm ore
N ederlands
T op
b is
b alkan
ĠG aeilge
Ġud ar
c cion
Ġ9 96
10 54
Ġpro iz
OR Y
11 80
ĠM N
le ction
Ġ120 5
04281 34
i u
Ġ ______
0421 50
Ġ9 56
Ġ11 47
12 50
ĠL V
ance vo
ĠDon ald
ĠSur vey
? ...{
e qu
h and
Ġ9 42
?! ?\
ĠArch ae
M edia
p ak
ĠW P
ĠL iv
Ġ edition
en na
Ġ26 000
vi h
Ġhe avy
fr ont
ĠOlymp ic
en ger
ĠM ich
ĠM cC
Ġ: -)
Ġ% %
/ (
n ew
p on
im s
Ġ121 6
ival di
v anje
at om
eb i
eni us
ĠRE UTERS
r c
ĠH AT
201419 44
w all
z b
Ġ17 29
ĠN EW
ĠO H
Ġ12 28
er es
ri o
od on
Ġjed nom
Ġlj ud
OLOG Y
Ġ15 84
av o
ub li
20135 3
ĠSch olar
Ġ16 45
kon kurs
ĠCustom er
m ad
Ġ ),\
ĠF ish
Ġf ind
ot in
ran ce
LE X
1 014
> .
Ġ8 87
18 23
ĠT own
eY ou
re ct
ĠJ ew
ite lj
pl ace
eF or
Ġwh ole
L ife
Ġ16 23
Ġ14 71
as ure
ĠCh o
Ġlay out
Ġ9 09
Ġ14 62
Ġp ack
Ġm edi
ra ve
ĠF ighter
ĠG all
Ġbe ca
orek lo
a ult
i egel
om ent
ĠG ri
Ġ000 59
osh op
ĠCh risti
04281 33
Ġu k
Ġ order
Ġ15 83
Ġ16 55
Ġ14 82
ĠK y
Ġ42 00
ĠQ uality
Ġ140 7
gl ed
20134 8
nb sp
B as
om at
ĠU TC
ris is
Ġh ab
Ar hiva
ĠSERBI AN
Ġ9 16
Ġ9 51
ĠD N
le ep
os is
Ġph one
ato es
ĠI an
ĠO LD
In fo
asp x
T L
l ike
Ġ120 7
ĠAr men
Ġth ese
Ġp ur
09 36
Ġi me
048 3
ĠST UD
Ġ11 54
Ġ13 07
ĠT RA
ĠO racle
ĠH as
ir m
AR P
Ġen gles
% ."}
u ge
Ġ- ...\
Ġ7 98
Ġ9 92
ĠO E
EX T
ĠJes us
ĠS amo
ar th
18 27
rba s
Ġsho uld
p ers
ĠG P
ĠPri vacy
Ġhe ly
BR D
Ġosnov nih
t ing
Ġ( /
Ġ9 58
ran do
ord ing
iti o
201419 95
R ev
n an
Ġ10 70
ĠT here
ĠL ew
Ġc um
ĠLeg al
ĠZeit ung
I gnore
i do
Ġ8 94
Ġ12 38
en u
da ted
Ġs ervices
ĠF TP
por ter
dki h
Ġeng ine
U ST
yl on
Ġ119 1
ICE F
1 024
u ca
00 92
Ġ9 66
ĠTe atro
ĠNov ak
Ġ1 434
te or
Ġin f
nj u
I J
\" )..
9 79
10 93
18 11
Ġs ep
le tt
ĠL ithuanian
Ġw idth
Ġuz b
060 4
Ġocc asion
Ġ9 77
Ġ13 34
ĠC AS
Ġaut or
Share Alike
ĠBr and
ĠCatal an
042 33
ad is
Ġ16 61
ĠD ina
100 5
04281 31
ĠJe zik
ĠPower Point
ĠGes chichte
vi o
Ġ03 0
uss ian
lic he
RA SM
e on
r astko
ĠA IM
ro ph
Ġ01 7
ert y
ĠSci enti
3 038
0428 143
Ġin div
ĠPublish ers
Ġ(?! )
Ġprofes or
l ue
Ġ16 26
Ġ| .
osp od
W ill
EM A
g us
m ts
he ed
ĠF C
ĠN arod
Ġ[... ].
R om
x a
ĠM TV
18 01
ĠB H
Ġm sg
it ing
Ġg le
Ġ135 9
ĠBre ak
3 036
S ervice
06 51
Ġ132 8
ĠSo ccer
f s
z at
Ġt ol
ica te
Ġro ck
Ġab s
ĠREP UBL
ĠI zaberite
Ġ14 95
ĠN ord
Ġ131 2
rb ije
HT ML
n av
Ġ8 71
Ġ11 20
Ġs ign
Ġ13 94
18 05
ĠP AN
up in
per a
Ġind ust
ac u
ĠT ax
ĠJugoslav ije
4 335
z k
Ġ14 79
Ġm any
ĠCo ca
Ġmm Hg
ĠMe chan
20134 7
H ill
U Z
av io
ĠOff icial
l le
21 13
Ġ0 50
Ġ16 29
ĠS EL
UN ESCO
Ġsup p
Ġmar ija
otre be
4 334
n em
ĠI ron
Ġ14 69
ath an
Ġpre z
Ġ15 06
20137 8
oh ija
serb ia
Ġ16 53
do b
Ġ= .
ĠCN C
ĠJovan ovi
RASM US
e ur
Ġto ol
nT ranslate
!\" "}
Ġ13 000
Ġ135 8
Dz ordzm
block quote
r ill
ĠS ud
ti mes
ĠM ul
Ġh ard
Ġ\\ \
Ġsta tis
Ġ________________________________ ________
ĠIndones ian
Ġt ren
13 45
ĠF AC
ut ar
ap r
nM e
04281 38
eP ro
Ġparad isi
3 032
041 445
Ġ15 76
er u
ĠG lo
ĠPro duction
ĠIC ANN
iril ice
O X
Ġ9 06
Ġw estern
ĠVi etnamese
EL L
c In
Ġ9 37
Ġ16 52
ĠT ak
Ġ+ .
st on
Ġg lav
ir anje
AT SA
Ġapp roach
ĠSimp lified
Ġ( ),
re k
ĠG ot
Ġst anov
Ġar ticle
Ġ9 83
ĠAl bert
OR A
ure ccion
UP AC
G reen
b udsmanapv
ĠC ond
ĠA sh
Ġb lack
co cc
Ġ101 1
Ġan t
nom budsmanapv
m ol
Ġ9 33
Ġ9 18
18 22
IS M
eS erb
nN e
Ġzel ite
, ..\
3 049
an is
ije la
w ars
ĠC ell
re v
Ġ(* ).
20135 6
ular is
m or
ĠK h
ĠG il
ut y
ĠMan ual
ĠRoth sch
Ġ15 86
0426 20
IT A
Ġcon tent
ĠS ite
ĠD S
04281 32
ĠVol ks
b lic
p rin
Ġ8 54
ik inda
Ġv ec
Ġl ica
ric t
ĠBN F
on ica
18 08
Ġet c
A ug
n or
ĠS ens
ĠB f
Ġh ot
ĠPro ble
ho od
ĠReg ional
Ġcent ury
M icrosoft
ĠP ur
AN U
Ġum et
ĠEnter prise
0 4334
Ġv iv
ĠU EFA
ag us
ij esti
AR C
Ġcit ate
g lobal
Ġ/ >
ĠV ip
ea ks
?! .
ĠSte ve
Ġlog os
ĠL ake
Ġ" /
?! \"
ais e
O AS
ĠX p
ac ak
Ġ' .
fel d
Ġkol iko
n op
Ġ13 03
027 4
ran i
ĠSt ojan
iag nos
vi ews
ĠAngel es
).. ..
Ġd ipl
ite m
IZ Z
6 000
0447 1
Ġ15 54
Ġ12 54
ĠCh i
Ġch ildren
ograf ije
ĠZoran zoki
f ile
Ġ15 39
ar ica
ĠW HO
ĠD ire
Ġfor um
ĠJe ff
ĠHy per
t ur
20132 009
Ġist o
P ack
t rans
Ġ9 46
11 77
ĠP ierre
ĠB anja
ĠL am
ys te
f at
ĠN ick
ĠZ h
ĠXV ideos
Ġce ll
306 1
ĠIs rael
ĠBer g
ĠDo uble
ĠGal ician
Ġsapi ens
R P
t able
Ġ( {{\
Ġ15 77
Ġ15 58
ĠS ep
18 17
Ġ26 20
ord an
istor ija
! ''\
C AM
n ar
w aptrick
ufff c
Ġ141 4
unter laden
Ġkra ju
M ac
Ġ15 10
ĠM K
ĠC IP
ĠC trl
ba se
]] .\
Ġpar s
' m
ĠP ractice
il li
he it
nM a
ĠMon te
ĠĠĠĠĠĠĠĠ ĠĠĠĠĠĠĠĠ
ĠSt ars
tal k
ĠWi Fi
R ed
Ġ12 53
ogle daj
ĠArh iva
ĠBit coin
in is
Ġ16 28
Ġiz b
Ġ9 62
Ġ25 0000
ĠL ativ
Ġb ig
04281 37
che m
ĠLativ ian
L ET
z em
ad in
ĠA na
ĠP ix
pl us
RE SS
Ġfran cus
Ġ8 84
Ġ/ .
ĠR ISC
el ine
Ġal ign
ĠĠĠĠ ĠĠ
s ti
Ġ16 31
Ġ16 75
Ġ13 09
em ents
Ġz as
ĠCo okie
ĠBe at
nE n
yth ing
Por no
Ġsystem s
L akisan
Ġ9 19
Ġ15 67
fo j
Ġpri mer
Ġmet al
Ġher unterladen
glass porta
f un
Ġ !.\
Ġk roz
Ġf est
ob raz
srb ije
ĠKnow ledge
ĠL ux
ik on
orm al
( !)
Ġ1 201
Ġ12 74
Ġ' .\
Ġth en
ao o
cc d
Ġs peed
ĠB E
IT E
ĠRel ations
; ,
H a
ĠT alk
ĠKultur ni
J ean
L ouis
0438 20
Ġt ov
ĠO B
Ġc ivil
Ġsu ch
nJ e
asti r
ĠGra y
: [\
A t
Ġ00 4
20136 3
ĠDis ney
H C
f ore
Ġ1 432
Ġ13 06
ĠK OM
Ġa ug
04281 40
Ġ9 48
Ġw here
20132 008
Ġst an
Ġ135 7
ĠMo ore
Ġkey board
Ġ8 97
Ġ10 90
Ġm p
ĠSR B
val u
R obert
01 33
ad en
Ġb on
ell schaft
se k
anj ug
~ ~\
042 320
ĠB oston
ĠL ady
op us
04281 39
Ġgra tis
Mag yar
3 047
k W
L es
U ni
f K
g if
042 316
er c
fc k
ĠZ ep
ĠCh annel
ĠBeograd u
0435 13
0421 16
en ica
Ġmem o
ĠSimon ovi
Ġrek ao
* ),
ĠA IESEC
um n
ok ing
Ġ119 5
Ġle vel
2013199 1
abl on
rebren ica
Ġ 027
ĠTr ue
H er
W e
g io
Ġ15 31
ĠS ant
ĠX C
ĠAn cient
ĠCroati a
2 044
P I
ĠC ontinu
Ġh or
Ġ ish
Ġo ld
Ġar h
20137 1
R ef
Ġ _______
2013 95
al and
ce j
Ġ120 9
ach i
ĠMac ed
ĠSco tt
, ...,
en ci
ĠD ej
ri ed
Ġv est
Ġod govor
pred uz
ĠL ep
ovi ma
20135 8
Ġba sed
Ġent ry
g ium
Ġ9 68
Ġex tension
rem ena
atri x
al ign
es tion
ĠT raining
le c
Ġg eneral
ni fic
04141 9
Ġ1 436
Ġ16 02
ce an
ĠZ or
Ġ$ .
ovi es
qu a
Ġiz me
20135 2
afo u
U X
Ġn aro
and y
Ġ00 008
Ġter min
e us
00 000
ID A
20136 9
eE x
4 3036
v im
w h
Ġ| "}
22 82
17 95
ĠV A
eb s
eb ra
20132 005
Ġod r
ĠAf ric
nf rom
Ġdoc ument
S elf
u ci
0438 15
XX I
Ġsh op
Ġpar tis
ĠFre edom
glas nik
ĠB AS
eb r
ima ge
alo da
0 43036
c redit
0438 13
Ġ/ -\
UL T
Ġgen us
nRes ureccion
H P
U I
os us
un es
Ġ* )
Ġdo g
ĠTele vision
0410 320
Ġ8 57
06 22
.) ."}
nA d
Ġpro xy
Ġ121 2
B et
X Q
f ighter
12 44
ĠV IN
IL E
ilib rium
ĠD ur
Ġv oz
20135 1
Ġph ys
Ġmod ern
NOST I
0443 11
Ġp ark
17 66
cc tn
Ġre view
ij om
ĠAl t
Ġ132 9
20135 7
lov na
ĠPre m
04263 0
F re
m id
al acija
17 80
ĠE K
ĠAl lies
Ġ141 6
ĠAc ta
ĠWeb site
ĠMet ropol
b ank
z drav
Ġ11 55
ĠS che
et ta
04281 35
spec ts
1 015
M ad
Ġ10 95
ĠP ET
vi de
tain able
... (\
je vi
04281 41
04281 45
ĠRes ources
ĠAcadem ic
ĠMulti hunter
20138 6
ĠAir lines
ĠReg ion
G O
c ic
040 3
ĠT N
ud bal
038 8
in son
2014 6
be ll
em e
pl es
p ad
Ġ15 63
oc us
ĠHer ald
ĠC isco
ĠP ov
ĠEv olution
!.. {
x e
Ġ15 48
Ġ31 00
ur m
hr ist
alis m
ĠBro ther
redit ation
delj enja
P od
ĠW alk
ĠE ffe
ĠU se
eg e
20136 7
ator ship
Ġmet hod
ĠLabor atory
! ?!\
Ġ( ?
Ġ12 79
Ġ16 68
Ġs ik
ĠK ill
Ġpre vod
ĠLG BT
lam ent
C M
K R
Ġ16 27
07 80
i or
Ġl ove
ĠSp irit
enti um
ĠMic hel
ĠNav al
j ic
o da
ic he
om son
Ġd ani
ovan ovic
USA ID
U E
Ġ9 57
ar us
bo urg
ĠItal y
p res
ĠM oth
ĠD ok
26 29
Ġh y
bo y
0 4335
b ach
0428 146
17 83
ĠF INA
>> >>
Ġ________ ______
- {
ĠB ody
ĠHIP AA
il is
1 400
b olje
ĠT am
ĠG IF
Ġ136 9
D avid
n de
ti li
11 85
Ġw ords
ure a
Ġri f
ĠSt ankovi
+ +,
o ba
0441 0
ĠR AD
il er
Ġc ase
Ġb ra
Ġ121 4
ĠJel ena
Ġ15 81
ĠAd vent
Ġtre balo
! '\
3 035
Ġ16 47
ĠG oran
ik li
201319 42
ĠTom atoes
Pa ul
! ."}
a V
Ġ10 35
et ry
Ġpp m
Ġun i
te ro
Ġ26 22
ĠXX IX
ow o
ĠIv ana
n arod
Ġ18 001
Ġ9 74
Ġac count
= ,
01 21
05 78
ĠAc tive
M ob
e it
0435 16
Ġ8 98
en ska
ore m
ti an
Ġbe h
C redit
0428 150
Ġ12 63
im als
Ġ{ :
Ġ10 89
or ity
Ġ16 17
Ġo be
ĠB es
ĠF ight
ĠO rb
ĠPro p
uc lear
ĠDe utschland
ĠFil ioque
col or
ocol ate
ĠC MS
ent h
ot reb
ĠVI AF
nL a
Ġ16 73
is ing
ĠB ridge
yn ch
ĠSim s
D ata
d ru
\" );
Ġp ul
ud df
Ġh on
on av
sp ort
ĠSerb ica
Ġek olo
t ory
ĠM undi
Ġfakul te
V ol
-\ "
Ġ16 39
Ġs erv
Ġs ever
Ġc iv
ch ester
Ġanal iza
dEV NOST
Ġs nezana
ĠH ospital
Ġdis count
ĠPen gu
R eg
0425 8
ĠT S
Ġg uns
}} </
ici ency
ĠMag ic
ATION AL
x i
0442 5
en om
ĠS EC
ĠM L
ĠB R
at son
um i
20137 4
ĠImp erial
p op
ĠH op
ot he
ap is
ĠSt ream
ĠVi ews
ĠBEOGRA DA
042 34
Ġ9 38
ic evic
ĠO ther
20132 006
nT e
Ġ132 3
sh ow
20137 7
Ġs ti
ĠB eta
ĠV ene
Ġn es
ĠCO M
Ġ136 4
................................ ................
ĠUl tra
ĠRot ten
j ar
Ġ11 67
Ġ16 59
ĠA dam
and om
Ġh um
ĠPh arm
20142 001
ĠRad ovi
Ġpot reb
NI KA
i at
2013 91
Ġ16 37
ĠL an
vod ine
ST ER
Ġ135 2
Ġ141 7
OL D
po int
ĠStud ent
tak te
ster reich
d IV
Ġ9 81
Ġ15 62
ĠAnd rew
n in
s cape
0441 9
0410 12
Ġ15 56
Ġc i
Ġ12 72
ĠM id
ĠK as
at ment
vi z
) \".\
f E
Ġ9 67
Ġ16 63
.... ...\
ĠJ ung
ve za
Ġda lje
Ġpr il
ĠJot Form
526 21
d ini
Ġ10 97
Ġof fer
ĠOLD AL
! --
B i
0414 9
10 20
ĠK el
Ġ00 5
ĠAustral ian
ĠBol lywood
ĠEug en
e More
g el
Ġex cellence
kov ac
ĠDeb ian
P r
go o
04281 44
teri or
Ġ________________________________ ________________________________
Ġcount ry
ĠRelig ion
E AR
or ski
ĠS ele
ĠN in
eW orld
nN umbers
Ġro ad
ĠRet rieved
Ġm ut
az naj
ĠPro per
? --
M el
_ %
__ _\
Ġ* /\
IN D
Ġ104 3
lin s
! ;
z ia
22 25
tes a
ĠIN SEE
s anu
ĠR ing
un ity
Ġb iste
Ġg ive
ran e
Ġte ch
04213 0
Ġev rop
ĠWik imedia
10 50
ĠW el
ĠB ok
pe ten
0000 0000
ph oto
iss e
adem ija
+ /
z ip
06 36
ĠB S
Ġm aster
os ta
ĠH ockey
Ġ32 81
ĠTh ink
ĠJo int
ann er
ĠChampion ship
M G
Ġ11 25
da lo
Ġr ac
eg en
A ir
g est
0428 148
ĠP OST
ĠL atvie
Ġk e
ĠH ad
hot mail
Ġp ove
nNov ember
F ull
M od
h or
Ġ10 78
Ġ12 25
Ġ12 96
ĠP ear
20132 007
ob s
ĠTe X
ĠKomm On
Ġdict atorship
ĠI bid
ĠC ities
17 50
do t
Ġt able
Ġan onymous
Ġnaj ni
ĠDemoc racy
Ġ15 44
ĠC i
ĠG rav
ĠO h
Ġb ok
Ġ! ?
Ġpre t
ĠEurop ass
ur ance
Ġda ys
20137 2
Ġdru ge
gra me
mmun ition
ic ije
ĠT s
ĠB AN
lj enje
sz t
ĠP in
ĠR oc
ĠZ n
Ġpo ezija
145 3
ĠFant astic
unta ins
ĠNich olas
H CR
e ch
pa ti
063 0
E uro
P D
Ġ3 400
Ġ16 24
ĠG ay
Ġsk up
2013199 9
ĠTrans fer
f z
041 456
Ġg ro
sz l
04353 0
{ /
de la
Ġk raj
Ġ000 75
ĠPri ze
ĠBulgar ia
k c
Ġ ):
Ġ ___
Ġ10 87
Ġ11 56
ed no
ca tional
et he
Ġc yr
) &
W X
ĠS erv
ie u
lj iv
ĠFl or
ĠInst alacija
ĠBlu es
Ġzaj edn
f ik
y ear
Ġ12 58
ĠM T
ri ter
Ġ[ /
Ġ119 7
1 010
e un
ĠN C
04141 2
Ph il
101 8
B ro
m oj
ĠSte in
nR egional
Kon takte
h rvat
r m
t ab
ĠS of
ĠC I
Ġ100 7
17 40
ĠK ids
ĠE mil
ij ent
eri or
den tity
ĠEconom ics
in ov
eC o
? ."}
ĠV Kontakte
fo e
ĠRob erts
Ġzloup otrebe
0443 7
Ġre fer
Ġre port
AR M
Ġcomp any
ĠChrist opher
Ġri je
/ #
F R
0458 1
Ġ14 74
ĠN S
26 00
ĠH em
Ġg oogle
for ce
ĠSh ort
20137 6
ĠNe ma
ĠMark et
Ġsec ond
, [
Ġ16 57
ĠF R
ĠU rednik
Ġima ju
D el
P CR
11 86
101 2
Ġsam e
ĠMet al
ĠGru be
3 033
I mp
Ġ9 93
ĠW er
re ma
ĠE g
Ġa ge
Ġg ren
ak ov
vi deo
20138 5
Ġcont ra
M ill
2013 96
Ġ9 91
Ġa mmunition
ack ing
Ġindiv idual
w t
07 25
isto ire
S m
0438 18
0438 17
Ġ9 94
ĠM oj
ĠP ow
17 11
Ġsp omen
k us
Ġ16 74
17 68
ĠR V
Ġ121 8
ĠGold en
data ka
0434 7
ĠA ca
ĠXX VIII
Ġre ci
Ġpre ko
ĠHrvat ska
Ġgre at
ĠBlo od
otre ba
z p
Ġ10 75
c ole
0433 10
ĠC ass
Ġ: "}
os lov
eL e
ĠGe ographic
02 31
ĠS usan
ĠP y
Ġp omo
re at
)) ))
35 00
ĠP u
ite ta
iz u
ĠCent ar
Ġco uld
2222 2222
ĠM OR
ĠK ral
ĠL ord
ĠF inal
Ġof er
T INE
x it
01 23
ĠM ake
pro gram
ĠChrist mas
Ġincl uding
nRegional ni
J os
Ġ9 82
Ġc los
Ġf estival
ER A
Ġbe ograd
ĠCol l
) );
h ow
je l
20141 0
ĠSp iegel
Ġpoliti zacije
Ġdrust vo
ulta ti
Z r
k v
Ġ0 33
ĠE SP
ĠG RO
la us
ĠWil ey
ic er
Ġp ute
Ġ40 000
ĠV ivaldi
qu er
Ġ/ *
op tera
Ġro unds
ask ola
M ay
Ġ1 013
Ġs ati
Ġp ara
ĠF ab
ĠRout ledge
% !
? --\
0445 5
... ''\
Ġh r
Ġ131 9
Ġext ra
uzz le
V L
Ġ __\
Ġk Pa
ĠN ev
20132 004
201319 19
ĠTo ols
eth ing
ĠBill board
] [
Ġ15 91
12 61
all er
fol yam
( ?)
B os
F E
Ġinter es
Ġrif les
I JI
ent o
ĠAss ass
Ġzav od
ikiped iji
ĠBRO J
c to
p f
02 23
Ġ10 91
ras il
z on
ĠM es
ec i
ceed ings
Ġ10 93
om er
ĠR ou
ol ia
ri ft
ĠY u
e ko
ĠA SP
ter dam
Ġf em
Ġne ke
OT O
ĠAnton io
K o
ĠS ign
06 25
Ġ120 6
Ġon a
ack s
ĠSta ff
Ġro th
======== ========
Ġpartis ans
: ,,\
I z
ĠA h
ĠB undes
ĠF ron
Ġ12 67
... ''
Ġ100 9
ed es
Ġpr vi
ĠSo faScore
ĠCam paign
ĠCustomer Self
ĠCustomerSelf Service
V id
c n
l n
ĠA RC
Ġs ay
un ar
20138 4
zav is
S Z
Ġ0 72
Ġ140 6
20136 1
Ġwork ing
ĠPsych ology
Ġgren ades
o tt
ĠC BS
ĠP ad
ĠCh ronic
Ġca tal
oth ing
Ġ11 62
Ġm uch
rs t
Ġ32 000
Ġ\" "}
AL K
EN D
ĠMos cow
4 3035
Ġ org
Ġs om
AM A
ale ks
20138 8
Ġkon kurs
ĠMark eting
Ġautoma tics
Ġcyr ilic
* ..
Ġ1 028
ĠS eas
re al
Ġ= \"
In d
ĠIns allation
ĠSun day
ĠPoz drav
cocc us
C Z
R q
s et
ti ci
ol iti
Ġd v
\\ \"
AC H
121 7
ĠPlan t
0 43035
E nd
J ul
L eg
e uropa
0428 147
Ġs en
15 20
Ġf ur
EC O
ced es
p atri
Ġ9 79
Ġ12 71
Ġf ej
Ġpro grama
AC T
ĠMil ano
ĠWil helm
00 84
Ġ142 4
20138 2
ĠStud ios
ĠBro thers
41 37
21 00
ĠIn novation
Ġsu i
ance l
Ġmet od
Ġsvet u
nEx odus
e uprava
2013 99
Ġ11 52
bo w
IM P
ĠGav ril
ĠT ok
ĠB ot
ĠN BC
Ġz iv
20136 6
ĠAll iance
g az
ĠT ako
Ġt amo
Ġz ato
ĠCon tent
ĠXL IV
L ib
ĠB L
Ġin dex
ĠSte el
Ġvid im
ĠBW V
ROZ AT
2 202
Ġ10 33
17 92
ĠK R
Ġf ire
100 3
ĠDesign ed
0411 10
0420 10
Ġ( [[\
Ġ1 017
or ija
ĠA mb
na ti
ON T
ici ma
app le
bol j
S a
g h
201 440
ĠR af
20136 8
ĠNat ura
V P
s earch
ar te
ĠN ut
ool s
ĠPal ace
ĠDef ence
Ġ16 000
ĠP it
ĠL ite
Ġv las
Ġe lement
ci telj
ĠJo omla
Ġpos le
C r
k el
ti ti
ĠR AF
Ġb ili
ĠPol y
ĠFran ces
ecu tive
10 71
ĠF ig
Ġw y
ĠO va
ill us
Ġkomunik acija
ĠPla za
U l
j us
Ġ10 73
22 28
ĠJ ovana
th a
201319 03
Ġth ink
Ġvel ik
ĠAmaz on
1 021
b t
f ont
Ġ hel
0440 8
Ġ10 55
Ġ10 67
Ġ15 07
ĠC av
ro te
ip e
Ġ124 3
eC on
doc ument
sm all
... ]
are vi
Ġod lu
ĠUN IV
zi ej
ĠWil son
: (\
v folyam
0410 11
Ġ15 11
Ġ16 62
Ġ14 84
ĠP is
Ġe ver
nC h
20136 2
titu tion
onav irus
V ER
042 318
0428 149
ĠM c
ust ral
ĠDan as
Ġ1 045
Ġ10 31
de li
ee ch
Ġv ic
20131 28
st al
ite n
ĠElect ronic
il es
sk ol
st v
iti ve
04281 42
den o
D D
0435 19
Ġ14 64
AT OR
nd er
Ġ________________ ____
vesti g
! (\
/ )\
t opic
041 359
\" );\
Ġ10 98
ĠM ini
ac tive
ĠU m
ala xy
ĠMon ey
B OR
0420 9
st ory
71 00
nal ex
20138 9
Ġpor no
Rad ovan
ĠRefer ence
P er
d io
Ġ- )
ess e
Ġto ur
201319 15
rib u
ĠPres ident
z rp
025 4
ĠI o
ĠT EL
lad i
z et
ĠD I
Ġw ant
Ġc ip
ron a
134 6
ĠPhot oshop
= (\
X C
0435 17
en j
12 22
Ġ140 1
ĠBi ology
tig ora
b io
ĠT able
ĠB us
il ly
ĠH ist
'' :
ph al
Ġ114 3
...\" .\
xx xx
row th
ĠTex as
[ ]\
0428 151
is er
ĠL AN
ĠG allery
ĠH ER
Ġd im
ER BI
ide a
ĠEuro guidance
m und
t ova
Ġb og
Ġ... ).
eb u
ĠComp lete
avlje vic
D M
ĠSp y
RE AT
131 6
ĠVik tor
ĠS AM
Ġg as
ion ica
erb al
D on
h osa
k tor
s lav
201 381
ĠM ong
17 72
ĠR ose
Ġd est
ĠZ av
Ġpro ducts
!? )
ĠBar b
ĠBI OS
D OS
K a
Ġ8 49
ĠW he
ĠL ow
Ġq ua
nC C
ges ch
Ġsl ika
zrp f
C AD
w eek
Ġ tes
Ġ9 47
Ġ12 66
ĠG irls
Ġ000 5
Ġ11 63
ĠA y
Ġi r
ul f
Ġst rad
201319 47
Ġequ ipment
2013 94
or us
Ġs lov
ĠR iv
Ġf lag
Ġb ank
iz za
olos ka
Get ty
ĠA IDS
ĠP ORT
ĠN as
ĠU r
ĠHan go
Ġ11 49
12 21
Ġp ad
ĠB ull
ĠH ugh
Ġ35 000
ob ra
ĠPl at
rag an
133 3
Ġsl ike
P ower
c la
f as
02 92
). ,
Ġ11 71
10 66
ĠL ocal
ri tish
Ġ119 2
Ġpra vo
Ġak tiv
Ġdem ok
ĠRoll ing
+ +\
Ġ9 64
do cs
Ġsp ace
3 037
Ġ );\
Ġ14 86
Ġin c
ran ic
qu id
d il
l ive
p ancevo
22 95
ĠL L
ae us
el lo
W ar
w art
on do
Ġe ine
ĠMo de
ĠCH F
w orth
ĠL ay
221 24
20137 3
ĠNav y
C G
Ġt her
ĠG ol
ĠG as
Ġv il
op i
ĠAr ab
nT a
Ġ136 7
ĠVir tual
S loven
T er
12 20
ĠA j
Ġwh ile
$ .
0452 2
ĠR ow
Ġd id
Ġte me
ĠAir ways
amil ton
/ ).
ĠP OS
Ġu vek
nik e
c ta
Ġ11 40
al ji
Ġs elf
ĠT at
ĠB ug
ed v
ĠD ES
ĠL LC
ca ust
Ġb iz
ta ge
ap y
ĠPrin ciples
ĠIndust ry
ĠRog er
Ġ10 59
ĠM ex
12 28
201319 74
Y CH
Ġ ???\
Ġob java
ĠHer cegov
ward s
ĠInvest ment
9 1868
] )\
v ik
ut z
to tt
ord on
ĠAd s
Ġlear ning
, ...)
ĠW ide
ac ia
ĠT OP
ĠD ynam
fc ber
Ġal s
ĠGra ph
ĠSqu are
3 064
q q
... !\
re a
Ġt or
ĠJ am
ari i
Ġpl ot
rem lin
f k
ic ka
ĠG OD
04144 4
Ġra tu
Ġdj ord
Ġ .,
Ġ12 24
ĠM undus
ĠW oS
Ġ: -
Ġ.. ...\
oz illa
Ġ136 2
ĠRec ord
Fil ip
ĠCount y
emb ly
in en
ide m
ĠExper t
K ing
T or
Ġ10 94
ĠA U
ĠF u
Ġc ost
Ġzdrav stvo
` )\
x is
Ġ9 84
Ġ12 65
en ih
al le
ĠF ern
ĠSt r
ĠPhys ical
Ġ0 53
Ġf am
ack i
Ġ121 0
Ġprin cip
O E
w i
ĠM ALI
.... .."}
09 82
ef ore
Ġ121 3
04341 9
Ġo ch
unc tional
ĠTechn ical
ĠNik olic
T alk
Ġ12 62
ĠT ito
ĠB od
Ġt nv
ja k
ci ju
20137 9
140 2
ĠIniti ative
2013 92
2013 97
Ġ11 10
Ġ16 33
18 19
Ġk amp
Ġ38 00
Ġsrb ije
ĠArs en
en ko
Ġm eni
ĠN y
ex e
iz ma
ĠCh a
ru ction
ivers ity
oje vic
Ġdij ale
Ġ15 99
15 57
ĠB ing
il t
Ġ000 65
20132 003
ĠRep ublika
Y a
ĠR I
Ġvide li
ĠLew is
en burg
ar do
ro y
020 9
ĠBo eing
ĠIP CC
ĠMih aj
ĠSCI ENCE
D an
w en
000 36
ĠI gor
ĠK ra
ri on
ef t
Ġ.. ....\
20142 000
Ġac adem
ĠXXX II
Ġpoli tical
Ġchar acter
G R
c um
2013 93
ĠU TF
Ġ138 3
ven az
ĠMe teor
jen o
cz eg
SK I
Ġ............ ...
Email Facebook
Print EmailFacebook
Ġ11 53
Ġj ure
ĠA ni
Ġp ati
Ġb ot
est y
ID E
ĠAre a
Ġfrancus ki
I tem
Ġ1 041
ĠA CE
17 93
ut her
ay Pal
iti v
ĠBe ast
ĠUN ICEF
Ġjed in
unk er
ĠPrin t
C ola
ti te
ĠA u
ĠK ur
ro k
Ġh ist
Ġe very
Ġbe fore
ĠXXX VI
) +
1 011
B lack
O ct
Ġ16 36
ĠW IZZ
Ġl ocal
20132 002
Ġpo dataka
olo caust
? '\
0441 10
0428 158
Ġs on
ĠJ ustice
Ġiz men
ĠIns ider
% );\
c ad
d t
Ġ10 37
Ġs w
Ġ29 00
ĠWar ner
L OV
Ġn akon
ĠJ S
Ġz b
eW hat
( -
; )
ĠP lease
ĠE ll
ov ni
iv en
ip ortal
Ġpos lovi
ĠRev ised
stand ing
p at
ĠD W
le z
ĠIn f
ak u
Ġst rate
Ġna ziv
201319 40
ĠOpen Office
Ġus er
SM ART
ĠRF ID
! ?"}
C al
J a
x ml
12 34
us es
ren janin
C ategory
11 50
ĠL ang
ĠL ingu
Ġ000 78
ĠPol iti
Ġfilozof ija
Ġmoder niz
Ġ16 76
nP ost
ĠXXX IX
fr ast
ĠDrag on
Ġprija telj
b iblioteka
e de
10 97
ĠD ig
Ġne ka
102 9
ĠXL I
ĠPre mium
Ġpod r
Ġsvoj u
ĠOT W
r f
ĠB ibli
Ġb ody
ĠArch ite
p ublic
Ġs or
re ative
ĠT et
ri f
fe ktiv
ide l
20138 7
pol is
~~ ~~
D a
n ovi
10 37
ĠP IC
Ġq q
C TS
s ok
Ġ20 48
Ġ10 34
ad os
ter nal
no de
her n
Ġsrp sk
ĠDan ube
ument a
AK TI
Ġbl ok
M ichael
h ome
l iv
je kt
ĠG E
ul o
Ġen ter
ĠRes olution
145 6
ĠPublic ations
ĠLiter al
Ġ !!!!
0438 16
ĠI mm
2019 99
ĠM Q
tel la
h il
0440 53
ar ma
ĠC ENT
ĠA TP
........ ..
ĠTh ings
lia ment
H ome
f pe
g re
j y
m ut
Ġ20 29
Ġ16 81
10 73
ĠM unicip
ab ac
ip er
no f
se vier
Ġgra matika
m ission
0428 152
... /\
ac le
ĠD iet
et ball
Ġob i
Ġup otreba
ĠMet hod
ĠLab s
ĠRena ult
+ \"
k id
0425 11
Ġ10 76
Ġen ciklop
AP TR
Re ina
Dar by
es ia
ĠC RC
ĠT itle
Ġ" ,,\
ir ano
Ġ144 9
Ġpos eb
Val era
G al
S im
W est
ĠO kt
Ġd ra
Ġbeca use
z im
Ġ10 57
Ġm orn
I l
w ater
Ġ10 38
Ġ12 22
Ġ12 75
ĠB la
Ġk an
ance lar
ĠElect ronics
j ene
0428 154
Ġ12 47
ĠC B
ij er
erv us
Ġsec ret
ĠAleks andra
Ġ0 59
de ks
Ġs re
ĠBlog ger
h on
k omm
03 07
Ġ12 95
Ġw indows
Ġn om
th od
uro vi
ĠSh ift
RI A
P eter
ĠC ru
05 82
ĠB lan
Ġm achine
ĠK at
ĠE co
27 56
ard ziej
ĠDal ibor
ĠCompeti tion
0435 20
en gl
ĠK l
ĠL ac
Ġw ireless
Ġu citelj
em y
Ġz ab
APTR ICK
N ik
Ġ( ...),
ĠI ran
ĠN ag
ĠAl an
az ivanje
nd rome
ĠSal ute
= /\
da c
ca tor
Ġe uro
Ġ137 4
Ġsz czeg
Ġmet odo
W B
c ont
n on
Ġ11 64
17 94
ĠV eter
Ġr un
unda ment
venaz vezda
er ve
en y
ĠS ide
ĠB razil
ĠG ate
ĠIn tesa
20138 3
ad el
Ġo pp
16 48
ter m
em on
ue vo
Ġde ll
Ġdis kurs
Rq N
E r
ĠM am
ĠM ission
ĠC uri
ĠT anjug
ĠH at
sk ie
tic an
RA S
ĠRes pons
1 202
d fe
d igital
as ta
le k
li er
iss ance
ĠComp an
ĠTer ra
ĠBu ilding
.]] >\
0428 153
Ġj ugo
ĠB ros
ĠN AD
Ġn icht
Ġb omb
Ġl ang
ĠIn t
Ġ.. "}
ron ika
Ġistor ijska
ĠConsult ing
, *
Ġ13 38
12 41
ĠT ransport
20141 990
ank ovic
Ġph ot
Ġrec ogni
10 56
ot ing
ust in
IM A
Ġnov osti
M areBG
ĠS her
ti fication
Ġs na
Ġc ross
?. .\
ĠZ D
305 5
zab eth
Ġcri men
ĠId enti
e ine
p ass
ac um
'' ),
Ġc ovid
ĠJ ed
uro vic
201419 29
ĠCa es
ĠSun Porno
Ġgratis indo
c ur
ĠI DE
ĠB art
li ja
ĠPro grame
vo da
ani ma
ĠBro j
wik imedia
ĠCine ma
n eg
0425 10
or ije
le as
Ġb oris
li de
Ġpl ace
Ġres pons
ĠBy zantine
C y
g ers
Ġ ori
ĠB oris
Ġa vi
ate na
oz a
AG E
ĠDom ain
ĠSO CI
ĠMoth erson
( =
ĠB ou
ĠK unst
ce o
ĠV iv
Ġv odi
Ġu re
ib l
201319 67
ograph ical
ett ing
W al
l ash
p oreklo
0417 3
te ze
it atis
Ġpo ints
ĠMil ana
ĠEqu ilibrium
% /
ĠF ord
Ġh ref
iro t
preduz etnick
l ab
ĠA uth
ĠL on
Ġ131 8
121 6
Ġor ijent
ĠSrp ski
p g
Ġ10 56
Ġ15 18
Ġ16 78
ĠC razy
ĠP ep
Ġk up
ĠH vala
Ġ00 141
20132 00
ob ac
ĠSt ad
log a
nM arko
US E
ĠDav is
ĠFri ends
M ax
Ġ11 12
Ġ11 46
18 16
17 76
Ġk ul
ĠFor est
ĠCa fe
ĠCatal ogue
REM E
eSerb ian
zrpf ns
+ -
, ,,\
v l
044 44
2013 98
03 38
10 57
ic le
13 05
ĠG un
af av
ovan ni
Ġorig in
r ence
Ġ12 68
Ġ13 02
ĠF ax
os te
am ing
Ġknj ige
gar is
ĠSW IFT
cion ica
feren cije
Ġ0 70
Ġf lo
Ġf ant
cc Yo
tic um
lic t
120 5
123 0
2265 2
ĠDut y
Ġminim is
M ark
ĠR ail
Ġf ab
Ġh od
Ġ>> >"}
UN D
ĠFil ozof
tain ed
ĠBroad cast
4 3038
Z A
Ġ8 221
en ju
Ġm esto
ĠD ID
ĠL ietuvi
Ġen ergy
0 43038
1 028
\", \"\
12 40
Ġt ake
ĠF ace
Ġd je
nO d
ug in
ĠBo ys
132 2
OV AN
ty pe
TT T
ĠAnth ony
ĠProvin cia
L J
0410 20
0428 156
10 77
ĠV r
um enti
ĠSrb ima
Ġam ong
0420 11
Ġ11 37
er ic
Ġo c
17 70
ĠR B
ers hip
Ġsp orts
20142 0
nOn line
0438 14
0435 18
ens es
ĠSm all
stven i
ĠFra u
= >
e ac
ĠR io
ĠK ad
fc nk
ric s
ĠEv ro
Ġbic ikli
Ġish od
0432 5
Ġ10 74
10 34
ĠM ister
ĠB lock
ĠL X
ĠV ari
ĠN ET
Ġv remena
20131 20
ub untu
Ġst ream
ĠCon nec
Ġch ange
ĠSc lav
iportal srpske
preduzetnick iportalsrpske
S KA
ĠR aj
ĠV or
at omy
ec es
ĠIN ST
das ovi
arh iva
ĠSvet lana
ĠAuthor ity
Ġ11 22
Ġs eg
17 74
ma h
ĠSM ATSA
ĠAv iation
1 042
ĠR an
ĠR oss
ĠV im
M R
T ime
W Q
k ir
Ġ11 07
ĠA ms
ĠT on
ĠB rig
am et
Ġ1 023
ic ki
ĠD est
am in
20131 50
ko z
Ġ137 2
pl ik
lu ge
nv ia
ĠLu ci
ĠMad rid
peri ence
p n
Ġ12 73
11 89
ĠW as
ter min
Ġ00 13
ĠMin istry
Ġgener is
Ġce ca
Ġcomm on
ĠJoh ann
! -\
3 041
D ev
R ich
d BENI
0428 157
ĠM ot
tu red
und red
hat sApp
Ġadminist rando
) {
] ),
d m
0435 23
Ġ11 08
Ġ14 91
17 99
Ġm oje
20131 55
Ġ" ...
ta te
ĠAth ens
C at
T ele
c KA
f irst
Ġ12 92
ĠC lick
at ura
oc id
red nj
ĠMe eting
ĠDou glas
3 039
ĠP ier
ĠDrag an
Ġur ban
ĠPS YCH
ĠKis wahili
M V
f ree
Ġ12 98
06 21
il lo
ON OM
amp f
Ġsig ur
. _\
4 3049
0428 161
0428 155
Ġr en
ĠZ lat
0 43049
B er
v eta
Ġ12 39
Ġ12 48
10 98
ĠC row
ĠH amilton
}} .
Ġal bum
oje vi
ĠRT S
ĠIs lands
ĠEF L
B io
t ven
ĠS ain
al ih
Ġm iss
Ġv am
20131 58
ag ed
Ġmark ovic
:::::::: ::::::::
` `,
n old
0431 4
ĠP ho
ĠW H
ĠV PN
aa t
ur u
ust av
ys ics
04281 63
Ġ102 1
min polj
ĠNA STAV
ĠIF TTT
ĠFAC UL
U y
f pa
Ġ10 32
Ġ11 45
Ġ11 06
ĠC it
ĠA ure
Ġs mat
ep s
lic e
ĠComm and
EN ER
04241 0
Ġpost av
Ġdis play
0441 7
ĠM un
Ġp ay
Ġv en
ĠPro duc
ĠMe et
ĠUN HCR
............ ...
ĠBab ylon
ziv ot
p lex
ĠA vi
201319 76
ho z
Ġps ych
ĠEv rop
ĠLatin ica
ĠFACUL TY
1 040
U TS
Ġ 028
in st
ĠM organ
ĠA Z
ĠP ak
Ġp la
ur ic
ub i
ĠSt re
Ġ? ,
Ġvit ro
lati bor
. `\
an ica
ĠAr tist
ell ing
sl glasnik
C ont
0440 7
0411 40
ĠK uj
ov ica
ov ski
ri ver
Ġ000 77
) !.\
z ens
0431 5
Ġ- --------
Ġ11 35
Ġv ita
Ġu e
Ġ134 4
Ġcomm ented
Car Radovan
d Posted
p art
0446 6
an ovic
he w
09 21
Ġa y
ĠL ing
ag an
ĠImp er
ĠLev el
u tim
ĠS afety
ĠB ly
ĠE V
ĠJ ane
nC ovid
ĠTh ree
asp it
Ġ________________________________ ________________________________________
Ġide a
ĠDun av
ĠROM AN
_ .\
11 13
ĠM ike
17 85
ĠH ere
Ġb ox
20131 13
Ġ" [\
ci j
201319 39
se ud
abe tes
ĠPers pec
M IL
o ti
v ostok
Ġ11 27
ĠH ear
ĠPop ovi
ĠAc count
ĠDom in
svet osavlje
* )\
v uk
Ġb rain
fe ed
220 5
EC D
OL A
in form
ĠS ever
Ġhe ad
Ġ________ __
ĠOb serv
fil m
ĠZe aland
ĠOP EN
Ġimper io
0428 168
Ġs ed
am ber
av t
ell es
D i
U A
in om
Ġ11 57
10 31
be li
Ġc ustom
ĠZ one
uc ic
Ġ136 1
ĠAt las
2013198 9
Ġpon as
Ġkomp ar
Ġ ik
al ia
ĠN eb
Ġ% ).
]] )
Ġnaro da
ĠKuj und
Ġ11 15
ĠC rk
ic om
Ġf uture
Ġin flu
Ġpro sl
Ġpro duction
ĠAd d
ES P
ini tion
nN ew
Ġpra ks
c ity
j ac
k le
l ak
z ak
ĠI STRA
or ter
ĠP rag
ĠH igher
221 25
IA F
139 1
ĠTurk ey
S tation
ĠF ru
com ing
ver ter
04141 6
Ġex change
ĠMon itor
s av
ĠG arden
Ġin sp
oj oj
for t
ĠMaj or
ĠDalibor ka
: (
D rive
Ġb iblioteka
Ġe urop
201419 92
ĠIP TV
lad e
ĠApp lication
dk oj
d im
ĠV REME
201319 92
ron ym
ash ing
Ġun a
por ed
153 0
ĠLin n
Will iam
E agle
Ġ 0003
Ġ12 81
ĠO SS
Ġh t
ĠPh one
Ġdrust va
Ġbicikli zam
' -
C B
0435 21
be o
Ġl iber
Ġda t
110 9
119 0
Ġ_ (\
Ġcomp uter
ĠHar vard
ĠCath olic
J e
Ġ ich
00 93
12 35
ĠP VO
Ġp uta
........ ......
4 3032
0 43032
? )..
D o
u red
Ġ( %),
ĠW a
ĠK ragujevac
it he
ag ing
rac ije
Ġkoj ima
ĠOut door
ĠEr ror
olos ke
Ġfilozof ski
Ġaleks andar
ĠGavril ovic
f ire
te o
al j
0003 0
le b
uss y
cl ing
ĠWorks hop
P lan
0436 1
0412 7
ĠThe y
ĠZ ap
Ġpo e
ĠLa ur
Ġmil j
tak tu
ĠGal ego
Ġimen ica
P opular
e be
Ġ16 46
Ġm ak
ĠD B
Ġk op
ĠItal ia
C an
N i
p un
v t
Ġ14 72
ĠW ine
ĠN ED
ĠN ever
Ġh ouse
Ġ--- >\
ĠAir port
P e
201 432
ĠM orn
ĠP T
EM E
Ġsta tes
Ġsing le
N or
Ġ10 65
in ska
Ġ12 59
ĠS G
ĠR on
ĠF lav
st rike
ĠZ renjanin
nN as
ĠWh en
ĠFac ts
Ġinst all
Pan el
ĠSAV REM
[ :
v c
Ġ18 0418
ar ija
11 12
th uman
nov inar
ĠAfric an
z es
0410 27
ĠN L
et ch
Ġf act
Ġb il
nPre v
Ġdev ice
Ġgu ide
1 450
p ond
Ġ11 09
ĠA sp
ĠW o
ĠB ee
ep a
EN TA
ĠMa h
Ġpsih ologije
Ġret urn
4 3046
r ti
0428 162
Ġ12 31
Ġ11 26
10 46
... !
17 37
ĠD ak
Ġd irect
ĠAn na
** ,
305 3
kl op
ĠSal mon
ĠEp son
I ED
0431 0
ĠI UPAC
ĠR ai
'' ;
Ġd B
ude ff
ĠXXX V
ĠClass ic
A frikaans
g ate
0420 8
ĠS ava
Ġ100 8
Ġk abinet
100 6
ex ample
Ġex per
Ġsever al
A ng
d nog
0426 14
Ġp ris
ĠK V
Ġv jer
Ġd z
ĠY O
100 000
iz acije
ĠZ w
145 1
ĠPri ma
ĠFel ix
Ġmit rovic
ĠBib code
clus ive
ĠKujund zic
0 43046
w agen
Ġ12 77
ĠS n
12 42
12 97
ĠAlex and
Ġpsih ologiju
Ġ11 44
Ġ11 05
ĠC EN
ba o
Ġt j
ĠJ et
Ġf light
Ġ00 155
old er
ĠSc reen
Ġhrvat ske
A SA
c ard
f ly
f ull
0428 159
ĠS uk
ĠM ojo
ab out
ĠD ob
ĠE Y
ci ji
Ġpri vat
Mil jan
Ġkri ze
. ].\
J ames
s im
0435 22
Ġ20 31
11 36
Ġs ea
ĠR C
Ġf ar
Ġ" ''\
Ġe ven
04142 0
dis cipl
Ġsec urity
ĠDirect or
Ġorijent acije
C la
E urope
L o
S cience
\"\ "\
Ġ10 48
Ġ0 46
Ġ11 03
ĠS ome
12 71
ĠT F
ĠL ap
Ġc opyright
Ġin teg
ot om
IC H
enov ac
Ġvoj ska
ĠPav lovi
md uls
C K
S ee
T ur
p ower
ĠI ts
ĠC redit
ĠB ild
Ġk ont
Ġ130 4
ini um
Ġaut o
gle da
ĠPerson al
h istory
ĠS at
Ġs el
ov ano
ep e
ĠMar sh
ver tis
Ġpes me
c g
ĠA tom
Ġm j
ĠL loyd
os o
un ts
av ul
201319 80
Ġfo und
n sz
t ine
ta x
ĠCh ess
ĠAn ne
uro am
120 6
Ġmed iji
201313 0
tif ul
N ovi
0432 7
01 40
10 68
ĠR FC
Ġm r
09 02
ĠK er
ĠG em
od ina
Ġ102 2
Ġba ttle
Ġ++ +\
ĠPRE SS
N ATO
W C
Ġt ransport
Ġa fektiv
ĠO ba
Ġsp in
121 5
ĠNo te
Ġjed na
Ġsoci ologiju
ĠSum mary
4 3048
0 43048
i Serbia
bb c
ĠF itz
be z
et us
119 5
Ġdu hov
istoc ne
Ġbalkan ske
4 3047
0 43047
Ġ( [
ĠV ent
ĠAss essment
d rag
0446 0
Ġ12 57
ĠP ortal
25 0780
ĠL ost
Ġc hem
20131 12
AT I
AN TI
Ġdo l
******** ********
ĠPSYCH OLOGY
F orum
Ġ12 23
ĠR ome
ol y
Ġv rs
ap at
Ġ? ?\
iam ond
ĠLic ence
abl ish
dIV ANJA
0445 0
ĠB urg
ĠF low
aa j
Ġf inal
Ġg al
201319 13
lj anje
tv u
201314 3
s tein
in f
Ġ14 73
do g
ION S
Ġdis ease
ĠSV ET
Y oung
0443 10
ĠC Z
be it
........ ...
20141 5
ĠUn it
Ġiz d
305 8
Ġac cept
ix a
Ġkon takt
ĠCont ra
ĠGuy ton
ĠFed ora
E dit
G er
H en
ĠG DPR
..\ "
Ġfac ijal
ĠAb stract
201310 4
ĠAk adem
ĠFact book
Ġ16 79
ĠC asa
ĠA F
ĠT M
vo ja
ĠJew ish
ĠUNIV ERS
Ġkompar ativna
Ġ180418 78
s ar
x n
Ġ12 45
Ġ12 83
Ġ14 87
al no
ĠP ris
Ġse be
309 2
SP A
ĠHol y
Ġsin teze
Ġmilos avljevic
ĠNIS UN
ĠTIM SS
11 18
Ġd ies
gl istika
nW eb
Ġpos thuman
Ġraz um
ĠLib r
Ġche ck
Ġfri end
Item id
p in
s y
0421 12
0428 167
10 78
ĠS pa
12 74
12 58
av ing
Ġl ik
Ġpro per
ree k
ĠSh adow
ico de
Ġjugo istocne
D ec
0442 6
co u
cd sl
iss us
Ġar g
jen ja
Ġpres ent
Ġpog ranic
Ġkaz ivanje
valu ation
ĠDID AKTI
L ine
O b
g art
0415 10
ad ar
Ġ11 31
ĠM aps
12 92
Ġs yn
ĠBe z
ĠCon nect
PS K
ĠMed ic
ĠIF LA
acion i
Ġmetod ika
3 063
H G
10 59
18 03
ug ht
ber to
Ġfil ologija
Ġdrust vena
Ġmat avul
Ġned ogledi
Ġstarosloven skog
ĠTEORI JI
Ġishod ista
Ġpogranic ju
J et
t ri
32 00
0428 165
an ia
... );
17 35
ĠR ey
'' ."}
Ġc li
ik at
20131 36
!! !)
Ġz akon
ach us
Ġle ad
pro ject
ĠPat rick
ĠElectric al
Ġ ].
0425 12
ab ay
ĠO cc
102 2
Ġme an
gra f
MO Z
M ir
T M
r ussia
ĠV isa
oz i
Ġen vironment
ĠGu adal
ĠIT F
ĠMem ory
ĠTar get
hin ja
c iril
0433 6
0410 125
ĠT rip
ra ge
ĠF ore
ci rovic
Ġ00 157
nS um
2265 1
ĠWolf gang
U s
X Y
d ije
Ġphil osoph
J an
e Un
n z
Ġ ram
ĠS peed
ti co
ao s
Ġa ff
be g
Ġl iterature
ĠAl b
nH e
Le ary
Ġbu ilding
: ''\
Ġ11 58
er ed
12 70
Ġf amily
aj t
ran t
ant on
ĠPR ED
PRO M
ĠBEOGRA D
> {{
ar u
ĠR ules
ĠK im
ĠE k
Ġg irl
Ġr ada
eD ie
eri us
Ġsvoj im
ĠT rin
ĠG abri
af fe
ev in
ĠPro ceedings
AC K
nEn glish
b uch
11 31
ĠW oman
Ġm ix
ĠN SA
ĠJ ordan
ĠCh ile
mer a
Ġca mp
Ġves na
u bb
0438 19
0428 160
10 75
11 16
ĠA uf
ĠF ind
ho f
Ġ________ _______
M or
0408 4
10 35
bb F
Ġd ic
ul ate
ate rs
ĠAr ms
cl ass
stant in
ĠBern ard
ĠSRBI JA
D oc
0437 2
ĠI MP
ĠP ub
17 84
ĠL ess
Ġk re
ĠH ab
Ġi te
Ġd ve
Ġ< <
tel s
Ġer asmus
1 030
4 337
= (
E SS
L ab
Ġ11 74
ĠX S
13 41
Ġv ivo
ĠAr ena
ast ro
ĠWe ather
. </
J ac
m ont
p it
Ġ15 49
Ġ12 78
Ġm ass
ĠO rat
Ġc l
Ġh iko
man i
ĠFran z
Ġtechn ology
G i
X W
p ages
Ġ10 53
ĠW ave
ĠD re
Ġ...\ "\
20131 01
st ate
Ġ000 641
Ġrep resent
ĠBook ing
Ġ12 49
Ġ11 42
10 88
de c
de f
ĠP ax
Ġ100 6
ĠL ives
fc d
ep o
Ġ00 8
Ġ110 4
edn h
ped ja
; -
Ġ20 67
ĠF lo
ion a
Ġ103 9
ontin ental
ml ad
Ġmo tiv
imit rije
zeg ovina
P op
S rbija
ĠA ri
ĠD y
ĠV ul
ĠJ K
Ġ00 6
ST I
ĠTh ird
ĠMon de
Ġ11 82
ac tions
Ġv ra
ist ing
pp er
nov ije
Ġsz ak
burg h
ĠVers ion
E ng
V a
20 2018
ĠD io
tion ary
20141 2
ens ive
nX III
ĠPer formance
ĠHel p
ĠOm ogu
B al
B ank
l uz
Ġ"\ "
Ġ11 41
Ġ11 24
10 95
ĠM IN
ĠM are
Ġje p
Ġi mm
Ġv az
Ġg ames
100 4
par h
, :
00 94
12 54
15 26
ĠN je
ej o
?! !\
ude fe
sup urovic
12 27
ĠV ista
ĠO tt
100 8
ĠTh omson
Ġle ks
cep tion
inac ium
ĠPf izer
' ,\
W ikipedia
l id
11 45
bb ov
om ware
ew y
ĠJ O
20132 001
nov ine
04232 51
mit ropol
1 039
b ur
al em
ĠC old
ĠC AP
ĠP P
Ġs g
ĠB rad
Ġm ai
ĠK rey
ri be
}} }
Ġro ot
ĠWar craft
Ġstran a
rd jan
Ġprin t
Ġsik wap
( -\
1 435
? -\
201 437
0412 617
10 58
11 17
ĠM iller
es k
16 40
us ter
ĠF em
Ġ... ).\
201319 12
ĠAl bum
Ġot vor
( @
2 200
y g
bb nv
ro st
and ro
Ġi van
ok om
eni x
ING S
ĠDrag ana
Univers it
Char les
# ,
10 63
Ġt rib
ĠD im
Ġ000 69
ey er
nP opular
Ġpos led
ĠSlav onic
A p
O A
R a
f urt
te a
16 66
ent ari
ul la
ĠY an
SA I
RO L
AS H
132 8
ĠAnd r
rv ena
ĠBu ild
ĠPac ific
N T
u eb
0414 73
an im
Ġ11 14
10 72
Ġp ull
ac ts
ĠD ate
20131 02
Ġg ol
** )
201419 14
ĠCar los
enja min
teri um
2013199 6
Ġnarod na
ĠIst v
p rom
.\ \
ad io
Ġ11 72
Ġ, .
en ata
ti ts
Ġt at
Ġd ance
ĠĠĠĠ ĠĠĠ
Ġser ies
Ġspambo tova
l ations
ent ly
aj i
2014199 1
sve tigora
[ ...]\
n sp
0422 12
0428 169
ĠS ons
ĠS ach
es h
Ġsp ir
ĠMo untain
pan ded
S ly
i ev
0428 166
ĠM cD
ra me
ĠV EL
Ġh im
Ġe konom
im il
/ ).\
0408 3
Ġ12 55
11 46
ac ar
Ġk lub
ĠN J
ĠU R
Ġpre m
ĠSta ge
135 0
BS CO
ser ver
ĠStrateg ic
N Y
N SMART
s ur
ĠM ON
ĠC ables
14 39
ĠE SS
at ra
ĠH olocaust
Ġu op
ĠQ ual
ne um
eB e
ĠCD C
ĠEli zabeth
ĠSiber ica
12 46
Ġt yp
Ġa mer
Ġk ral
Ġ48 00
20132 021
asp ora
Ġ023 0
Ġzav r
ĠIde as
C he
10 86
10 96
ĠS aznaj
ĠM UN
re ference
ĠJ ar
Ġin fe
ul ations
SA S
Ġpol icy
nH a
ĠDisc overy
ĠOper ations
Ġbok m
C am
p ublisher
201 431
ĠS oft
ti lj
17 96
Ġt wv
Ġup rava
Ġra ta
ĠImp act
Ġmov ie
te chn
bb i
Ġp il
Ġl ab
nT HE
Be ograd
Ġvid i
ĠEss ays
ĠRothsch ild
0 025
s n
ĠB ear
ĠG ross
100 9
ĠPh D
Ġzdrav lje
ĠGO OG
Ġ12 93
ra f
Ġre con
ĠSt ock
Ġ133 9
ĠAm icus
Ġes pa
ĠTem p
ĠCommunic ation
R ON
ba ja
20131 03
Ġde fin
ĠJust in
abb r
B re
P E
b j
d p
f are
Ġ1 044
ĠC ab
ĠO pp
omm e
Ġob jav
104 3
nE l
ĠEl ite
N N
t k
01 54
Ġ8 500
ĠS ag
ĠC iti
Ġm ental
ĠG SM
ĠN ad
110 7
UT E
Ġvul garis
4 3040
S outh
W TO
ĠB eg
Ġw he
ĠJ AS
Ġte aching
ĠPor tugal
vlad ars
7 000
21 161
10 67
Ġp le
ĠN eo
ĠH ip
Ġf ide
Ġe z
az zo
)) )\
Ġpos ta
ĠAssocia ted
Ġbud ite
ĠROMAN VM
B EL
Ġ10 46
er ie
ĠC og
re porter
Ġm ad
ĠL eb
ee te
Ġ121 1
nP ar
ren g
0421 20
an z
20131 22
ĠZ drav
Ġprav opis
20143 0
ĠZD RAV
C ite
201 01
0422 9
!\ ":
or p
ba C
Ġn agy
Ġc ho
eC ar
oci de
ze k
vic tus
Ġperson al
vers ion
eun et
ĠBly the
Ġ20 60
Ġ10 52
11 65
al m
15 36
ac ronym
ĠK FOR
ĠD D
Ġh ack
Ġ37 00
IL L
Ġsh ort
Ġspec ial
ĠAtlan tic
ĠBloom berg
nof Leary
! /
7 403
g as
n XXX
end ing
ĠMe dal
ĠAud it
Ġ17 020
Ġ14 89
Ġs ind
ĠH art
iv idual
Ġu v
und erb
ĠFran c
ĠGu er
nog or
kan dalo
0 4337
b and
Ġ ia
Ġ11 51
er d
ĠT ree
op riv
im um
20142 006
Ġpri ma
2265 3
P OR
^ {
k as
0426 15
Ġ10 83
10 70
ĠC iv
ĠC BC
ĠP ul
OR G
Ġmon ey
ĠSoci ete
LA B
ĠSA SA
ĠChamp ions
kandalo zna
m og
t at
es ka
Ġ2015 16
15 21
17 75
09 48
ĠD EF
ĠL uk
ĠL anguages
Ġk ir
os sa
nS kandalozna
Ġup oz
ĠWh it
1899 44
ĠIz azivanje
0 43040
S ci
11 41
11 14
ĠR im
13 01
ĠV L
ĠG TA
VI S
Ġr ule
nO p
ĠReg ulation
04383 0
ancelar ija
i ff
j z
Ġ10 51
Ġ10 88
ĠP ren
ol us
ĠK am
ĠD ial
Ġc loud
li us
Ġan te
nW hatsApp
ĠWh y
ĠFac tor
A E
B ardziej
ti e
al na
17 38
uf act
ĠF ast
20131 07
113 0
ĠAG M
ĠNorth ern
ĠSD RAM
ĠGov ern
ĠAstron omy
Ġdate time
ĠB iz
17 63
17 77
ĠL ip
ĠL IV
20131 05
co tt
ĠSt op
lj ub
ĠFor bes
ĠAmer ici
M art
g eb
Ġ '',
an um
ĠW ol
Ġa er
ĠL II
ĠG AZ
od er
ig ur
Ġr ub
ort on
110 6
550 4
ĠPod gor
! ....
ĠI re
20131 16
ian i
Ġpri v
ĠNo bel
Ġbre ak
ĠTool bar
3 045
en ik
ĠS af
ĠS lack
ĠR ace
ĠD MOZ
it ness
at r
ae p
ut ch
ll er
Ġvi ri
Ġpost oje
ĠCa uc
pos es
ĠStandard s
ALK AN
en or
ĠM g
ĠC le
ae a
Ġe u
im b
arm on
ĠSpec ies
sarad nik
10 90
ti d
Ġ14 88
ab ad
120 9
boj sa
ensch aft
P aris
T a
10 89
om ati
Ġm ater
ĠH erb
up port
nI P
ani um
ash a
1 023
k im
Ġ10 82
000 33
Ġ11 59
ĠT ransp
ĠB eck
14 92
ĠR ight
ĠE RASMUS
ĠL III
07 54
98 34
ack o
Ġna z
AD N
201318 64
031 2
ĠCom uni
let in
M er
m outh
u ki
Ġ12 32
ma ge
VI EW
Ġpro ces
hr iller
Ġpok u
ĠGener ale
4 3033
R ec
p rop
0444 6
00 88
0428 164
Ġ11 48
Ġs ich
ĠSc ala
Ġsm art
ĠMess enger
0 43033
b By
r ar
ro b
et al
ter ran
20141 3
Ġth ose
ĠIP ARD
ĠDis eases
ĠMon th
ĠQu ick
nX IV
042817 2
fcn chen
ĠMaced onia
1 027
i ology
p ret
.. )\
). [\
ed ni
us te
Ġ& #\
Ġy ahoo
ĠAst ra
ĠErn st
L ive
Ġn ight
ĠPhil ipp
CP I
ĠDel ta
ĠAcc reditation
ĠMedi eval
0421 21
Ġ( ...)..
Ġs ettings
Ġp ou
ĠN el
ess ions
Ġto day
308 4
cK I
anj ima
rste nik
B ahasa
t xt
or ie
Ġt ran
ĠV R
Ġc ome
Ġ" [
ens ion
Ġpo ten
iss a
ĠWin d
ĠRes ults
Ġcon nec
ĠInd ian
app en
ĠBos ne
0415 75
on k
12 60
ĠJ PL
Ġin vest
56 18
oli day
DV D
v ou
0412 12
17 56
ĠL C
ov ija
eE n
Ġmed icine
C ool
or age
10 85
Ġp ac
ir t
ĠHA ARP
: ..
G M
Ġ10 36
05 70
ĠR ub
Ġt hous
ag on
Ġen glish
ĠCar lo
ĠBI BL
x ists
2014 8
Ġ11 81
en is
ĠM ix
ro gen
fc ck
Ġ111 20
Ġex press
d M
0445 6
Ġ, .\
ĠS ettings
11 39
ĠO tto
20131 25
bo tica
ĠAr c
AM E
ĠRo y
ĠStan is
priv reda
M ile
an ie
12 95
ĠD in
ĠE ye
ĠE usk
ĠL U
nD es
Ġele kt
ĠBEL GRADE
ĠGRO UP
c il
d bd
e enje
s ave
ĠB ask
ul os
Ġ* .\
Ġe asy
ĠAl lied
Ġan g
ori ma
Ġun s
ocia tion
Th omas
ĠNik oli
Ġcre ation
r ina
ĠK K
Ġk as
........ .....
ok ol
C ity
Ġ11 78
ĠM AN
ol low
09 41
20131 17
end en
eR ussia
ela ted
Ġmark et
............ .....
clan ak
F red
T ext
s ab
ron e
oma tic
ĠTre k
ĠPrince ton
c ka
0422 11
Ġ10 69
Ġ11 73
Ġp omen
ev ent
ĠFor ces
ĠST R
Ġsr c
ĠLud wig
v y
Ġ11 29
or os
17 48
Ġe ks
2013195 8
tif icate
ĠEP ALE
ĠJas mina
ĠIntegra tion
F eb
Ġs till
17 65
ĠR U
ĠD M
07 35
ĠSt orm
ĠCh apter
IL I
nX V
dlan aka
ĠINTER N
n Read
0445 7
12 72
ac io
ĠT RI
07 50
Ġc Panel
Ġd io
Ġl ista
ĠAn imal
uro s
Ġ'' '
ern er
ng it
ĠXXX VII
Ġstanov ni
P et
Ġ201 415
2014 7
12 90
Ġb ug
Ġe ccles
Ġ000 68
Ġpress ure
ilog orski
, ....
Ġ( ?-
Ġ1 027
Ġ11 84
15 53
ĠK m
ĠF lex
ĠJ ash
AF P
Ġmaj or
ĠChurch ill
l om
an ak
18 02
is ters
Ġa plik
Ġn enad
eb uer
eb tz
Ġde ath
ĠXXX III
Ġter m
news letter
ĠWi ener
ĠOs ten
ĠSH A
Ġ(!? )
ebtz ebuer
g t
\" [\
Ġ12 26
ĠH EL
rav de
201419 42
Ġmis li
Ġrus ki
H ER
_ ,
ĠSt ru
ĠEn t
ny i
ĠEl sevier
Ġsred stva
ĠParti tion
| |
Ġ( +\
10 51
Ġs q
ĠO cean
Ġf ace
Ġe conom
aj te
ovi et
her lands
nH ome
Ġar ms
226 41
, '\
g ia
da li
ĠT rain
17 16
Ġm ell
Ġt am
Ġi ure
nT ube
Ġad d
nv ilogorski
Ġsvi h
Ġnastav i
sf n
) =\
L ink
201 438
an ska
15 47
ĠK ON
20131 08
ĠCon struction
ĠCol e
din as
Ġear ly
ĠTL B
Ġmateri jal
H omo
n r
w u
201 435
Ġ1 026
.) [\
Ġ> .
ip zig
Ġne koliko
1 041
B ase
J oh
n tom
Ġ20 32
10 94
Ġp un
ent alis
Ġu g
ant om
ene ca
srp ska
jev ska
Ġreal iz
conf ig
r ument
Ġm ys
): "}
eT h
ĠGi ovanni
_ -
j arh
11 35
11 20
ĠP iano
Ġs arad
Ġm ap
ĠG h
ĠN az
et ts
ĠH S
Ġl it
Ġde t
\\ ),
ill ing
Ġte h
Ġkoj oj
Ġve ze
Ġsaj tu
ĠPengu in
Ġ11 61
ĠS end
ĠM RA
ĠM int
17 62
ia omi
Ġd usan
VI L
ell s
IF E
Ġkon tekst
mat f
ĠLock heed
a M
10 52
ĠP ogledi
ĠB ir
do ve
ier z
Ġpl at
dlan ka
ĠEngine ers
Ġkal ba
zp ont
d ica
t am
000 31
10 55
ĠS lim
12 63
ĠW ir
Ġn ac
): -\
Ġ00 025
to ons
201319 29
Ġ144 7
Ġsin ce
Ġbet ter
ĠSI MD
0435 92
11 01
bb y
ĠC risis
ĠR ule
07 28
Ġn ih
up is
ON E
119 2
ria ge
Ġdrug ih
ntom aja
n iv
t os
ĠM ia
14 63
Ġm ani
Ġv iz
ĠY ad
Ġre ce
.\" .\
ĠAd v
ES C
ĠMa ja
Ġac tion
ĠJac ob
0435 25
ĠN agy
20131 21
nK ao
ĠCy ber
Ins titut
L OG
11 47
12 75
Ġs lobodan
ov atno
ĠO vo
Ġc ard
ĠCh ron
rac ija
121 0
ĠXXX IV
Ġzdrav stvu
Ġimport ant
+ )..
D igital
L i
d uk
e ce
j enje
Ġ11 88
Ġj ug
ĠP om
as ing
Ġpro v
ĠAl fred
nD r
B SD
U RI
11 19
Ġh undred
Ġb alk
20141 4
ni er
ati ves
201319 70
ĠPro gress
ima ges
Ġpra k
ĠProf ile
' ).
f ao
31 00
201 218
ĠW TA
Ġ131 1
ori da
Ġun utar
ĠAss embly
eH ow
EST I
' ?
M ST
c are
03 08
Ġ15 189
ra tive
ĠG on
20131 56
Ġ138 4
old en
137 7
ĠPlay Station
Ġsek is
1 440
H ot
S ol
10 64
ĠM MX
12 29
Ġpri ori
Ġca t
au er
W F
Ġ11 34
ĠS B
12 36
ĠP LA
ĠJ izz
Ġd l
Ġpit anja
(@ )
0428 180
Ġ11 33
).\ "
ĠB irth
Ġ* /
Ġe ff
201319 24
20133 00
nF OR
Ġli ter
ais er
urs evi
ĠOl iv
ĠJash ari
S z
Y e
b urn
o on
p rint
201 25
te v
Ġ11 38
en cija
11 70
11 83
.... ....\
ĠW ales
ĠG Wh
ur on
ije vi
eM ag
c acak
044 45
0425 20
ad k
10 74
17 73
Ġt ada
ĠF B
os c
ia z
Ġf low
20131 29
Ġg ar
221 210
Ġpro b
cd p
can al
ĠPe ters
d nih
Ġ ].\
12 96
ĠC AT
17 25
Ġt otal
Ġa j
ĠV illa
ik os
20131 40
ct ures
ph ia
pp le
Sp ec
121 8
vod i
site s
ĠAf ri
ĠClass ics
ĠJac ques
O s
W y
12 98
17 10
17 86
Ġw or
ir ty
em or
ĠVi enna
Sp ace
OT E
Ġnag rada
3 062
0435 26
0425 460
Ġ12 46
ar on
ĠM R
ĠBe ach
IL AC
las i
jed in
ĠMor ris
eto oth
iment arius
M ENT
s em
Ġ10 86
ac ea
Ġk er
nA leks
ĠAl ike
ĠSh are
Ġcon c
cate gory
! )..
B unker
0414 90
11 75
ĠN ep
ist ra
Ġ00 105
mp ravde
ĠBos anski
ĠHar per
r ole
ĠM ade
12 79
ĠP ER
ĠF lu
ak ovic
tic es
nI z
Ġsad r
Ġword press
0428 170
ĠW is
ho on
ph ere
Ġsv eta
adem y
ĠBran ko
ĠConstant in
Ġfun ction
M in
V ia
b il
s in
ĠB ag
ol es
ĠG ora
Ġte hn
201419 13
ath on
119 7
ĠCast le
ĠAda ms
ĠStojan ovi
11 48
ĠP ala
ĠP irot
Ġn os
221 20
ni ji
Ġmil itum
St ud
Ġhrvat ski
G en
y k
0424 9
sp er
Ġrep ly
Ġoff icial
ĠJizz Bunker
/ ."}
Ġj ak
un ist
Ġ" )
ĠSp r
Ġsu ccess
20142 010
Ġter ra
Ġvlad imir
ĠTag s
ĠIre land
? +
U r
Ġ0 80
Ġm ul
ĠE ins
ĠSta tion
Ġwith in
ĠPor nTube
ĠGran de
ĠAdminist rator
ĠGener ation
ĠLjub lj
Ġ11 76
ĠS ap
12 47
is anje
CE S
Ġst ring
ill an
eT hriller
nL evi
Ġgov ernment
m ob
re i
ĠK fW
Ġiz m
OV A
Ġam ely
ĠSS H
0442 7
0442 8
Ġ11 23
re de
Ġ27 001
av lovic
ĠZ O
ver t
MA X
ĠVal ley
Ġmus culus
sec urity
ĠC ost
ĠC ome
09 42
Ġn iti
ĠH g
119 1
073 0
b ird
o ffice
ĠT is
ĠB un
ĠB ry
20131 26
]] ."}
ĠWeb ster
Ġ________________________________ ________________________
D B
L atin
Ġ tit
11 72
Ġp ak
ĠW iss
ĠT ask
ĠK eep
ĠG n
ĠN DH
el d
Ġf lat
co t
oc he
IS E
306 7
S v
c est
n ight
0445 10
0445 120
Ġ10 92
10 32
ti mate
ĠP B
17 26
ĠR id
09 14
Ġw omen
od icar
ĠMar con
eE uro
irs ch
urg ery
den ja
( ),
D ou
U RO
31 20
Ġ( ...\
10 33
da le
ĠP es
ĠP apan
15 27
ĠG alaxy
07 27
ri als
20131 943
nA utor
220 7
ikip edija
lov e
Ġmil ica
ĠCom bat
Ġdru ga
lement ation
ĠBri an
ĠBroadcast ing
W in
i ence
12 53
ĠW ag
16 18
17 41
ĠK enn
Ġk w
Ġ00 0000
AS C
ĠNet herlands
ĠPer fect
I AC
0438 25
02 26
Ġ12 97
11 29
ab lo
ĠB asa
-- ->
ej c
ig u
ĠThe ological
lic hen
042817 1
2013199 4
Ġbu ild
ĠFer enc
ĠIndust rial
F ER
M ic
Ġ12 64
Ġ12 89
ĠI O
11 74
22 29
Ġs ar
Ġs pp
Ġm unk
ĠE PA
ĠV S
ĠTh an
Ġun known
ĠRA Z
Ġkr vi
QU E
ĠDak le
2 042
F M
S e
b iz
c les
20 61
10 60
Ġo va
Ġp ed
Ġt ravel
et um
ĠAg ainst
CI JA
Ġmo de
fch rer
Ġ10 63
10 65
10 76
ĠA W
Ġs ens
us i
ov ie
ĠH ur
Ġf ly
ke k
Ġapp lication
unic ation
osp ace
imna zija
ĠAms terdam
C u
Ġ- >\
Ġp ub
16 14
ĠF ry
ĠJ ak
Ġv aspit
st adt
66 67
Ġch at
ĠInd ividual
Ġfo ur
ĠHar ry
Ġnap ravi
ĠAnn ual
Ġfal se
j n
Ġ11 16
11 40
11 84
ĠP aper
ĠL ou
ch at
Ġr um
201319 75
eS h
oth y
Ġposs ible
quire ments
G eneral
t rstenik
on is
ĠX box
20131 10
20131 14
ij est
201319 20
lj enja
IG HT
An ti
ĠSing le
Pre vious
0438 24
Ġs ays
ĠB ak
47 27
ian g
ĠSt rike
Ġan no
RA Z
ha M
ĠSim ple
2013199 3
ĠHein rich
Ġtren ut
Mill osh
ĠUNIVERS ITY
nLevi ticus
D om
a illes
n all
0435 31
en os
11 32
da ci
20131 38
20131 44
ot ho
Ġr ole
lan e
Ġth ree
Ġle po
zent acija
ĠJag odina
1 013
Ġ0 55
17 49
ĠL EG
ĠQ U
nA r
nj ivi
ĠPri me
wer k
d kom
s ud
0432 0
Ġ10 58
10 79
11 15
13 42
20131 23
Ġfor ce
ĠAl pha
nH ot
Ġpri h
ĠIC AO
ĠFE ANI
ĠBal tic
istoc nik
J un
U RS
Ġ12 87
al ing
ĠA ven
17 03
ĠL uf
Ġn ames
ing a
Ġde kan
ke ley
141 5
vor nik
Ġdisc uss
Ġdeg li
C W
S U
11 38
ĠW or
ĠD od
ĠE y
13 37
'' -
Ġ-\ "\
ul er
ff ee
Ġ________ ___
cel ona
Ġev ent
ĠTom as
ĠMP EG
ĠGes ellschaft
Ġporod ica
ebtzebuer gesch
( .
9 053
N ICI
g at
02 39
11 42
ĠP entium
ĠW onder
ra tes
ĠV aj
Ġz h
ĠDe us
rac he
rat ur
Ġwh ite
ĠBos ni
0410 15
.. ),
10 82
bb u
ĠK iss
et f
Ġ36 000
av es
IS tory
ris e
ĠEuro vision
amb urg
OC K
ĠUp date
Ġpok az
ĠHor izon
allen ges
ĠJust User
ĠTrib une
Ġnar avno
Ġvred nosti
tivi ties
G IZ
z acija
10 92
10 91
Ġb er
}} )
ĠTh underb
Ġov u
jub re
ĠLeg ion
ĠSymp os
M F
Q ue
w ide
Ġ( ...
0415 9
ar stvo
is yen
ĠT ER
ĠD jubre
Ġde ca
134 7
RC A
nSrp ski
F r
b h
0410 321
es tions
16 50
ĠK DE
ĠE asy
Ġa ux
20131 11
20131 52
ent y
lo b
ĠUn icode
Ġle gal
ĠMo tion
EM ENT
aster y
ĠAg ain
Ġstran ica
IK E
ĠAgric ulture
: *
p ir
r un
0435 02
ĠA spects
ĠF ir
Ġv u
ĠIn g
ev ich
qu ir
Ġbe i
042817 8
Ġreg ime
ĠKos ov
Ġ................................................................ ................................
Bel grade
lows hip
. &
1 199
G P
K ol
S y
Ġ10 49
Ġ11 36
028 6
os ition
ig o
042817 9
ĠCam er
dov dan
ĠMong ini
ĠSalmon ella
+ )\
1 045
v ju
Ġj este
12 73
17 17
ĠK ind
20131 39
ens tein
ĠPar liament
Ġam or
Ġ________ _____
ĠBri ef
ĠMem orial
ĠFA CE
ĠVill age
ĠDej an
ĠS aker
Ġp ast
ĠR um
13 38
Ġn ation
at p
ĠO ber
ĠSo ul
Ġvol t
ĠSco t
Ġdrag ana
l ac
y i
0426 11
te red
11 37
Ġs ets
ac s
ĠG raz
Ġb ac
st s
Ġ00 138
Ġne xt
Ġar ound
ĠCons ervation
10 62
ar in
11 76
12 23
ĠA H
ĠP QX
ĠL is
Ġn ature
Ġc over
Ġf ru
Ġv od
20131 35
201319 50
aoj o
ET E
nB e
Ġ*** *
Ġjed nog
itan ju
! :
% !\
F o
L ondon
c ultural
ĠC XL
15 16
Ġm otor
20131 09
142 1
145 8
IM E
eO n
Ġsub m
Ġmog ao
R IC
l op
ĠS lu
Ġs astav
je c
ĠV ijesti
20131 06
20131 80
Ġand roid
eo us
ang ing
042817 4
ĠCauc asus
' );
t rade
0443 9
an on
14 65
Ġm s
ra eg
Ġh i
ent in
Ġre lation
iz mu
Ġte k
ather ine
ĠCM OS
Ġfig ures
j nije
k cija
2014 9
en berg
un de
102 28
BO OK
nSum njivi
Q y
0440 11
... --
ĠZ em
rip oliti
di ma
119 8
nG u
ĠQu er
SR B
srp ski
dav anja
nad ripoliti
Ġital iano
Ġs ao
ĠK az
Ġn ob
ĠH ave
Ġg reen
ost ol
qu ency
Ġ119 3
Ġjez i
EP P
O I
Z D
11 49
il us
ra tic
ĠL if
Ġk anal
ij um
ĠInter face
ĠSP ORT
2014198 9
Y u
t p
11 71
da ti
ĠP CI
us am
uf fer
ĠD iagnos
23 020
Ġ32 07
20131 15
ig rad
OV AC
ĠLo cation
ĠSol ar
w ick
ĠM Y
12 84
is es
ĠH r
Ġb lock
ĠY T
Ġg i
!! !!!\
ST OR
Ġ119 4
121 2
lja va
en ia
10 87
Ġf lu
ario us
bass y
p ok
0438 23
Ġp ublished
Ġb oth
ĠCo unter
omp son
133 0
ĠStar ter
?.. {
Ġfr ont
K J
P ierre
Z oran
0421 28
ac us
ĠT og
at ori
iv ate
.\"\ "\
Ġan imals
ĠTe aching
sz er
Ġisk ra
Ġ( !).
ĠS oph
11 03
al ex
17 15
Ġn iko
ap se
Ġ00 156
ĠIS NI
sp ace
cl ub
ĠHerman n
5 317
A JE
G ov
r ale
Ġ11 28
ĠM X
12 85
ĠK ong
Ġin fer
AR N
ON IAN
wit zer
Ġgrad u
ĠMetropol itan
ĠRI BA
T im
i fy
ti ku
12 31
12 59
ĠB omb
ro ad
ik om
ers ey
137 5
ĠSc ribd
mag azin
Ġhod anje
1 438
4 3044
0 43044
m ost
ed en
Ġthe ory
ST E
ij anje
CO DE
ĠNik ol
ĠStan ley
bolj im
d ku
0442 11
0426 17
Ġ12 86
10 83
ĠM other
us z
im mer
Ġ82 20
2013199 8
ĠPort able
D AS
S k
Ġ- ..
Ġ10 47
ĠS lobodan
ĠP el
do je
Ġw i
un ibl
nA l
nC OP
20142 004
Ġjed no
ĠFl ag
Ġapp lications
Ġlib ri
jem ni
tele kom
ĠFal con
m fa
n ena
an tes
10 84
ĠK nja
ĠE esti
u it
0443 16
03 09
Ġ16 77
ol m
st ava
ĠOr th
Ġfac tor
adu ixa
ĠSus tainable
0 323
A leks
d ine
k ap
x ls
0422 32
... ,\
Ġp ath
ch annel
221 26
Ġmed ical
pol iti
Ġgr and
FOR M
Rich ard
B usiness
01 69
10 53
bb ou
ĠA mp
ĠP rac
Ġp ractice
ac ka
16 88
?! ),
ĠSerb ien
305 4
ĠMob ility
042817 3
ĠEp it
Ġser ver
Ġnapis ao
.. [\
Ġ12 56
10 49
11 68
Ġt one
____ \
20132 34
min i
ĠPar ad
ĠMat ter
ĠFin ance
. _
0438 21
03 96
ut stvo
est yle
nA rh
uz e
ĠAnd ri
ĠSN P
ĠHon ey
Ġperiod u
n ian
ti dae
ae u
ĠMar ine
ĠAg es
ns ar
mus ic
Ġpop ular
173 0
Ġcur rent
C ur
E V
p ark
s am
201 445
ar ticles
Ġs li
Ġv in
201319 37
Ġ? )
2013195 3
ĠDu ke
anger ous
ĠGuadal canal
I g
042 35
er um
Ġn er
Ġh yp
Ġv agy
ĠSt atus
ten ded
ruz enje
C hrist
n ex
t ou
0438 29
Ġ10 84
11 55
11 81
12 67
ĠP AL
ĠR ise
ĠO L
eri um
eN o
ĠKos ova
ĠSil ver
Ġdrug im
ĠLet ters
Ġjas no
ĠHero es
ĠBow l
B lue
ĠI b
ĠP ie
Ġs es
Ġp ric
Ġb and
20131 19
20131 48
201419 20
ĠJo e
Ġel s
ĠSu ite
ĠBru ce
C er
N H
f en
k ic
0426 21
Ġs cript
ĠK G
13 40
ov in
ĠJ W
Ġf f
ast ava
Ġce lu
cl ude
mar xists
Ġtrad ic
ĠCas ino
kup lje
ĠINTERN ATIONAL
witzer land
b ud
0425 9
17 61
ĠR ex
ĠN au
Ġc oli
Ġv uk
ĠZ ero
Ġda lj
IT I
ĠBan ca
Ge org
nFOR VM
M aduixa
b ury
Ġ ast
ov ao
ĠH aj
Ġre ference
our ney
140 6
042817 7
ĠGal erija
. =
D OC
I t
Ġ ord
Ġ11 39
on ey
11 67
12 26
ĠC UP
ĠA bb
ĠL IT
nC o
ke it
ĠRe z
20142 003
Ġco ca
Ġstran ici
ĠPM C
ĠSM ART
N ote
f all
0411 19
Ġ12 94
ab ular
13 03
ĠF EC
ĠG AL
Ġc z
20131 18
ĠIn victus
Ġ# #
ĠMar io
ĠEU ROP
Ste ph
Ġmind en
4 3037
N orsk
ĠD U
ce phal
ĠN ou
ĠH yp
Ġd ig
CE L
ran ja
Ġst op
308 8
utt gart
ĠHit ler
0 43037
l ong
0435 27
12 39
12 94
ĠP ut
15 28
ĠE BRD
ĠV iva
un ce
Ġv aloda
20131 34
ĠThe ft
hel or
ĠNat ur
ĠLu is
ĠID N
ĠVers ailles
abav ke
f ej
en cia
12 65
ĠP W
14 90
ĠE very
ĠH rv
20131 94
nik u
rin k
................................................................ ................
Ġste p
srp sk
Ġzem lji
radio istocnik
sb uk
ĠCra ig
Ġrev olu
4 338
L at
O ff
z in
Ġ11 79
Ġp itanju
17 45
Ġm ond
vi i
ij o
ly s
Ġch ild
130 4
Ġ________ _
ĠCr na
sv g
Ġadminist rator
Ġmol ec
g it
z io
ĠA Y
ĠK AO
Ġ. -
fe x
ran o
ry p
ĠOn ly
ĠEx po
Ġpre par
rat ch
Ġsv im
Ġmag azine
ĠNu Vid
Ġtag s
Ġling ua
Ġprez imen
Ġaug m
c More
r l
v os
te la
).\ "\
or ic
ov ani
ĠG N
ĠN ak
fo ca
ric ulum
ate ll
ON S
rp ske
132 4
din and
Ġprote ction
uj n
ijal og
R F
h om
39 73
ĠB rain
07 49
Ġd ue
ec raft
AD EM
Ġsa id
ĠAll en
ĠHer zegovina
Ġapproach es
B egin
p ks
an in
Ġo h
ĠN P
ĠO v
ĠCo ok
ĠApp lications
2013198 5
T K
0443 12
Ġ0 56
ĠT ir
ĠT ou
ĠT ake
ĠL ag
ĠF IL
Ġc ru
Ġe c
olog ica
uc ci
ft ung
RA F
Ġex perience
RE G
Ġit d
Ġme et
titu te
042817 6
Ġtre atment
ĠHung ary
h ai
o tion
Ġ8 217
en ka
ti la
11 26
ĠC ym
ĠJ erus
Ġfor mat
ĠJo an
ĠProf essor
ECT ED
2013198 8
tuel nosti
Ġcate gory
k w
p ly
z ed
Ġ( %\
025 3
10 61
10 48
10 69
ĠV HS
ĠN est
el u
Ġe ach
ish a
net t
ĠUnivers e
nN a
UN G
Ġve h
ĠCan cer
Ġsc ale
ĠEconom ist
Ġobraz ovanja
H y
a et
l od
Ġ12 88
Ġ11 21
ĠS ay
es en
es ch
de j
Ġt voj
ĠV era
ĠN BS
20131 24
aj o
ĠZ ak
uss e
gov i
Ġch anges
ĠMil it
ĠApp s
enn es
ĠDoc tor
M IK
T LD
V o
Ġ10 68
in ia
ĠP rice
ĠL ad
ĠF ul
ĠF ine
Ġn or
ter ia
ST V
ust ria
ĠCo oper
ĠCar toons
K C
S oci
p om
041 431
)\ \
11 02
ĠR W
ĠAn no
ĠSch w
123 456
138 0
OW ER
ĠIst orija
ĠCommun ist
utt le
1 044
S an
l m
Ġw p
Ġk b
el or
Ġi i
ĠCh in
IV RED
Ġsm is
ĠMark ovi
yy yy
ĠFe el
eev na
apis ano
ĠL av
Ġw rote
20131 27
ĠU C
2012 2015
iz ovano
ip a
ĠCh ap
ĠMar ija
ĠPri vate
OST OK
Ġnast ave
ĠRi ot
ĠPartners hip
ĠProduc tions
' \"
P rin
b m
0408 5
0428 175
ĠI COM
10 47
ar ms
ĠP ric
ĠH Y
Ġc in
Ġb ul
20141 999
139 5
nL atest
Ġsc reen
ĠPan el
tv r
Ġcate gor
l v
t C
z ben
on omy
ĠN ina
07 36
Ġv z
Ġin cre
Ġe V
306 6
139 2
ĠBel le
Ġmem bers
ativ ni
Ġfin ans
pic ture
Ġ ic
en ca
ĠS now
ĠA udi
Ġp ren
ĠD aw
ĠN uclear
Ġh igher
ut orial
Ġu red
fa ir
Ġre du
AN CE
AS M
04305 0
Ġ(+ )-\
ĠGu itar
urs t
ĠMov ement
inh ua
ĠFle ming
; /
Ġ10 61
ĠC ant
ĠW B
Ġa x
Ġb ad
nM icrosoft
lip s
Ġsve ga
nU DC
iste red
bol ji
v ali
.. ?
er va
bd d
Ġde cu
ion ale
Ġst ruc
ne ider
ĠMo unt
hr er
______ \
ĠSP C
lja ju
ĠHel lo
avi or
Ġtol iko
0428 182
01 58
en za
12 57
ĠC um
Ġm ig
13 02
em i
Ġz um
Ġr ts
RA C
ON D
AS I
ĠPri m
AF TA
Ġpart y
Ġmoz e
ĠS ie
11 88
ĠD ic
ij ere
van ia
gen cy
ĠVal jevska
Ġcount ries
nsar eni
. :.
y q
ĠB ang
ĠD OM
el come
Ġh aj
ain s
ĠBy zan
Ġtrans fer
ĠBarb ara
R ES
j ko
0443 13
te tt
ĠP ara
as ia
ĠL yn
Ġv ari
20131 42
ig ar
Ġr isk
Ġst and
EN G
,, .\
ĠTo y
121 4
Ġep ska
isch es
cap tion
ĠSeas on
c hel
bb er
12 81
17 69
ĠK remlin
ĠE mail
07 23
Ġ00 109
Ġda le
nC or
110 8
Ġ(+ ),
St reet
ĠChe ck
Ġdemok rati
C ons
E v
H ow
f u
Ġ10 79
12 45
ĠC rist
ĠA pr
Ġs lede
15 66
ĠF AO
Ġ[ \"
av ia
Ġ% )\
Ġpro st
Ġ$ .\
lan gu
138 7
nJ o
ĠSte ven
ĠSw ift
Ġprav ila
plor er
Ġstr ings
Ġdok ument
Ġaleks andra
nArh iva
R ock
ĠB ris
17 79
ĠF O
ĠG ore
Ġ32 82
Ġ\" )
Ġob tained
ĠFE ST
Ġoff icin
235 7
Ġpot re
Ġwho is
ĠPOL IT
Ġcond itions
peten ce
( \"
g reen
0412 9
ĠC ele
ĠT G
ĠB B
us ob
og n
el and
Ġb ugar
Ġ... ]
ĠY ale
20141 943
ct ural
orn ost
urs ki
Ġpred sednik
zh ou
o be
11 82
Ġp ages
ĠB eth
14 96
ra um
ĠF ont
ĠG esta
os evic
Ġn ost
ĠO w
og o
20131 60
Ġ00 136
Ġre feren
201319 46
140 4
IK I
ĠTour ism
dovi ma
R N
n asa
Ġs ave
ĠT ower
17 64
09 97
ĠV AL
20131 31
ĠAl imentarius
308 7
Ġper fect
ĠOrgan isation
Ġprv om
33 33
on im
12 77
ĠP z
ĠB enjamin
17 60
Ġa mp
ĠAn nal
ij in
lj ena
ĠDes ktop
Ġsoci jal
ĠRA I
Ġ!! !"}
ĠCER N
ĠDist rict
Mod ern
0428 181
12 51
Ġi gra
ĠCon vention
nW APTRICK
ĠINST IT
G r
M aj
0418 9
an es
or ig
ĠT TL
Ġm re
ĠE konom
ĠJ ev
142 0
ĠNe k
ĠBeograd a
................................................................ ................................
ĠRoman ia
terna tive
M ail
f abl
ĠS OL
om is
Ġp ore
ĠE yes
am acar
Ġb iljana
ap or
Ġiz vi
rag a
135 9
ĠPet ru
ĠEN ER
comm ons
Ġgr up
nsp m
I Q
n ut
ra ju
Ġw a
Ġc enter
ut ter
fc ss
th y
ĠSp ect
ant ologija
ban jal
Ch ina
eiv ota
ĠIl ly
ĠLen in
ĠMechan ics
^ ^\
j ih
20 60
0414 86
0428 189
12 86
ic ies
ĠB oz
ĠR uth
ol or
ĠD ag
ĠIn fin
ho do
ph i
Ġiz raz
ĠCor pus
Ġed it
ĠRev ue
ĠExper ience
Kos ovo
........................ ..
S rpski
t wv
an ci
ĠT itan
16 10
ol ing
09 17
ĠK w
Ġw riting
20131 96
20131 969
ĠAl fa
ER T
fd ch
lj eni
ĠQu antum
mic amacar
ĠSout he
ĠDevelop ing
ĠQuar ter
C loud
E Z
d est
ĠS IN
11 44
17 51
ĠR Q
13 35
ĠL T
Ġi pak
vi ma
91 3973
af v
20142 002
ĠMan ns
ĠAc er
Ġup date
ĠLibr aries
usam men
e ena
11 25
12 32
le a
it ur
20131 59
Ġ102 9
DE X
ĠMod er
ĠClass ical
Ġkoris nika
9 1991
K ey
ĠI EC
ĠE B
Ġw er
Ġh ost
ĠY EAR
ec tor
id an
nT op
Ġne ar
ans a
gor ith
vis ibility
oma ali
Ġnik ad
ĠOrig in
ubli que
G T
M ozilla
e et
l ajn
ĠF K
tis m
ĠPodgor ica
1 441
: ,,
? ]\
H rvat
12 64
es tic
ĠE ccles
ĠL CD
ut ta
Ġsaj t
Ġcip cup
reng th
- '\
L eaks
e ka
n location
y ing
Ġ ;.
or tium
Ġj os
12 52
Ġs ob
ĠT ow
ra h
ca ta
od ore
201319 65
nv rbas
Ġmod us
2013198 3
ift y
Ġzem lje
ĠEth n
Ġthous ands
f lo
201 436
ĠM atch
22 97
Ġw atch
ĠN umbers
Ġn iv
ĠQ MS
ast ave
aw k
Ġiz van
ĠMus lim
dc ber
ĠCan on
ĠEconom y
vest ris
ĠAtt ack
ikiped ije
\\\\ \\\\
- ]\
d D
r ub
ĠC ow
ĠW elle
ĠR IP
ĠG lass
Ġf unctional
ĠSt ories
Ġr oll
rp ska
ĠDAN AS
Su omi
K u
s ide
0438 22
ar ative
11 62
Ġp utu
ĠB ush
as ures
Ġl ud
56 203
ev en
Ġal tera
Ġad v
135 3
ĠNews letter
,... ,\
Ġcent ral
ĠPic ture
Ġwap kid
en im
Ġs n
Ġp uno
ĠT C
ĠB our
ĠH rist
20131 57
ĠAl ert
Ġce l
ĠBo ot
srb ijas
dlan ku
2013195 6
ĠManns name
C s
O st
U BE
t um
0438 306
ĠM BA
12 55
re ate
je z
ĠD AR
ĠRep orts
eW e
144 3
ograph ie
ĠWW II
Ġprin ci
Ġkoris ti
ERBI AN
achus etts
M ath
N IS
P F
P W
W hat
2013 400
ar ti
ĠC lean
ic ana
do vek
ja vi
am ika
ut ti
ĠRe in
ĠHo ch
jek at
201219 18
ĠOper ation
Ġnat ural
ĠKre irano
M IN
Ġ8 230
12 66
de vo
ĠT ih
ĠR ush
08 00
Ġi ps
am an
ĠMas ters
Ġent re
ĠHango uts
Ġ20 33
ro wn
ĠV acc
Ġc p
Ġh ours
Ġd ar
ĠU ral
Ġg uer
ni que
ĠCh rys
Ġpro duct
uz et
140 3
ĠRo bo
ĠLaz arevi
ĠCur rent
Ġprofes ional
ĠSiber ia
4 3039
} {
Ġ rans
0434 8
0417 4
0428 184
Ġ11 32
Ġ11 19
ĠC EF
ĠA IR
ol in
20131 70
st in
iv ery
rad i
Ġpri ka
eB lack
) '\
1 2020
e co
0435 29
Ġ0 52
il ed
ol is
Ġk am
Ġf as
up t
ĠMar cus
eni or
ĠPrin cess
rati te
ĠLight ning
ĠMons ter
R us
W i
0441 34
12 24
25 60
os ob
un ica
Ġl oc
ĠZ o
nP ayPal
Ġop et
pro f
eder evo
ĠTer rit
ĠPhil ologia
ĠPlan ning
Ġhelp ed
ĠHen ri
abil is
ĠLas er
ĠGaz ette
A ut
m ea
n ot
11 24
11 79
Ġs oft
ĠB RU
Ġt vr
ĠE BSCO
Ġc ast
Ġb ri
ul ia
85 117
ach ment
log u
ori ae
04432 0
mus eum
Ġer o
ĠMal ti
Ġvr lo
0 4338
p vis
t ud
Ġ0 57
11 23
15 19
ĠV M
20131 32
Ġpro vin
ĠLe ipzig
Ġup rav
ĠBos ch
ĠVes na
0 43039
b ia
er al
as is
ĠG ig
ja m
Ġf amil
um in
Ġ00 000
Ġist ori
eH e
ĠMcG raw
Ġdrz av
parh ija
B ET
L y
d ana
Ġ orders
an ac
... -
ĠM ans
ĠB le
ro ck
od om
Ġde la
ey outube
ĠSch mid
Ġslav es
ophy ta
ĠAdvent ure
( !),
, ;
1 026
15 37
16 06
ĠV eg
'' ;\
Ġc iti
20131 45
ian ts
ĠFran co
Ġro om
ĠSm oking
Ġstud ies
ĠSlav ic
ĠTyp hoon
Ġoffer ed
Ġ bb
0412 10
ad words
22 99
ĠR est
el ja
com es
ag ue
Ġmm ol
Ġim ao
ĠVoj vodina
Ġnego ti
Ġkamp anja
? (
P ic
11 78
12 68
he gy
ca k
st art
ob le
ĠAr te
20142 009
ĠDi ffer
ĠGran t
ĠSout hern
ĠGAZ PROM
g ub
l r
0415 11
ĠS elf
ĠT in
ĠR it
ĠN ost
ĠH ydro
Ġb rz
ite k
di um
323 0
Ġpot p
ĠMihaj lo
R ussian
W HO
d rop
i ef
ĠI dentity
Ġ11 17
al on
12 83
bo ur
Ġdo ga
AR O
nS o
Ġ240 00
ĠRes ource
201418 49
ORT H
ĠGo tt
ĠVo y
Ġcall ed
fabl ica
3 034
B ig
E p
y la
05 99
'' -\
ig ne
th umb
Ġ88 00
140 5
ĠComp uting
Ġinter est
isk op
knj izev
Forum i
? /
X hosa
Ġs ebi
Ġp hp
ĠB q
Ġ. ;\
13 08
ĠN UTS
ĠJ awa
ap ore
af wv
Ġnis i
Ġsoci ety
zer ba
avlje vi
[ ...]
201 433
en et
ĠB eau
ĠR AT
ĠD usan
ĠL ion
ej n
oc co
ĠAl ice
Ġis su
ovan ovi
cK E
ĠMer c
Ġpi eces
cas opis
Ġpedag og
frast ructure
te re
01 25
in photo
09 16
tt y
ĠSt uttgart
Ġod re
ĠMan uel
Ġstud enata
Ġpati ents
' )\
S am
U RL
l ite
z ad
0445 8
20 74
16 67
16 97
us ch
ĠK OS
ov na
Ġc lub
ĠII A
Ġ00 139
Ġre tro
ĠCO MP
Ġal ba
ĠEx cellence
Ġsh all
134 8
eder al
ĠAndre as
ĠMatt hew
Leg ion
' ?\
M AT
v on
w ald
Ġ10 62
es n
es p
ĠA id
ĠW G
ĠF rag
ĠG ordon
Ġc c
Ġf on
Ġd ug
20131 41
Ġz abor
ist ration
ĠTh rough
IL S
119 3
OM EN
Ġhe art
Ġter mina
ĠMathema tical
ĠKore a
ĠMate rials
ĠCompan ion
k ako
2026 1
09 99
Ġ: ).\
ĠK U
Ġf ont
Ġde jan
ub ac
mail a
af ts
ĠZ ver
la ma
,, ,
EL TS
ĠBer keley
ĠTele kom
AB H
delj ko
ĠPsych ological
ĠGlo be
ĠGOD INA
O d
h id
l ost
u bo
ĠC yr
17 67
17 58
ĠE ven
20131 51
fe c
Ġl up
ĠSp or
Ġli able
Ġed uroam
wik tionary
ĠREPUBL IC
34 91
0433 0
ĠS ix
16 45
et ti
26 11
ĠH B
ĠCo up
04305 4
orn is
Ġag ain
Ġspec ialis
Ġcommun ity
4 3041
0 43041
d rive
m oz
Ġ ?"}
en cer
be j
219 7
Ġ% ;
tor ia
ĠSch war
Ġca usa
145 5
ĠSam uel
ĠJon athan
ĠESP N
( );
H or
h m
2019 68
ĠP VC
Ġs op
17 13
ĠN ije
Ġz ar
Ġiz jave
AP P
ĠMus eo
Ġima mo
Ġnik ak
-------------------------------- ----------------
Ġopozic ije
Ġcoca wap
banjal uka
P ass
s lov
042 37
12 48
ic ke
17 57
ĠV ert
av an
um mer
ph ot
ĠJo han
Ġun e
Ġmil itary
Ġsta ge
Ġcas ino
Ġ\"\" ,
fri ed
till ery
ĠBob an
) *\
, ),
? ''\
H igh
f ran
ĠI zab
al ph
ĠA a
ĠT W
ba i
ĠO wn
pp s
rac a
ĠLe op
Ġdob ra
ĠDA AD
vij est
ĠLjub i
cctn ta
ĠMarsh all
Ġsg rs
Begin Ignore
T ec
0458 0
ĠS ic
ĠB oj
ee vac
Ġst oji
ko ut
]] <
nS tep
ena u
lj uc
120 8
ĠCri me
Ġkra jeva
Ġinform acije
Ġclan ak
Ġhot mail
ĠZep ter
ĠPrem ier
ĠNut ri
cou ver
b st
e io
t ok
v iv
ĠI ch
or ra
17 82
ĠJ ay
Ġi b
im inacium
Ġu vod
ĠUn ter
ps ih
ura tion
ĠDan te
serbian BeginIgnore
02 90
Ġ5 200
Ġp ublisher
ĠH av
Ġf ighter
Ġ43 00
qu o
136 5
ĠStatis tical
Ġpur poses
ĠVeter inary
P l
W il
d v
0443 15
ĠS ize
re ens
14 94
ĠE mb
ĠO range
20131 54
ĠU rs
Ġr end
ĠInter reg
120 7
ven i
131 4
04432 6
ĠSW OT
ĠMir ror
R i
g inal
0445 100
ĠS leep
12 99
ĠR eli
ĠF undament
ĠV ita
95 00
ĠZ bornik
ĠBul letin
ĠJoh annes
ĠMex ico
N OG
k ed
11 87
de fault
15 50
ĠB ass
ĠJ ess
av or
20131 49
20141 953
io z
ill ed
Ġan other
Ġ(- .
ĠDi ego
dk im
ĠFri end
Ġmess age
ĠCOP PA
+ :
0413 35
Ġ12 51
ĠC ult
is ted
16 32
ew ap
ee le
Ġ75 20
ne tic
lin d
Ġval ue
iste ma
Ġcap ital
Ġenciklop edija
Ġkontekst u
| <
0438 28
0435 28
0428 188
12 87
il ar
ĠJ ob
Ġd nev
pl at
eA ll
Ġle p
04241 6
Ġme ans
ystem s
dlan ke
Ġcor pus
ruc ks
Ġtemp er
Ġodnos no
eCh ina
ĠNeg otin
) _.
n ith
an ija
010 4
Ġ11 77
er k
Ġs it
ĠR ag
ĠD ies
am on
Ġd vor
305 9
Ġ________________________________ ________________
Ġcom es
ĠAst roph
Ġsrpska istorija
Ġcategor ies
B lu
0428 183
er ia
11 33
om ics
de mu
ab et
re j
ud en
Ġm oja
ĠK W
ĠD RU
ĠE CO
Ġk val
ĠN ine
ag asy
la zi
no c
ber ger
sch er
139 6
Co de
Ġman asti
ĠFe ed
Ġnje ga
serbian End
Ġporod ici
ĠCroati an
serbianEnd Ignore
C lick
G rand
S venska
y st
Ġ( /\
is o
ĠB SD
ĠF ound
Ġc up
Ġb ur
Ġre la
est u
rad ovic
rom a
ĠTh or
uz b
ĠFil ms
ĠEv ans
K ET
V u
e im
k op
042 36
ar evic
ĠC in
Ġk ur
iv atal
ok abular
ap o
ĠCO B
201319 38
man s
Ġdis eases
lay er
ĠLiving stone
K W
N apisano
ba um
ĠK id
ĠD inar
ĠL ind
ĠF ischer
eb er
ĠTh us
04142 8
ĠRad i
dn ey
Ġrat ings
ĠMyth ology
ĠSuk obi
g z
t nv
Ġt ud
ĠF an
ĠF arm
ĠG U
ec z
iv an
ci jal
Ġst ara
ĠTh ompson
ĠArch angel
eG oogle
ĠST AT
Ch inese
ĠPRO CE
ĠSa fe
Ġrec ord
ĠEd ge
ĠGen ocid
Ġacadem ic
ĠSympos ium
' !
- )..
d ik
ĠS oviet
11 28
12 91
ĠP IN
Ġs me
ĠR EL
Ġf udbal
Ġv ill
ric i
Ġte mu
04141 5
ĠEx it
eng th
Mar ko
Ġbo ot
, ,.
S il
e il
12 78
ĠB ond
ĠK up
it at
Ġv ie
ok ovic
ni o
Ġ) ."}
iz ard
ĠMar c
IT ET
ĠMan n
Ġsv aki
nB est
Ġmon do
ĠJe zi
Ġstran aka
ĠMaster Card
Ġincl ude
Ġrans omware
R oman
0443 18
0431 6
2019 80
12 33
17 78
Ġt raining
os ka
ey n
Ġmo untains
ĠApp roach
ĠMet ohija
ple xx
rum ents
ĠEX P
stav ite
Ġ................................ ............
Ġmes ec
ĠFight ing
ĠDunav Leave
Ġrecon struction
ĠLjublj ana
H ol
Ġ0 353
ĠP iet
Ġs at
ĠB ach
ĠD G
20132 02
ĠQ t
20142 007
Ġqu od
Ġjed ino
SM E
osh i
Met odicar
K ON
R D
U RA
c quote
k ova
ĠC opy
Ġs as
20131 47
20131 76
ando s
Q uer
c Z
d ani
f m
f ich
m up
z ona
ĠM org
Ġp rac
Ġ23 000
Ġk p
'' ',
ĠJ CR
ack er
net h
rac tion
Ġle ft
ĠAg ro
mark t
ĠSig nal
? (\
B ok
s or
te il
2019 92
ĠS ET
ĠS witzerland
ĠM cK
ĠW right
ĠR M
Ġ. )\
ĠO ECD
ĠH un
Ġh it
ge k
IN S
ili um
ĠEuro fighter
IL A
ath a
eu ters
din jen
row ing
ĠHar ris
Ġcont act
ĠJust Talk
4 3034
] [/
d h
z ione
re ll
Ġt ry
ĠK ova
ĠL VI
Ġd oma
023 0
Ġr uk
Ġis ti
Ġiz a
ĠSh ar
Ġdes ist
ĠDis ease
nB usiness
Ġgod inu
Ġima g
ĠTr uth
eev ni
FOR CE
ĠPsych iat
ISA W
ouv eau
Ġmess ages
0 350
V oj
n ell
0438 02
in ko
Ġs uk
17 71
ce ase
ov al
Ġn ig
am atory
fc ller
titu de
nIn fo
dr ustvo
eev nosti
read y
Ġ(' _
0 43034
W atson
201 442
ĠA E
Ġs ara
ĠW eT
ĠT ul
Ġc ultural
20131 37
20131 53
20131 66
ĠAr bor
ach ers
nC IP
Ġus ta
las ma
edi at
Ġcomp lete
par lament
jav ni
ĠEst onia
Ġdef amatory
Ġdire kt
ĠSain te
K p
t Read
31 06
ĠM az
ĠK b
Ġv ise
20131 61
20131 78
ST R
ĠAn atom
ĠSerb ie
ĠRe lease
Ġcol le
ciril izovano
> [
l f
02 11
es z
ĠC G
ĠB efore
ĠK rist
ĠD iamond
13 09
ĠL ear
Ġn ormal
fc t
ap ers
Ġbe ll
04141 3
20142 008
Ġgov ori
adel phia
P ost
c li
ĠS weet
15 92
ac on
Ġm ik
Ġ: =
ĠL ada
ĠV eh
ur ice
20131 71
Ġl uc
dit anje
131 7
Ġco up
ĠHuman ities
Ġ................................ ................
B AD
T winning
V OD
k ao
n ts
r r
te na
ĠP SI
ĠB h
ud u
Ġm ot
ĠD F
bo ot
com men
Ġstar ted
Ġnjih ov
Rev ised
ĠHercegov ine
T HE
T ype
c ks
00 86
an de
ĠP uer
20131 65
ta ils
ĠIn n
59 29
Ġz ene
ak ter
Ġ00 129
ĠBe er
Ġpod ru
nY ou
ĠJovan ovic
Ġrecogni ze
G NU
d ij
k ul
0441 8
0428 187
Ġj an
15 23
ĠE sc
13 32
20131 87
Ġg az
ag anda
up o
ĠPh antom
700 5
nB it
Ġ*** **
ita ire
Ġra te
Ġ________________ __
ĠBog dan
[: ]\
Ġprezimen ima
W N
g han
n for
0414 68
11 22
ĠP upin
ĠR y
Ġw iki
Ġ= ,
ĠPre vention
Ġ221 7
Ġman aged
ĠSAD A
Ġsupp lies
I SSN
U BI
j eni
k ikinda
20 75
Ġn ove
by w
Ġ00 009
lav ica
ili us
174 3
Ġmar ina
ĠHrvat skoj
des k
Ġsek ret
ĠBird s
Ġfej sbuk
G PL
I van
w ashing
x ic
0428 200
ĠS can
ĠS PA
12 93
.... )
ĠT it
us pe
09 05
ep pe
ĠMA X
ĠLib erty
ĠEv ent
ĠOb ject
ĠProgram ming
ĠCr ne
UD DE
ĠEqu ipment
Ġ(?! ),
ĠRem ote
c ke
f low
s cience
an ces
10 99
ĠS d
ĠS cript
12 49
12 88
12 62
06 26
ic ae
ĠK ampf
75 22
20141 355
ĠSt ructure
Ġvel iki
yal ar
ship s
ĠRef orm
ĠBet ter
pravoslav ie
qui red
ĠAssass ins
Ġstrad alih
Ġbomb s
micamacar aca
s d
2019 70
Ġt urn
ee mo
20131 33
20131 46
ib en
RE EN
ĠNe ed
ĠDis co
ocia ted
Al ban
2013199 7
ĠAb ram
Ġplay er
ĠPAN ONIAN
Ġ________________________________________________________________________ _
V S
d eni
k ad
s istem
0417 5
ĠS AP
ĠS ax
ic aj
Ġp y
16 17
ĠD id
ĠF ame
ĠH ous
Ġc lick
ok er
eg u
eg er
nC J
ĠAd vis
Ġar m
fb l
160 4
ĠAir table
OV E
ĠElect ron
ĠCla ud
0 325
W ork
00 87
0428 186
te i
Ġs un
15 05
Ġc ourse
ĠJ ump
Ġd ia
ers ch
Ġob lasti
Ġve zi
unic ations
ĠEp is
Ġspec ies
Ġinst agram
ĠFrank furt
ĠPred rag
ĠProble m
Ġhundred s
0438 26
Ġa pr
Ġne del
04141 05
Ġ440 0
form ing
ĠEdu cational
E ast
F er
b rid
201 23
00 20
0426 25
0428 191
01 77
ĠT ruck
ĠF ADN
ĠV ET
Ġc ong
ĠJ AV
ĠY a
Ġz ag
ide ae
ern ame
ĠCar toon
Ġro dovima
lja m
ves tenje
ĠLaw rence
B ack
M AN
T PS
ti ri
Ġ\" -\"
Ġde ce
eT e
min rzs
sh op
Ġmin or
ĠMer cedes
Ġnj ima
ĠNav ig
Ġidenti tet
c over
ti ss
ĠW ii
ĠD OS
ro ve
ĠV esta
ĠO zna
Ġf arm
Ġv erb
20131 62
st ina
Ġto o
ten tion
ĠDe te
ĠHe aven
Ġnaj ve
2013198 2
Por tail
ATION S
Ġnik ola
soci jal
B AN
N Tech
n eb
q a
Ġ tis
or sz
ĠM OS
12 56
ĠA UT
ic ks
ĠX HTML
ĠG rip
ĠO GL
Ġf ail
am us
Ġl ak
ir om
ĠAd vertis
144 4
comm on
ĠAnth rop
???????? ????????
B W
G y
ĠT ECH
ĠR is
tt om
ĠIn vestig
aj y
201319 68
Ġpar as
Ġoff ic
ĠCr us
ainst ream
fel der
Rad io
ĠKop nena
V ir
s ee
0422 23
Ġs ie
16 89
17 55
ĠG loss
og en
ĠThe ir
135 4
reb inje
ugoslav ia
2014199 3
nCOP PA
ĠENER GY
f ix
p ect
z aj
16 12
ĠR ole
us ed
Ġa ud
im ental
ij ske
ish op
ang zhou
EC A
sch rift
Comm unist
tiv ni
ĠGre atest
Ġem iss
B en
I w
M ulti
c ision
m n
11 61
15 12
14 79
Ġ: ))\
ĠF resh
ĠG ender
ĠN ach
ing le
20131 77
Ġre vizija
eH istory
low een
ĠCri mea
eIn ter
ĠKon kurs
Ġmic ki
ĠIr ish
Ġnacional ne
zdrav lje
rednj askola
, ...),
C AS
H istory
U V
201 24
0420 17
ĠS mo
ĠS CH
ĠM ine
ac cp
17 46
ov od
ĠZ ar
AL TH
Sp ort
po ol
KA I
Ġima m
ĠSal le
ARH IVA
ĠMur ray
Ġay isyen
t ravel
0428 190
te en
ĠS pe
de le
027 3
Ġm aking
ĠD nev
bo z
ine ma
th era
ĠIS IS
tr um
Ġnas ilje
sc ribe
ĠFOR CE
ĠHaw ai
Zoran zoki
K UL
h abil
0425 18
12 69
ĠC en
ĠT ac
fo to
Ġd m
20131 930
ru ga
AM P
eM o
Ġun til
IM M
Ġfil es
UL O
ĠBr un
Ġhelp ing
hib ition
ogledaj te
T ION
Z a
d nosti
p tt
p ose
0443 14
0447 0
11 52
ĠC ad
ĠC ash
ĠP le
ĠP uzzle
15 75
ĠW IPO
ĠB ase
ro pa
ĠL eo
og e
Ġf ew
Ġb oz
ur ica
ON A
Sp y
...\" "}
eE l
Ġter rit
ĠPrav oslav
Ġpers pec
ĠPot ter
Ġspor az
Ġfemin ae
A k
0421 40
Ġ0 90
Ġs ag
15 74
16 72
14 61
ĠL em
Ġk iki
ĠH U
Ġc our
23 050
20131 74
ul is
li z
bor ough
Ġraz li
Ġstran icu
ĠSc opus
ĠLib ert
\"\" .
Ġbez bed
Ġsci entific
ĠSet on
Ġzah val
pvis el
' ll
? ]
K is
T est
h all
k ret
l ung
n ova
041 436
ĠS IG
Ġs venska
ĠE lements
Ġw all
and ida
st ad
Ġde ux
up ka
Ġla ter
Ġch urch
Ġov ak
Ġmem ory
Ġeffe ct
ĠFACE BOOK
J PG
Q R
0410 330
0408 7
0428 195
ĠT ap
17 06
ĠR AN
13 06
ĠV erb
IT AL
20142 005
Ġsig nific
Ġban ka
Ġopozic ion
Ġtog ether
eYou Tube
ĠFron tier
F ried
K K
c ro
e ST
e eli
j ug
0428 192
ad E
on au
am m
ut ton
Ġd ro
Ġth ings
Ġex cel
Ġcons ider
Ġkomunik acije
ĠOrig inal
ĠBea uty
) );\
0428 185
ĠT B
17 27
ĠK ings
ĠL TD
im er
lan t
ĠPl as
Ġar che
Ġve oma
ĠBar celona
kov ica
ĠImp ort
Ġvers us
ĠMak edon
Ge orge
V AC
X P
e ice
x ing
15 95
15 52
ra tak
ĠH im
20131 69
Ġpro stor
ast ar
ĠPro kuplje
Ġis s
pl ug
20142 3
Ġob jas
ck er
Ġare as
ĠTrans lation
fil ozof
Ġcap tured
You Tube
Ġsavez ni
ĠMul tis
Ġvaz du
R ET
ĠI vo
Ġs ic
16 44
17 53
ĠD um
le vel
ĠN ames
ae va
un um
Ġl ate
ĠCh erry
ack e
nL IST
ĠWh ole
ĠCri tical
ĠLO CODE
: ?
u en
Ġ( %)..
., ,\
ĠM ali
Ġm ick
ĠN acht
Ġ37 000
na tion
Ġu cen
iz ing
ĠRuss ell
nS h
Ġiz bor
ath y
119 4
nW indows
ms g
141 8
nX VI
ĠST EM
Ġsup erior
udi atur
ĠCaes ar
Ġprivat ni
ĠFitz roy
, %
N L
S earch
f ast
k ou
t udes
u ate
0458 2
0428 193
Ġ9 500
... :
Ġo men
ĠC W
ĠW ithout
ĠT odor
ĠB IG
ĠL ec
Ġf ik
________ _____
ian e
iz ule
ĠSt u
to ine
ĠMar jan
ĠXXX VIII
Ġoff ici
post av
ĠStan ford
ĠMig uel
ĠKel ly
ithe cus
Ġnegoti ations
W AP
g sr
Ġ25 60
Ġo kup
ĠC ors
ĠB ec
16 16
ro dn
Ġc ontinu
ĠJ en
Ġ+ )
20131 67
im peri
Ġl n
Ġy oung
Ġ600 00
ĠTr ump
ĠIT U
cyclop edia
ĠBas is
Ġvit ae
ĠFant asy
ĠHold ing
ĠBeat les
; \"
E lect
q i
Ġ0 354
or thodox
12 89
ĠR AS
Ġb lag
fe Q
Ġu ces
cc t
Ġ< .
iti m
lin ical
ras ka
Ġov oj
Ġstran ice
Ġcatal ogue
P age
V ET
j no
s ource
y c
042 319
20 000
Ġ5 530
ĠP eriod
Ġa i
ĠH F
ri tis
Ġl ess
Ġl ju
Ġst ructure
ĠSp ar
itel ja
ĠEx ecutive
daj vid
ĠQu in
ĠGr ace
ĠDev ices
Ġbo ots
ffe isen
Ġsy ndrome
ĠZO OM
accp ane
B ritish
f ur
ĠP b
ĠW OSTOK
ĠE ro
ĠL IB
be x
el er
Ġf asti
ric o
201319 48
ten ance
Ġ} }
qu are
ih ail
ĠAc tual
Ġdel le
ĠHer r
ĠNet works
ĠBos na
ĠFre ak
ANG E
Ġtab ela
Ġkul turi
E s
c enje
g om
v it
21 46
15 25
15 71
il ja
ol er
ĠH IST
ul ator
85 269
20132 15
rad ovi
Ġdo sta
Ġse lect
nI S
ft n
nV a
ĠIs a
04306 6
enni um
zem un
Ġmorn arica
Ġdale ko
: #
I EX
K aster
N av
l aj
r gy
t l
0438 27
17 52
Ġt on
ol et
07 32
li ef
201319 34
OR D
Ġsp y
BI B
sh a
Ġnews letter
Cent ral
Ġstrate g
obac co
0 330
A f
M ik
0438 2014
0414 64
ĠP aint
na te
Ġbe gin
141 0
Ġve zan
Ġaut ob
______ _\
Ġgrad ova
ĠUl timate
vij acija
ĠOl iver
ĠZor ica
. ;.
F ile
v s
0421 15
14 81
Ġk oz
Ġn g
Ġf ifty
av aju
ul p
Ġl ingu
ish ed
Ġis klju
ĠMe an
ogra fi
grad a
ĠMac lean
Ġtrad e
ĠDal mati
kar ijere
Ġ', '
ĠSong s
ĠDru gi
b k
r ab
0422 26
or u
bb it
ĠR ea
Ġ00 14
eB el
131 0
Ġpar tic
ĠPan zer
entific ation
( '\
V iminacium
2026 3
in ja
ĠT ouch
ĠL XIII
Ġk it
et c
Ġb in
st udi
iv ac
20132 16
201419 46
lu ka
Ġca th
ĠPol and
Ġsv est
ove k
Ġtat jana
S lov
m t
32 39
201 441
0428 197
Ġ12 69
ĠC rkva
ĠB ed
ĠK ot
ov en
Ġ* -
201319 60
EE P
eH IStory
Ġprof essional
Ġgo ing
nici ma
rik ija
Ġcer tain
yer me
ĠMich igan
Ġkiki rikija
V lad
0440 10
0414 39
ĠR N
Ġ. )
Ġb ibli
Ġv rh
od rag
RA D
Ġpol u
ĠJo y
ven ih
US K
ĠCl ark
ĠSte am
Ġmon itor
Ar gentina
ĠDal m
ĠEle kt
Ġdalj inu
E UR
K fz
j ord
z one
Ġ xt
32 67
0443 19
0414 65
0426 22
0426 13
en og
Ġj azz
11 54
Ġo se
de b
ĠB aker
do be
rs elf
ma ted
ur ia
20131 64
20131 68
by a
201319 72
ze it
if ik
ĠUN MIK
Ġstran ih
Ġtr ue
ĠAqu a
0416 16
ĠM aking
Ġp rice
Ġde p
me z
\": \"\
nP ing
04142 6
ĠPol azak
Comm erce
131 3
ĠMus ik
ier ra
rit z
ĠOF F
fan ovic
Ġbu y
ĠDA YS
roati an
Ġrac un
7 109
b XXX
0418 8
Ġ- ;
ĠM ick
ĠT eo
17 59
ist ant
ED U
ĠRes erved
bor ba
ĠCom petence
ĠEN IAC
ĠHung ar
ĠPhot os
Ġwap dam
Ġleks ik
Ġopozicion ih
I RE
re x
ĠT ales
17 07
ĠR yan
20131 75
na h
20141 1
ef ul
ER N
ĠMar gar
nP uter
ans e
ĠCon test
Ġat mos
if i
nW ith
por eska
Ġup otreb
Ġpr ljava
UL L
Ġass ault
ĠGOOG LE
Z T
c Posted
d zam
0411 17
0428 201
ad w
11 63
ĠA A
ĠW here
ĠL ena
ĠH ep
Ġc ontin
Ġc ities
20131 73
st ring
Ġg ene
Ġu et
li um
af w
Ġal kal
Ġar tillery
ĠCol lins
eO ne
ĠRE VIEW
facebook reporter
ĠDynam ics
ĠGabri el
, !.
G ra
S ep
n ite
p io
v us
042 38
000 32
bb The
ĠC ET
ĠP ure
Ġp lease
Ġp airs
ra it
ĠG OLD
ĠH its
ri que
Ġv lasti
Ġ00 128
ĠCh er
oc ks
201319 16
nS K
IT H
Ġpri vate
Ġsv jet
Ġsh qip
ino is
ĠRad ar
ĠPhil adelphia
ĠUp dated
ĠMor ph
prav no
iverz iteta
ĠBlu etooth
ĠAer ospace
hein rich
F ON
L atest
M ED
0428 198
Ġ0 75
in ed
ĠS klop
ĠM U
12 25
Ġs ong
16 20
Ġm anje
us p
ĠF ak
ĠJ ersey
Ġl okal
od ung
20132 12
ĠCh amber
04301 00
ĠDe al
eA d
./ ,
cp n
139 0
ĠAP PL
ĠAndre a
ĠNOV OG
urse ve
Ġmemo irs
ĠBask etball
u ar
v og
0458 6
0443 17
0445 20
02 97
en ing
ĠA e
05 72
ĠW ang
ĠT rag
il ovic
le ts
ĠN AS
ri va
Ġb all
ul g
ĠZ X
201319 35
ly i
gl av
EL D
nN acional
ĠCl os
Ġpos ao
eY ellow
itt ing
ĠAut omob
ĠTem ple
ĠKri eg
ĠAx el
Jos eph
mitropol ija
ĠAudit orium
06 38
16 01
Ġh u
Ġ# ##
nik i
201319 73
AL A
sp ons
047 3
ĠOS CE
pris es
ĠAstron om
Spec ial
ĠJerus alem
usob na
a ULO
0428 199
ĠM SN
ĠM ega
es pa
Ġs va
17 54
Ġm unicip
ĠD rang
fc gy
Ġde tail
20141 321
Ġst reet
Ġod er
20135 00
ĠFor ward
134 9
ĠGr und
036 1
yl vania
ĠKn ight
ĠOver view
ĠClar ivate
cdsl enska
ĠBRU JE
ĠSklop ljeno
aULO ARI
` ).\
0410 14
Ġ17 000
ti vo
Ġn eb
Ġf it
Ġg ordana
ly ing
ĠInter nacional
ung odung
Ġad di
ĠCor p
ced ure
=- .
ĠDH CP
H uman
ĠB is
os ity
et ary
Ġc rkva
ik al
bc i
Ġ000 76
ĠPh y
ai us
133 6
143 0
eR e
Ġwh y
par ti
ĠSchool s
Ġdan ijela
ĠTel enor
ĠRank in
ĠMOR PH
discipl inar
nGu est
1 201
0415 100
ad get
ĠS olution
ĠA ur
ĠA udio
ĠB oga
Ġa mo
Ġk et
ĠH ier
20131 81
Ġto wn
Ġto ols
Ġda l
ĠEp ist
Ġzn ac
Ġost av
onk ewap
langu age
F in
F irst
h ub
s uk
w ith
0408 8
01 20
ĠS unda
ĠS yste
11 56
16 85
ed k
Ġf oreign
Ġv ak
20131 85
Ġ\" (
Ġz one
ST A
ĠSt adt
Ġza ista
ide ia
rb i
ĠRep resent
Ġmil it
als upport
UL TU
use um
ĠProf iciency
ĠMedi terran
ĠCop per
3 400
P OL
S w
0422 20
te ni
10 36
16 63
ĠL ie
201319 21
04432 2
yn c
adem ia
we alth
Ġimp act
sl uz
ĠEd mund
ĠLex ical
Ġstvar nost
ufact uring
imperi alsupport
0 2016
D ansk
H o
P i
e UN
0447 3
ĠS rem
ba k
Ġt rucks
ĠE TA
ĠF ocus
el an
Ġe lements
Ġl ot
%) ."}
ten berg
ĠComm erce
ĠSh ares
ĠHT TPS
Ġmob ility
lear ning
F el
G erman
S aint
l k
s he
., ,
da ct
re ts
Ġt okom
ki ew
nP o
eM ar
04432 3
ĠMic ros
ĠBel grad
LA V
Ġproiz vod
ĠProper ties
ĠRaf ale
nNacional ist
g ener
s ol
0411 15
ac ity
Ġm ule
ĠD MA
ĠL ack
ĠG IS
gov ernment
ĠSp in
uc le
nj ige
EN TS
Ġraz mat
mat ski
Ġess e
ĠPed ro
Ġzak lju
BEL GRADE
0428 196
ĠS ter
ic les
17 34
je ta
ĠF am
ĠG round
Ġda m
AT URE
ish olm
ĠAir bus
Ġ................................................................ ................
ĠDirect ory
ĠRud olf
Pod u
hrvat ski
3 450
> .\
d ili
f rac
n pdf
16 87
do bre
as rednjaskola
13 07
ĠF at
ĠN om
07 47
ue va
ĠSc ar
att ro
CD S
Ġste van
Ġide m
Ġul oga
access date
ĠBut ter
m ile
r ung
ĠC f
ab o
re ta
ĠG la
ee per
av rs
eb eni
ni ques
04131 0
eP re
Ġdes c
Ġov ako
ĠUp utstvo
Ġmag ister
tif icial
Ġkultur no
' ;\
s ig
Ġo il
Ġ. ;
ĠD ennis
un te
Ġde al
ica K
ie le
IF L
ius eppe
Ġpra vi
Ġnap i
Ġfe el
Ġsrpskog a
Ġmort ar
eal ost
' re
? ,\
f ish
s app
0410 50
Ġ2016 17
15 08
ĠB UL
17 36
17 21
Ġm esta
Ġt art
ĠL J
be a
Ġf ast
Ġf air
Ġd ub
ON IKA
ĠCon verter
136 8
OP O
ĠAs ian
2013195 2
ĠPrin cip
Ġdan sk
Ġvlad an
ĠWork ing
ĠCla us
Ġknow ledge
ĠSIM BAD
Ġdrz ave
D G
V is
d L
s ystem
0427 2
Ġ5 400
ĠS hell
ed z
ĠF w
ĠV ac
ĠZ en
201319 71
Ġal low
eS p
eA ir
ĠWar sz
ĠWar fare
igh ters
Ġ241 2
ĠAir ports
Pro f
IG A
ĠCas in
loy ment
ĠArmen ia
A st
c By
v ival
0441 18
00 91
\" ....
or ph
Ġ21 60
Ġs ide
ĠR onald
ol ith
as es
ĠG ard
Ġ500 01
ak adem
ess a
ĠZ ENTA
ens on
ju je
eM an
142 5
Ġme eting
ĠCons ortium
Ġgr upe
ĠJos ef
ĠUs age
Ġbl ue
Jac ques
tC ancel
Ġmick it
} \\
ĠI w
al ja
Ġs afety
Ġn orsk
ee b
Ġe iner
im an
ĠZ usammen
ĠAl p
ĠInter nal
wit z
ash i
rz y
rov ica
2014199 4
ĠEgy pt
ĠMN W
Ġpute vi
ĠMorn ing
' !\
C atal
O ut
S B
te enth
ĠP I
ac ta
14 66
ĠR ES
ĠE ra
id um
em u
ka te
ho i
RA ID
ign ed
131 2
Ġraz like
has a
ĠFer dinand
Ġosnov u
j os
0431 8
02 91
ĠI KT
ĠR SN
09 27
Ġv om
st ream
id h
VI d
af va
gov ora
ET Y
uz ija
Ġsu its
ĠMa iden
EM AT
20142 4
145 06
138 6
let te
enn ame
arm ony
eJ o
Ġ________________ ___
Ġpor ed
Ġapp le
nb s
ĠAp ache
Ġjournal s
ĠSve ti
Ġfunk cija
C as
H ans
R J
a edia
d N
d ad
t te
0408 6
0425 2020
or row
ĠM FC
05 00
ĠB urn
Ġm ini
ĠF ear
aa ts
Ġv rati
ea pons
Ġz onkewap
20132 50
Ġre lease
ust va
arch y
2013198 6
ĠGen omics
ropol it
ĠIss ue
nDes cription
ĠEUROP E
nPing back
P art
Z eneca
d ICE
042 315
11 10
ĠB P
ĠR EC
Ġm om
ĠL P
and Me
co okie
ris ta
137 8
Ġti h
eu rs
tr ue
Ġlo cation
bl att
pred sednik
ĠAqu ila
ĠOrig ins
ĠAmeric ana
+ (
n it
{ \\
0428 194
ĠS oundwaweserb
Ġs unt
15 90
ba hn
ol ja
ĠE lement
Ġk is
ica ma
Ġte orije
138 5
eG lobal
2013198 4
mag azine
nPrevious Previous
Ġkultur ne
ĠUnder ground
Ġsci ences
ĠYad av
/ .../
H B
c ovid
k b
t og
02 25
Ġ2 041
0416 12
ad vn
ĠB p
ĠK urseve
le e
ĠL ate
ov ers
Ġn igra
el ess
20131 79
Ġl y
221 27
20132 10
ĠRe views
oni ae
ĠKar ad
Ġspec ific
ĠPr unus
Ġjas mina
ĠPear son
Ġpraks e
0421 35
0414 80
te ol
er ka
15 41
ĠB D
ĠK rs
un is
Ġv or
ĠU na
Ġon lajn
ob log
ĠRep orter
132 6
ĠRom ana
Ġpr vo
gr up
ĠPRA C
ĠFred er
ĠKenn edy
4 3042
? '',
[ *
z art
ĠI gn
16 983
14 71
Ġk ancelarija
ee ze
aj ko
20132 20
IN I
ĠPro duct
049 3
Ġop tim
lor ia
Ġak ci
riv ena
ĠCF D
Ġparad ig
Ġwin dow
ĠCym raeg
3 02016
; '\
] [\
c rk
m illan
p ack
on ent
2019 1
11 27
17 31
ĠK evin
ca mp
ae m
ĠJ ani
ĠXX L
20132 07
20132 80
ST VO
Ġne zavis
man uel
eT o
ĠTh ese
An ton
ĠTE H
ĠSex ual
Ġcrk ve
ĠREG ION
ĠEpit rix
0 43042
W G
j k
} -,
0416 14
ĠM laden
Ġp orn
16 47
17 28
ed ic
Ġ= =\
ĠH orn
id ential
ak h
ip i
AN SA
ĠOp tions
ĠMe in
ny a
Ġpost war
if th
Ġqu estion
ret anje
ĠDev il
Ġag reement
ĠBy elor
cz y
Ġins titut
Ġnastav na
Ġuni forms
Ġinsp ect
1 203
: /\
A H
k ot
x ico
0432 9
., (
Ġp en
17 12
Ġ03 9
ish i
Ġov im
ĠRec overy
ĠAug usta
vers e
ĠRiv era
ĠSCIENCE S
dzam bas
! );
20 83
Ġ20 70
in ovic
ĠS emin
ti mo
15 64
ĠD eg
ĠG oth
ĠG ENER
ja vio
Ġn jen
'' ...\
!! )
!! "}
ĠCh an
RE E
ĠPC B
ĠDo ors
Ġmar ginal
ĠLeg end
Ġserb ian
Ġkn own
> <
Ġ8 212
in ea
ĠC EO
ic ni
ĠP E
16 38
17 02
ĠG MT
Ġn oc
Ġn ull
el en
ĠZ ah
ill on
ĠPro c
nC omm
ere k
110 4
136 0
ĠNov o
Ġimp rov
345 9
ĠDu o
ĠWA BA
Ġbrain washing
Ġpull ing
4 3045
0 43045
l ap
0411 100
Ġ11 080
or ed
ĠR andom
ĠK aiser
Ġv remen
Ġd up
20131 84
20132 11
IN FO
ĠPro v
Ġan atomy
ĠMar i
IS CO
Ġhe m
ges chichte
ĠGeorg ia
Ġim ena
Ġnaj bolje
Ġnik ada
ĠMass achusetts
Ġinternet a
Ġevrop ske
ĠByelor ussia
4 302016
0 4302016
e bb
ĠS till
ĠA w
14 93
ĠK laus
ĠV E
Ġk t
ĠH O
20131 97
ĠZ bir
ons o
ĠFor mat
ĠQu o
\"\" ...\
Ġproble ma
bro j
ĠVar agi
ĠMis lim
Ġeffe cts
+ "}
0431 7
en tes
Ġs ap
Ġe mer
sk up
Ġl ittle
ir urg
Ġ46 00
ati mini
nT h
Ġjed nu
ĠNic ol
Ġkos ovo
Ġprojek at
ĠTN ation
ĠByzan tium
A pr
L ove
N P
c ri
l tal
ĠI CE
al om
ĠA round
de lo
Ġp je
15 68
ĠW es
ĠR av
ce vic
un ilib
Ġ+ :
co urt
Ġl azar
Ġu klju
sch ule
ĠRes ort
________________________________ ________________
ĠAugust us
2014199 8
hol m
ĠFact ory
Ġoba vez
Ġlar ge
9 000
C ast
W L
k Wh
Ġm ely
ra e
Ġe mb
ip h
?! ?!
ment ation
ĠSch neider
po da
04305 3
lat no
ĠHo ax
An n
Ġhom inem
Ġnal azi
Ġmort ars
ĠRac ing
Ġdocument ary
Ġfant asti
( )\
. !!??\
F W
G ebra
S ir
c opy
l ug
ĠC ola
ĠT iger
09 25
ov ine
Ġi tem
Ġb oj
Ġ\" -\
Ġe mis
nj ih
308 9
orn ado
Ġfac io
233 64
col umn
036 4
ĠMax imus
Nor wegian
Ġsubm achine
c ue
c ert
0418 7
ad jaj
Ġ11 300
Ġo x
ĠA bd
Ġp ona
15 60
17 20
ĠG onda
ch ain
20131 72
Ġg mail
iz logu
Ġiz gleda
nD a
Ġ(- )\
ĠAlban ia
Ġtw isting
Ġarg ument
Ġemiss ary
spons ered
ĠRSN OG
+ (\
z og
Ġ 041
0437 0
02 29
01 93
ĠC rvena
ĠT p
ĠG ir
ia k
Ġin tel
Ġ) :\
ĠCh ocolate
Ġfor est
ĠAl leg
IC T
ĠTe en
Ġpri je
Ġcomm andos
srb iji
lag er
Ġed itor
ĠFri day
ĠSol id
Ġmate rial
Ġelect ric
ĠIB AN
ĠSev en
Arch ive
Ġmsg str
nInfo wars
O O
V ic
X ESS
d nu
d nom
h ire
34 49
11 69
15 96
it arian
ca tal
Ġk oga
Ġn s
ri dae
ch ia
20131 90
nA udiatur
Ġal ways
Ġpo java
ĠWin ner
Ġread y
Ġdru go
ĠIg G
zu ov
opol is
ĠCamp us
Ġsmall arms
trip lus
ĠIdenti ties
event ld
g b
j on
m tt
p elin
re h
ĠR isk
Ġw ie
Ġ2000 00
Ġi bid
Ġb us
id get
201319 17
lan u
201419 21
201419 39
eM y
ny ek
ĠWar ri
icy cle
Ġtrad icija
ĠAC ADEM
ĠHR ONIKA
ĠHE AD
Ġny el
Ġeg z
ĠJung heinrich
ĠWag ner
nVa tican
- ).
E du
I ATA
L ast
R os
d ur
s ten
21 53
Ġo zna
Ġp t
ĠR hein
-- --\
co b
Ġ48 95
Ġx p
Ġte l
ĠMan chester
232 3
ĠSy dney
Ġpr ica
Ġrus kog
atar ina
836 39
ĠQual comm
N ic
Ġ( ...).
ti fic
ĠT obacco
Ġm ent
le vi
Ġje t
ĠV ery
ĠV ille
ĠO HR
Ġb aby
ent ru
sk ola
ot vor
Ġ00 142
Ġpro duc
ĠInter view
bor ne
ĠFl orida
ĠUni Credit
ĠSum mit
Ġcla im
ĠFore ver
) ):
: _\
w ind
).. ."}
12 37
ĠA way
ĠA pol
Ġs ources
16 42
Ġt ax
ĠF ive
ĠN ig
ĠJ STOR
ĠU z
Ġna ma
)) ((
ich i
nS lavica
RO VI
AC A
135 1
138 2
Ġ211 01
uth ors
ĠMA J
Ġkon ferencije
ĠLaz ar
elo itte
ĠEth nic
ĠIv ica
ĠPO INT
ĠVirgin ia
s el
201 26
ĠI BC
05 69
Ġp iano
ĠT win
ĠB LU
09 01
ĠK ru
ao xing
ĠG ang
20131 63
eS erbia
di osa
110 5
nal e
ĠMil orad
rv u
nd or
ĠEU RA
Ġdis k
Ġstud io
Ġins pek
eav ni
ĠMati ca
ĠObserv atory
IVRED A
d B
f oli
m uzej
ĠM om
ĠM ile
ĠC RL
ĠP ir
ĠW AN
Ġa vijacija
ĠV id
ĠUn known
ĠNew Tec
ĠCre ed
Ġjed nost
ĠRob er
ĠNa issus
kri min
Ġpsych ology
en tis
ĠS atur
ĠC asti
17 42
ĠV OJ
ĠCh isholm
Ġet hn
EL I
ĠIns ide
Ġrad e
IG H
Ġ_ ,
ĠColle gium
*** *\
ĠSvet og
ĠFel lowship
ĠAth le
ĠRu by
Ġnek og
ogni tion
Ġmental no
ĠQuer cus
dobre vesti
D NA
L og
L earning
M OS
l ker
in ovi
en omen
ĠP og
15 93
ĠW ant
ud er
ĠD z
ĠD ia
Ġk ell
ĠY ellow
Ġdo vol
lin i
Ġpri de
== =
Ġno te
orn ici
139 4
Ġcon tain
144 8
Ġco okies
ĠQu ad
2013198 7
Ġrat ova
Ġproble ms
ĠLibre Office
ĠOH SAS
ĠPix abay
ĠEffe ct
Ġsom ething
B ay
P ORT
R SS
T om
e VI
n CE
is ija
Ġs ug
ĠT ony
ĠT rial
ĠD os
Ġa e
ov ere
29 81
20131 92
ot ten
ĠCh anges
ly n
\": \"
qu et
ĠMar ina
eS ch
ren e
EM POR
eR es
eR ep
Ġval am
ĠEst ado
tre ba
ARD S
ĠTest ament
Bio NTech
/ *
N orth
Z MS
u w
2026 5
re tt
16 60
ri ven
Ġre lations
ĠSt rip
Ġst at
Ġsp ira
Ġop is
04306 0
yle lla
ĠGre y
Ġnov ine
ĠMac millan
ĠMin istar
Ġsm rti
Ġfe atures
ĠCas tel
Ġbook s
ĠVan couver
ĠAndre ws
ĠDipl oma
D irect
Y Q
f bc
Ġ ell
ĠS AT
ĠC ISM
Ġp raz
15 40
ĠT T
16 55
14 99
ol em
ĠG IMP
Ġh vala
Ġb lic
Ġ00 9
ĠSt at
Ġpon ovo
rije me
ĠIndust ries
ĠINSTIT UTE
H OR
M at
R em
T ake
g ae
0446 8
bo k
ass a
RO S
137 0
ĠDis play
ĠRo und
Ġfil ioque
ĠHo ff
Ġspec ijal
Ġpog re
ĠOGL ASI
, )\
k ok
t own
0411 11
he ly
ĠD L
24 61
ut ral
Ġb lan
Ġ00 158
Ġdo st
ER Y
Ġiz ab
201419 12
!? ?\
Ġpost oj
Ġus pe
dan as
201417 39
ĠFilip ovi
ĠDisc over
Ġpove z
Ġfasti diosa
I AL
g ren
n ato
31 76
te h
), ...\
on as
ĠB ik
Ġt uber
ĠD EC
ĠF CD
ĠF usion
ĠO g
Ġ\" +\"
em bourg
20132 05
306 0
AD ER
OP AC
Ġag encija
tr acking
dn im
ĠMem oriam
Ġreal ity
ĠNI UBI
ĠVaj das
* -
0421 18
or uba
ĠS ZS
ĠS ANU
da ys
ĠC AM
Ġs ne
15 42
16 05
14 80
ĠF UT
ĠN H
ĠH ost
Ġ" *\
Ġde utsch
ĠSt oj
Ġst ojan
ĠCO MM
201319 79
Ġne ku
ED A
ubl ica
ans ion
Ġpri ro
ner gy
Ġest ablish
ĠIL I
ĠCON OR
istoc na
Play er
ĠPlat form
ĠTog ether
D as
W IPO
h um
0444 7
01 35
er os
ĠS ki
2018 90
Ġk ursevi
20131 86
ĠU MET
Ġy u
ĠSt rong
Ġbe o
ĠInter cultural
Ġte be
tel ja
121 3
ux e
son line
Ġus p
Ġer ot
vel ik
313 0
ĠHow ard
ĠRet urn
Ġinform acija
ĠFCD Z
E st
M g
V D
w est
0410 356
ĠS UP
11 57
15 38
ĠK L
ĠK raj
os l
ch mark
ur b
20131 88
ou rier
Ġdo dat
dit a
Ġrad nici
nR ep
ĠChar lie
Ġak adem
mal ink
ĠCount ries
ĠAngel ina
Ġpedag oska
ĠContinu ed
ĠMUN DI
Ġofficin alis
* )..
B ible
D em
R euters
a T
c ular
c ross
t ot
0428 208
ĠS rebrenica
ĠB AFTA
ĠK OL
ĠV ern
ĠG ospod
Ġk eep
Ġn ade
Ġc ler
Ġ[ \"\
am ina
Ġb lu
ul ui
Ġ# #\
?! {
gy ar
kl ub
Ġum etn
ĠPRI M
unarod ni
Ġmsg id
D ate
V AS
35 09
201 28
0428 211
ĠS law
ĠA lo
ĠW BC
ol ine
ĠL Y
ĠG ent
Ġn esto
Ġb ris
op ter
ir ao
cc ession
ĠZ E
IT O
ĠJo in
eG reen
ĠBre xit
zbek cha
Ġsrpski h
ĠIg bo
ĠOri ent
Ġatt ack
Ġsloven sk
Ġsep ar
Ġpotreb no
ĠPho enix
apat ka
* +
7 106
A v
L et
Y T
f ig
).. ..\
om ora
Ġn um
____ _\
Ġin kl
Ġz at
up p
ĠSt amen
vo ir
rac i
vis tika
ĠSec ure
ĠRec on
ĠHar vey
Ġmoder ator
P lus
d or
i ques
t rial
Ġ ens
0410 13
0411 2016
te hn
ĠC ute
ĠA ra
ĠP seud
ĠX iaomi
17 01
AT H
ĠAd Mob
ome ister
Ġdi al
ĠGen ocide
Ġarch ite
ymp h
B H
e ene
0446 7
15 98
14 85
Ġje v
ĠV ox
Ġw ins
Ġk af
os v
Ġb ozic
sk ap
04131 2
raz govor
eM il
Ġpar ts
ĠCl ash
eO ff
ĠInstitu tion
ect us
sc ribd
ĠHal le
nas apatka
vec tors
Mart in
ZMS DN
l ika
w ire
z da
2019 41
ĠA sk
15 89
le p
ce ler
Ġl ac
Ġre lated
Ġne uspe
Ġ' (\
RA G
201419 07
nF BR
ĠGre g
Pro ject
way ne
ĠEX PO
ĠIst an
ĠIll ustrated
Ġpet rovic
Ġclan ci
ĠSchmid t
ĠCasin omeister
G p
X IT
f ant
l uk
m lin
p ublique
0410 2016
0418 20
0426 29
do i
ĠL isp
ĠF ut
ĠJ T
Ġb order
av is
ent ara
Ġu kl
lj ina
04241 2
121 1
Ġus ers
Ġba hasa
Ġreg istered
Ġair vectors
ĠFi at
bre ak
1 445
T el
T RI
W EB
d ng
d nost
Ġ7 200
ĠC e
05 33
ĠR he
ĠE mi
ĠH id
ĠH unt
ĠZ latibor
to ur
201319 22
Ġod mah
047 7
ĠNor mal
ĠAut or
ĠSk in
ilj kovi
ĠAnti qu
ĠCup rija
Ġzaj edni
ĠRespons e
Kp fw
A u
j un
m v
m ith
0446 12
00 98
an ova
on us
ĠJ U
20131 91
ec onom
ĠIn flu
20132 60
ass o
ĠMar co
140 9
ras por
Fran k
bel grade
SK E
ĠBan at
Ġsavremen e
Ġmulti ple
Ġizmen e
b untu
i ers
201 434
ĠS lobo
ti re
ĠC lear
Ġs rem
Ġt p
ĠG ian
Ġd iz
eb l
20132 01
Ġr t
to day
per t
04305 8
ĠLa unch
nov ative
ĠGe ography
En ter
atin um
omo tive
ĠSRPS KI
col n
2013195 7
ĠLiter ary
ĠBeh ind
russia inphoto
R AT
T imes
Ġo ss
05 81
ĠN ec
at os
Ġd rive
nA n
ass er
nV ideo
04305 5
Ġsv og
141 2
141 3
Ġba sic
2013198 1
ĠDec ision
rod t
ĠMak er
Next Next
opst ina
Ġmach en
Zr no
M en
W orks
h ab
o E
s id
20 63
). -
ĠS CO
ar n
om al
Ġs old
us ic
ĠE din
ĠF on
ĠV ie
ĠV okabular
Ġk ult
ĠO G
Ġl abor
Ġ00 137
nO ne
ĠCo hen
ubl in
AP G
ĠEC ONOM
TO Y
Ind ones
ĠTok yo
Ġket omob
J P
m atch
u ce
ad pa
or ina
ĠM ask
de ger
15 35
15 78
17 44
ĠH oliday
Ġc d
219 20
ch us
ul y
Ġde ad
ph eric
ĠMan ila
Ġer go
ty m
NO J
Ġsl iku
anj al
ĠPra ha
nNaj novije
Ġfakulte ti
ĠKral jev
inform acioni
ĠEins tein
Ġrum un
atell ite
avrs avanje
EMPOR ARY
G OV
L uther
M b
e ff
h z
ĠS ed
ĠS AR
ĠP ag
ĠR ick
ĠD cirovic
aa k
ĠH our
ik s
Ġf ond
op ia
Ġy et
Ġg ospod
ens er
EE A
ĠHa ir
ĠDoc uments
ĠGeo Gebra
Bank ing
I r
p ren
v ing
z ije
20 67
ĠP ant
Ġs ound
15 02
ĠR umen
Ġm uzej
Ġin iti
20131 89
nA ll
ora ma
Ġus lovi
Ġ:) --\
Ġsz em
Ġup load
Ġpoz ori
Ġsrb iji
vez dara
Ġbo ard
ĠVel jko
Ad ria
Ġglas nik
Ġdrag oljub
ĠHold ings
Sta ten
ĠNeb ula
Ġhiko yalar
ĠNel son
Ġvaspit anja
( +)
Q M
S he
S lav
d More
h ill
v ity
Ġ ult
0420 15
0428 202
te li
ad dy
ĠM OD
ĠD IN
ra ma
Ġg ig
!! !!!
20132 03
ru vr
}} .\
ang a
iss ions
Ġup ravo
nG PS
ĠSy mb
Ġsta ff
ĠYU G
EG S
ĠAf ghan
Ġsvet skom
ĠPr vi
ĠConf lict
Ġengles ki
ĠGrav atar
alex aca
ĠLIT ER
k ur
0426 27
01 89
ar da
de ll
ĠP ick
Ġs ter
ĠB uc
ĠK rak
el ia
Ġ... ]"}
ĠY o
Ġ33 09
co unts
ir anja
Ġ00 026
Ġpro c
ens a
Ġal la
201419 38
Ġpo cet
04432 4
ĠBel gium
edn astave
zo tt
zn ica
Ġur l
bol ja
ĠSyn tax
Ġarh iv
ĠFrau enname
) [
H al
P ink
l ts
n esty
ar ic
Ġs pa
15 73
Ġm so
ĠK C
ĠV OL
Ġc ul
Ġc ena
ĠJ um
ĠJ UL
ĠIn fe
em bra
ĠZ ijin
Ġpro s
ide d
uz ic
Ġla unch
ĠPol ice
ah r
IM O
ĠMag na
Ġmil ic
Ġfo otball
*** .\
Ġanal y
ĠBet ween
zant in
rep to
Ġsil vestris
eAr ch
22222222 22222222
Fred die
> ]]
F D
b om
i y
ar beit
ĠM oment
ĠC XX
ĠT ea
ĠB in
ĠR R
Ġb ene
oc ke
Ġan cest
ĠCon cept
ĠMan ag
ĠBro wser
var u
ĠLog ic
Ġprip ad
Ġht ml
Ġlazar evic
+ )-\
8 221
D ef
R h
{ /\
0420 13
ĠP ray
Ġ24 66
ĠR osa
ĠG eb
ri tic
Ġb iv
ĠU L
ig ual
ĠIn vent
Ġ00 027
20132 40
th us
Ġ[... ],
ĠAr k
Ġal t
Ġ210 8
ĠMa estro
Ġpost up
ĠPre cision
Ġinter disciplinar
ĠAll gem
ĠSm ir
Ġnje mu
aff en
align center
ĠAstra Zeneca
- |
p as
p eg
32 44
0428 203
ti fied
15 15
ĠF LE
et u
Ġc ro
eb n
ore ader
ey e
df en
133 9
ĠNor man
ĠChar acter
ĠMal agasy
ĠHor net
ĠSing apore
ĠWiki Leaks
ĠFol low
ĠMultis oft
Ġ- .\
ĠP F
Ġp avlovic
ĠD EM
ĠG host
im ac
Ġdo bar
ry pt
ĠOp tim
ara jevo
Ġpre uz
Ġmi roslav
2248 0
231 8
04309 7
anj ic
ĠFre i
ĠClass room
Ġfol y
ĠGuide lines
CL IO
ĠFlo or
Ġiss ue
C ela
C reative
O ri
O US
P as
P at
32 45
Ġs sp
Ġp ain
15 99
ĠX i
17 08
Ġt ube
um ni
Ġg org
ĠIn oreader
af ten
ĠUn ity
ĠCo ord
Ġca m
ĠMil anov
ii dae
ĠSec tion
ĠUni x
2219 10
TI CE
istic ki
ĠSclav orum
F air
z ation
ĠP ira
15 03
ĠT as
Ġ22 50
ĠB ALKAN
14 97
ĠE z
ĠE TS
ĠF TD
ĠO ni
ĠH end
Ġc omb
od f
ag u
lj an
eR o
val id
Ġplan inama
Ġgrad ovi
Ġnarod noj
tik um
ĠVoj vodine
ĠRain bow
ĠCarol ina
ĠOB RAZ
Ġmean ing
ĠWeT eK
mlin arevic
' )..
6 161
s ize
0428 205
0428 204
or h
ĠS J
ĠS ne
Ġa way
13 34
ĠF UN
ĠG D
20131 83
ĠSt o
ĠZ ur
ace u
Ġ66 00
Ġpro ver
OR K
ĠComm ercial
ĠMe asure
ĠMan us
139 3
erman n
Ġsc r
Ġkra ja
Ġess ays
ĠSud an
Ġlang ue
Ġstruc no
! --\
' ve
O x
d By
k it
0441 22
0428 212
ĠS TS
ti fex
ĠM ovies
ed ding
ĠE valuation
ĠH ud
og s
ir ani
jev ske
ĠSimp ly
ĠCos ta
konkurs i
Phil ip
ĠGate way
ĠAfri kaans
ĠIstan bul
E m
G DPR
n ac
02 24
er en
Ġp opis
ra x
ĠF iction
ĠH OT
Ġc es
20131 93
fe ature
ran k
Ġre ally
ard an
gov ic
Ġ$ /\
IV NOSTI
201419 22
res pond
iss on
Ġpri me
ĠIN FO
eO pen
Ġpoz iv
ĠED UC
heim s
Ġ763 00
Ġnau ci
ĠWOR LD
ĠDub rov
Ġumet nosti
ĠChronic le
LJ ANJE
Ġpotp uno
$ .\
i formes
l lo
r ine
u is
Ġ2 045
Ġ11 030
en ess
al am
ĠM Sc
ĠC AR
Ġs ul
Ġm A
Ġv adis
ĠInter active
201419 63
201419 70
Ġpol j
Ġkoj ih
ban ka
ĠKos ovu
kol skog
ody tes
Ġog nj
ĠExt ra
ĠLon ely
A IDS
F al
v ani
0446 11
2019 95
ĠS uz
ĠP inus
ĠB au
16 80
16 69
ĠK ron
ĠD oll
ut an
Ġv eg
Ġ00 159
20132 72
201319 36
201319 10
ber felder
nP a
por no
ĠDis k
nos ne
UR N
omb udsmanapv
Ġanal izu
OW S
pek tiva
ĠKe ith
Ġmethod s
1 442
= ;
R heims
b v
b ib
f ana
0412 11
__ .
ĠD raw
ĠD wayne
ĠG rowth
ma gyar
Ġh ol
Ġb om
Ġe o
org io
ĠSt rat
Ġal ap
ĠSch we
fer ences
ĠBi ological
uri es
zs ef
mag ister
Ġtekst a
ĠQue ens
ĠHE ALTH
Dou ay
ĠRumen acki
ĠFTD NA
0 2014
j adovno
p z
ĠS IPA
ĠM ut
15 33
16 74
17 33
il ing
Ġn ina
ĠH OR
ff rey
ni um
Ġon aj
201319 62
mo tion
144 9
eI mp
eIn ternational
2014198 8
ĠSV G
zav eru
ĠCONT EMPORARY
ĠVIN CI
: '
D ur
Z E
34 93
te am
Ġo gle
05 63
15 55
ĠB rid
ĠB IZ
14 83
ed ra
Ġt odor
ĠG amb
Ġk ind
Ġd il
id us
ist y
Ġiz danje
Ġ'' -{
ĠBu y
istor ia
ĠSw ord
play er
Ġjun ak
ĠSeg ond
N arod
j ournal
m ade
v rd
Ġ tion
0428 210
te ly
ĠS re
ĠP ale
Ġs ure
ab ly
ĠW E
Ġm ont
Ġt ransp
ĠE G
ĠH od
ch is
op les
ea gue
Ġde tal
20132 18
eg al
ze ich
Ġph ase
Ġpr ve
04341 0
eI s
Ġok vir
ĠIntegra ted
ĠChrom ium
ĠSach s
ĠEusk ara
Ġbeo info
z burg
32 31
0428 209
al ica
ĠP NG
ĠK Y
ĠL eben
et as
un rev
op lin
ot ti
uss els
ĠCO L
ĠEn tre
Ġsp irit
ĠPh arma
Ġ'' .
ah ara
Ġdes cription
ĠUN IX
04432 7
ĠPa ideia
ĠCam era
El berfelder
ĠIss ues
ĠPROCE ED
S om
j oj
p ath
20 48
Ġ( %).
da h
15 80
ĠW ies
ĠB d
ĠK ada
ĠD ick
ĠL ING
ĠV ice
ĠN er
ĠH ivatal
ĠJ ourney
ĠZ ag
ts port
Ġdo uble
Ġan s
ora x
Ġsp am
nD ragan
ĠRom eo
ix ed
Ġmo tivi
vic es
Ġpoz drav
mil orad
Ġmeg ye
Ġbran ka
tag li
ĠEth ics
fond sk
ĠDEF INE
ĠIzab eri
ioz nost
/ ,\
J ECT
u um
35 16
0411 14
Ġo de
Ġp rest
ĠW ords
ĠR RI
ĠD il
ov ati
ĠH az
ri r
ch ant
ĠU M
op on
ĠIn to
ĠSt urm
af Z
iti a
VID EO
ĠRe bel
By zantine
che z
Ġpre v
ĠWay ne
ĠMil jan
eu Tube
ĠGra ham
Ġanti ci
ĠHon or
Aug ust
ĠSaf ari
ĠAnatom ical
2 400
3 02014
M aster
m re
n q
ic ina
ud h
ed ge
ĠR aw
ol ina
ĠD ro
ĠL ju
ĠF it
ĠO M
20141 371
ĠPro jects
lj ivo
201318 49
ĠPe tits
oph arm
ĠSy l
Ġgrad ska
mas ters
ĠAgric ole
Ġran ge
ĠFood s
ĠFa ith
ĠNEW S
123456 789
4 302014
0 4302014
J ack
c U
y et
0418 10
0422 116
Ġ: ),
et to
ing o
Ġ.\ "
ĠU dru
201319 63
ĠVI D
EN E
132 9
Ġdi em
Ġplan inski
2013195 4
knjizev nost
C hat
L and
M u
P inus
m ac
t ransp
w al
0438 2021
32 20
0413 9
ĠC X
Ġp ow
ĠT od
14 95
ĠG ren
67 09
ki en
!? ),
IL D
pril is
sve ti
poz iv
ĠUP RAV
opo ulos
erc ise
vostok vesti
ĠHerb ert
ĠLEG O
ĠUMET NOSTI
R M
b org
m sp
r cu
x p
an ic
ĠP orn
16 03
ia h
ĠH ugo
ri ters
um ar
Ġz oran
vi e
Ġpro g
Ġte acher
AC S
sz s
Ġme chan
Ġup is
047 4
nL eave
app ing
Un categorized
ĠGeorg es
Ġprof ile
feren cija
Mal ay
ĠEsp er
Ġmolec ules
C amp
Ġ(\ \
ĠS oc
12 38
Ġs cc
ĠT anja
Ġt y
le q
ĠV uch
Ġi vana
Ġl ag
201319 78
ER ASM
ten ja
ust on
Ġbe come
ure us
ĠPri vil
++ +
bas ic
ĠDra ma
ĠEgy es
Ġstra hinja
Ġprijatelj stvo
ĠGon z
ĠPRAC TICE
ERASM US
K L
0432 8
an ije
ĠP Y
ĠW it
ĠN OT
\". .\
st ories
na z
Ġdi ffic
04306 5
Ġra tio
TV O
dz ic
ĠRat na
Ġwell ness
ĠOkt obar
ĠAPPL IED
J ournal
T N
a fe
d ja
n ico
02 94
ĠI E
or io
ĠS ak
ĠA ch
ac tor
ĠB ail
ĠL ance
'' ...
Ġ" ...\
Ġre lev
201319 64
Ġdo ba
Ġth ird
ĠTh under
ze ug
ĠTim acum
145 2
ĠPri ru
ĠAir es
164 3
fr j
ĠBar nes
vel le
Ġorgan izacija
cr venazvezda
ĠGet ty
Ġprim ena
Ġdec ision
zben ik
R od
b ic
g ames
042 310
201 27
es la
ĠT ip
ĠN ex
Ġn ak
Ġf id
Ġl ives
20132 06
ĠZ aje
ĠCre am
ĠAnd erson
ĠCol on
Ġ440 4
Ġmin uta
ĠCri minal
OST I
ĠFly ing
ĠZep pelin
Ġfam ili
Ġia ko
Kol ega
ITET NA
H M
45 00
02 28
Ġj ovanovic
al ni
is ak
om ys
ĠW OW
ĠB ert
ĠB egin
ĠE RC
Ġn atur
ĠH unter
ci us
20132 08
up i
ET F
170 4
titu tional
Ġli quid
pro te
ĠSc ratch
Ġcomp lex
Ġpoj edin
% ):
0 322
P ad
` \",
p aper
20 77
in ing
ĠC able
ĠV aloda
Ġc og
ch in
Ġd ark
aj ic
eg l
rac ts
Ġor ao
eD er
ann ot
Ġsrb i
ĠKal ba
ĠVari ety
ĠRai ffeisen
Ġbugar ski
S lobodan
T unes
V as
k ral
n ge
0411 20
ĠS tic
ĠM lad
ĠW at
ĠR ange
ov ed
ĠN r
ĠH amburg
ĠJ ude
id on
Ġde lo
ten ts
end um
Ġce le
ĠSh uttle
nH vala
ern el
eN ational
ĠST E
Ġper formance
Ġnov og
Ġcan vas
Ġter ms
Ġ________________ _
eiv anju
ĠExplor ation
Ġsig nal
god ina
ĠLet ter
asc ular
Ġmax imus
ĠPas cal
Ġhy per
kc nis
Ġinteg racije
ĠRAZ RED
! !.\
A ca
B alkan
S oft
h os
m ikl
u et
w ich
20 31
ar ts
Ġo ce
ĠA va
ac px
re cht
ĠT ED
ĠL isa
ĠG OR
Ġc lear
un ik
bo a
ĠY es
Ġ00 135
Ġto uch
201319 61
04143 0
ĠNor m
ĠHa us
04433 0
ĠOrgan iz
Ġtemp oral
Ġrus kom
Ġphil olog
zar evic
One Web
7 251
D iv
025 5
ĠA ve
ĠP rava
Ġs la
ĠD ip
ĠD NA
ĠF onda
08 45
ĠH AL
ĠH BO
ing ham
Ġg ram
Ġ00 029
ust ri
ĠCo ffee
rb an
ĠAd dress
ĠCon cep
ĠComp arative
ĠSan ti
ĠBook land
dis on
Ġter itor
nU pored
ĠCC L
Ġhrvat ska
Ġmislim o
ĠVolks wagen
0 021
d ju
k amp
m ie
32 28
.. !\
00 95
Ġ20 36
te ta
on ews
11 60
ĠP rison
Ġ26 38
ĠF IN
ĠG osp
70 63
Ġde ep
ers y
ica tive
oc ne
ks ioznost
uk acija
uz a
ann on
136 2
ĠVal ent
Ġil ic
ĠFA Q
Ġljub isa
Ġfemin izam
fun ovic
Ġfakulte ta
raspor ednastave
ĠUPRAV LJANJE
G rad
L FC
V esti
d ice
0428 206
Ġ20 71
Ġo kol
ĠX Q
17 22
Ġje len
Ġn ie
at rain
Ġf ron
Ġv ijen
co je
Ġz vezda
az gat
ide ja
ver age
eC omm
BI Q
Ġos im
Ġel se
Ġ] '\
EP CO
ĠSe bas
Ġver ovatno
Ġfran ca
Ġprom en
god isnjak
ĠHell enic
ĠVO ICE
ĠAstroph ysics
ĠPROCEED INGS
; ;
D ep
e uro
m eta
p c
p el
u y
Ġ0 68
., .
ĠC lock
15 46
15 49
ĠB udd
at ta
ri ere
ak ademija
nS eptember
Ġpri zn
04305 1
ĠMus ica
ĠNo tes
136 6
pro jek
Ġpl ugin
ator ies
CC C
pri java
Ġcol lection
Ġsl ut
oss ible
ĠBran islav
ĠKle in
ĠPL US
ĠMol ec
ĠGri ff
ĠRail way
ĠRez ultati
studi odf
Ġegz isten
nUpored ite
e www
e ite
e enja
f lix
p m
p raz
t ru
v w
38 16
Ġs lo
ĠW Y
Ġk l
og h
Ġh appy
Ġpro gress
ang hai
ance vic
20142 9
ĠMon astery
Ġ` `
ĠAt mos
ĠPap ers
Ġszer vez
ĠCommon wealth
Ġben ef
ĠLay er
Ġpoe tika
Ġrevolu cije
eeb ly
M K
V ideo
s lobo
z r
20 50
), "}
ĠI ra
ĠM ust
ĠM atrix
05 39
ĠP t
ĠB ic
'' ?
sk ole
iv c
Ġ41 99
Ġg ang
ep i
ap k
ĠZ i
tic ally
vo de
RA AM
ĠCre w
2116 2
Ġfilozof iju
Ġ???? ??
LI W
Ġ(!? ),
rup tion
group s
Iw AR
Ġinterdisciplinar ni
' ]
' \".\
B ran
ĠB right
Ġm ale
Ġ31 66
Ġk rv
Ġn iz
ej u
ĠJ N
av al
od nost
ub ert
no tif
ten do
cd u
ĠMe h
137 9
Ġun ap
ĠReal ity
atal og
bq W
Detal jnije
ĠPal ae
nje g
ĠSER VI
ĠBran imir
2014198 6
ĠFrank lin
ĠVen us
zim ierz
ljub ovija
save atrain
ĠLack ope
R oy
b ibli
g ins
p KJ
v ranje
x cp
0410 260
Ġ7 100
ar ati
11 58
Ġo bec
05 62
15 65
17 24
ĠR ts
as onic
ea j
Ġ06 48
eA bout
AD E
Ġob ra
136 3
ĠMin us
ĠLab el
ĠKon stantin
Ġmol it
\"/ >
aV x
Ġrealiz aciju
iaz za
hodo log
reens hot
C ross
S EGS
m itt
r AM
w bqW
er BIQ
ĠC art
ĠA eg
23 00
op ort
ci b
Ġde mon
ge ist
201319 23
Ġte m
ori us
20142 012
ĠSer gio
EG aVx
ĠSu botica
ĠMay er
Mar ie
lam en
Ġkoris cenje
Ġsite s
ĠShe et
TD ivc
Ġnek im
ynam ic
ĠSab ina
vm Zr
trip ples
XQ Va
Qy eX
ĠDinar ic
ĠMorph ology
fbc lid
Gp TDivc
xcp EGaVx
SEGS eD
rAM GpTDivc
wbqW jz
vmZr SEGSeD
tripples world
XQVa SK
K SI
c ine
s al
s es
0440 9
00 32
Ġ2 042
ed an
be iter
ĠH I
Ġv ij
Ġv ije
tt on
st op
20132 25
ne o
132 7
ĠRes erve
ĠBro ok
Ġmed icin
oni dae
ĠNetwork ing
ĠPerspec tives
Ġgol ubac
Gov ernment
A ves
A ustria
D UC
W BC
0415 70
0428 207
2019 60
ĠC ic
Ġs olar
je la
ĠD P
ĠG ustav
ri dium
Ġg er
ST UP
ug u
Ġod red
lov ac
ĠCar bon
CI R
ĠTer ror
04307 7
Ġkon taktu
Ġzdrav stveni
ĠMem or
mir al
dow ment
Ġviol eta
ĠProper ty
filozof ski
- ;
/ :\
; *\
L AS
v om
Ġ ],
ad Y
11 21
ĠM H
Ġs frj
ĠW riting
ĠW atson
ĠE QU
ĠL eft
am ma
Ġ\" '\
CE D
ist ri
20132 21
qu ar
Ġsp ect
ĠMo ham
ick en
ĠCom trade
ĠCor ps
lar ation
Ġnastav ne
Ġsavremen om
Ġstoj kovic
ĠLit ter
urea uc
rf zo
jedin jen
Ġmarginal izacija
U rs
W O
b ri
0411 50
02 27
0428 219
05 35
15 85
ĠB ron
ba y
17 14
Ġt um
le cted
ĠF eb
ĠN HL
os nov
'' ).
ess en
201319 49
ĠAr nold
lan o
340 2
ther net
Ġes te
ĠPrav da
Ro yal
Ġposeb no
Ġduhov na
techn ology
0 2017
d orf
e bel
n UNESCO
028 0
ac ij
ĠB om
ĠE vo
ĠV iz
07 34
Ġthe oria
ran ger
** )..
ĠMo untains
Ġca me
Ġvi doje
Ġsv om
eN IS
Ġos oba
ĠBr ass
2014199 7
Ġhrvat skog
573 0
ĠStand ring
ĠSele cted
Ġmetodo lo
Wal ter
ĠStanis avljevi
= &\
Y N
p oli
0442 365
ad ing
re o
16 08
14 68
ĠL ietu
os rbija
ĠH ong
ma y
ec tion
Ġ39 00
Ġ{ }
la u
AN S
ĠSerb en
back ground
AS P
mar ine
ĠGra f
Ġur ad
MC U
Ġmateri als
ĠIslam ic
Ġtradic iji
- '
? ....
U SS
] ).
e IV
f amily
0410 01
te va
15 58
ĠD PP
Ġa uch
ĠG W
ĠG ary
ca ted
Ġk ick
un al
un ities
Ġd ome
Ġl iv
iv anjima
ci e
ue z
lo om
ib i
ĠPro tein
ĠDe cembar
tor io
igh th
Ġsk rivena
ĠNa OH
ĠEncyclop aedia
ĠCro wn
ĠIA AF
ĠLar ge
ĠBug ara
LOG O
1 437
? );
B l
G aeilge
V G
Ġ( !).\
06 53
17 09
ĠK ath
th is
nS rb
tis tic
edi um
Ġmed ijana
ativ ity
ĠTO UR
ĠTro phy
Ġkos tic
igra phy
ĠProcess ing
ĠVEL IKI
N ot
g d
u ally
en do
en st
ar am
06 09
ĠW ald
Ġt rip
ĠE W
Ġe tika
ich er
132 0
04305 6
Ġnap rav
rov ac
ĠSk op
ĠPos lovna
Ġran ko
Ġrazvoj na
1345 91
Ġrije ci
dil ina
Ġpolu ost
; '
e up
om bor
ab in
ĠB uck
ĠK ent
ĠK omp
ĠD iana
ĠE rste
ĠH ood
ok ovi
ĠIn forma
ist oj
Ġ53 00
ĠCh allenges
201319 77
201419 40
Ġad s
20142 5
002 2
por uke
ĠSup erior
ĠNA J
ĠOb s
ĠLeg ends
ĠTre aty
Ġair craft
Ġlic nost
SH ORT
Ġtermin ologija
ĠHop kins
erbal ne
ĠArsen ijevi
Ġpocet ku
G ro
Z agreb
b est
0435 05
040 0
0426 90
ĠM SM
ĠC erv
15 63
15 67
ĠT I
Ġm enja
Ġw on
rs ka
Ġd one
um ph
fe k
Ġl ako
Ġr asa
ER IN
Ġth ought
Ġpol ski
Ġsu is
eM on
142 2
Ġmon ografija
ĠSal v
fol ia
ĠChin eeze
Ġdrzav nost
< ,
A SS
E qu
e er
j ack
01 12
in os
en ice
ĠC ari
06 684
ĠP ia
ĠX ylella
ĠW ireless
ter al
Ġr ende
131 8
ĠJohn ny
Ġkom edija
Det tagli
ĠMin or
cK OJ
ĠMor av
201320 4
Sc ala
uev ov
Ġgor ana
neg ie
srbijas ume
Ġinkl uzija
E dw
S ur
d ite
en oj
ĠS ul
ar an
ĠB US
ĠR SA
je da
ĠL ed
ĠJ i
Ġg ender
.{ {
Ġ68 00
Ġte matski
ren cy
ĠEx port
EL IN
uri r
ĠPer l
033 1
ĠRob inson
eiv i
Ġsoci oling
ĠAcadem ia
til ity
ĠCli ff
221219 45
Wh ite
Ġljubav ni
Ġpristup i
opst in
ĠKen neth
Ġstatis tiku
Ġdog adjaj
ĠLite ratur
ĠZlat anovi
ĠESS A
ĠPSI H
. %)
: ]
S uper
c hell
h ap
0445 86
Ġ17 065
bb aB
Ġs az
Ġs olutions
(\ \
ĠB ev
ĠB EST
ĠK REAT
Ġn el
et ine
am mer
Ġd urch
um et
ĠZ ato
Ġan ksioznost
IL O
ĠAnd ers
ene ka
ĠBi os
ĠBu enos
ĠSz ent
ĠSe an
Ġap art
ĠCer tificate
Ġbalkan ski
egin yan
Ġdjord jevic
psih ologija
ĠLING VI
c rkva
2019 91
de e
Ġp lain
ĠB iljana
Ġa mb
ĠL N
ĠL ot
ĠF ather
ĠN os
ta tions
Ġu bac
20132 24
Ġ07 00
ĠZ ab
ĠVI SA
110 50
per sky
EM I
amp s
Ġup on
eO r
ĠSo tir
ĠDu bai
ĠHal f
ĠAndre j
Wik imedia
ĠAus f
osk im
ĠRol and
lib rary
ĠCONT EXT
ĠChi ef
Ġinfer ior
ĠReli ef
Ġracun ara
borba zaveru
Ġrazmat ranja
P res
j ski
z d
0410 21
ĠB ath
ĠR ug
ĠK ul
st ore
ex ual
Ġre ach
ob acter
eg y
ari ae
Ġ1876 1878
ah l
ĠHe at
eD an
Ġac tivity
ĠComp lex
ĠPre levi
eph al
cip ation
pec ts
Ġfilozof skih
cemb ra
depend ence
ĠProvin ce
ĠMET AF
obraz ovanje
Ġprofesional ne
tud iants
Ġpoluost rvu
V el
b usiness
j ovan
Ġj ovic
ic A
05 21
Ġs ime
ud ad
16 15
Ġb lood
ig ic
Ġde fault
20132 14
ion es
nP oz
ĠTe acher
ĠUnivers ities
sch en
140 8
163 0
eG e
nL o
ĠQu est
Ġsec anja
ĠAD R
OVI C
chi ev
ĠEs cape
ĠVin cent
Ġmas ovni
Tag s
Ġprosl osti
Ġmilj kovic
Ġprika zi
Ġfik cija
0 2018
G re
W rite
d ers
0410 350
ti sta
ĠM SC
Ġs imo
ac Y
ud ca
Ġm Banking
je ction
ĠH ey
by e
fc b
20132 022
ru gu
ĠAl ph
Ġdo z
rav ian
ĠSh ock
osti lle
140 01
Ġos ob
ek onom
LA SS
ĠLib ri
ĠPa olo
its u
umb lr
Ġknjizev na
kon ja
Ġmis ic
ĠOrgan ic
ĠShe ets
ĠTA IEX
Ġadminist rat
zar tsport
iklop edija
Ġmov ement
ĠPed ja
Ġbos ko
ĠTax ation
Ġdijale kat
ĠMunicip al
OVAN JU
Ġpotre be
Ġpedagog ija
dact yla
( *
H ouse
R am
T ri
042 317
Ġ0 67
ĠS id
ĠS ek
11 040
ĠA SS
Ġs ue
ĠD ell
ĠF ro
Ġh ang
CE A
ĠCh ance
Ġst ank
nA ir
ire fox
Ġod bran
lip se
eP EPCO
eni um
Ġ340 5
uri e
Ġnap ad
Ġbo em
ĠRaz li
My U
Mi U
Ġinternational e
Ġoba ve
ĠJEZ I
ĠPRED UZ
' ...
S un
V U
_ (
h ite
an ted
Ġj i
ar aju
ĠC RE
ĠC TS
ĠP ussy
ce g
Ġa Y
Ġn ervus
?! \"\
Ġ58 00
Ġpro zi
ort unity
ĠPro polis
eC omp
135 2
135 6
ĠGu ild
ins titut
Ġkoj im
cu it
oss es
ĠHor se
Ġcre ate
Ġbalkan ska
stud ent
lod zimierz
Ġparadig me
Ġneuspe ha
G roup
S mir
0458 5
Ġ( ?\
en us
ĠM ond
ĠP ain
ĠW ard
ĠT ric
ed g
ol g
ĠK lu
up rav
ord is
ĠCO SME
Ġ77 63
ĠEn dowment
Ġan tika
aw i
ver a
04141 63
ĠWin dow
nov ost
pro tiv
iam ed
vis er
Ġman ager
ĠFac ility
ĠHor iz
ĠGold man
ĠSave ti
ĠIll inois
ĠPRI STUP
nev u
Ġkaz emo
ĠCla ude
ĠUnder standing
Ġnat ura
] '\
0410 16
0423 0
ĠI ATA
Ġ11 040
Ġs ab
Ġs ki
15 76
08 76
at ore
'' ?\
Ġc veta
ay e
Ġde vices
Ġ56 00
Ġis prav
ĠCo ast
150 4
20142 8
nW ritten
04432 8
Ġbi ob
vet s
ĠGen ex
Ġfilozof ska
Ġ............ .....
Ġjav no
ĠTEORI JA
balkan ski
ĠVene zia
Ġdijale kt
ĠMot ors
Ġmaterijal na
L P
e iti
0435 36
ti p
ĠC et
is mo
ĠP D
Ġs atis
ĠB ust
Ġm iddle
ĠE up
Ġc ca
23 030
Ġv rijeme
ĠU HF
st ran
EN OJ
ĠMe V
Ġob jek
nN ATO
pr nts
OD OX
ĠEv il
ĠOb radovi
arh iv
Ġobraz ovna
raw berry
uls ion
knj iga
Ġsvak om
ĠCuri e
Ġponas anja
ĠSIN FON
Ġparas ite
Ġnade zda
ĠLITER ATURE
prnts cr
4 3062
D u
F rom
R ay
f am
u ve
v wv
0411 27
ĠI mmun
ĠS IP
05 66
15 84
ĠW riter
Ġt rag
ca tid
ĠN enad
Ġb le
av ar
ci ous
Ġ55 29
20132 22
Ġon ih
Ġre quest
ric ane
ĠAl f
137 6
Ġac tivities
136 9
IP P
ĠPo e
eY outh
ĠAP G
Ġbo y
Ġwork book
Ġass essment
Ġbis era
ĠNASTAV NIKA
Ġdemokrati zacija
0 43062
B ul
L ike
0415 12
00 33
Ġ20 34
te z
ĠP df
Ġs istema
ĠB rasil
ĠF ot
Ġf ul
ur bo
20131 82
Ġg rowth
Ġ00 013
ER E
nM ar
ele kt
eR ed
eder land
ĠSy m
Ġnov inar
ĠMin ister
ĠCons titution
Ġev olution
ĠRos en
ĠCine plex
zent mikl
ĠExt reme
ĠLov es
osk op
ĠForm ula
kre ativ
Ġstan ojevic
Ġmoderniz aciji
Ġponas anje
ĠSAVREM ENI
hegy es
ĠZbir na
. '',
3 02017
4 302017
0 4302017
Q A
S r
c overy
j in
n ep
Ġ( ?).
bb eu
16 84
ĠE SC
27 28
Ġd ens
um es
um entar
com mer
pe tit
vo id
ock er
ĠNet scape
Ġval ues
Ġdom in
ĠGRA SS
Ġsavremen o
ĠRefer enca
Ġnev erbalne
Ġfot ografija
Smir nofLeary
C all
M studiodf
R W
0426 28
0426 24
ar as
al ogy
ĠC RO
is me
Ġs ans
15 61
16 91
il ac
ĠV ikipediji
st andard
Ġde lu
Ġr k
04301 25
201319 33
ĠSte wart
ĠFo ot
Ġsoci ologija
ĠInst rument
ĠAD SL
Car l
tar io
Ġdin amika
Ġsred inama
ĠMED IJI
radio foca
tov ica
ĠPresent ation
Ġprimen jene
Ġmemo ari
ĠRoberts on
Ġbeograd a
ĠHrv ata
nCor onavirus
Ġleksik ografije
Ġjev tic
Ġbiob ibli
/ .../\
0 2013
G F
K op
b ogra
Ġ esti
al im
de ka
05 64
05 77
ĠL AB
Ġk ole
ĠH yd
Ġf irm
Ġ... ?
Ġpro uca
** ),
ys ical
Ġvi dovi
Ġgod i
ek oblog
edn ica
ĠMer ck
Ġste fanovic
Ġud zbenik
acv ta
ĠCommun icative
ĠDen ver
ĠParti zan
kos ovo
iran ih
Ġstudent skim
Ġindividual ne
ĠPrag ue
Ġeconom ic
Ġveh icle
Ġucen ju
ĠStamen kovic
ĠOBRAZ OVANJU
Ġvijen ca
bogra ta
3 440
F ood
y ou
0438 31
0421 14
0411 13
ar g
de utsche
ĠL amb
Ġ= '
Ġc op
th al
ju ju
Ġod b
ĠPl aces
rag on
ĠHe avy
eD on
rit o
Ġpod neb
Ġab ove
Ch ristian
Ġpred sed
Ġver ujem
Ġpsih oloska
Ġide ali
ĠAL L
Ġmat hema
Ġkar akter
Ġig nja
Ġvez ivanje
Ġunivers ity
ĠPok er
Ġmetodo los
Ġvrs nj
B ob
e aa
0426 31
te c
ĠS ett
om acy
14 60
Ġm osa
ĠN AL
el ius
fa ja
lo z
af kn
ond u
ĠCh at
ens en
201319 00
Ġcon text
TI QUE
acv vn
Ġvis it
201323 0
Ġporod icni
ĠHam mer
Ġacc ording
Mus ic
Ġhely i
Ġprevod ila
+/ +
Ġziv kovic
Ġmoderniz acija
ĠPerspec tive
ubb lica
opriv red
ĠFry sk
ĠPuer to
ĠPSIH OLOG
iamed iana
( -)
8 211
M oll
d g
f po
l atin
n UN
s pektiva
0421 13
0411 52
ĠS la
ĠM J
ĠV ib
ri h
ik ov
Ġf izi
Ġ\" [\
od ium
ine k
Ġr uzic
ij es
oci ologija
ĠTim i
ĠCar ter
Ġag ric
ĠRob in
unk ers
ĠLeg acy
Ġcor por
opol ski
EOGRA PH
ĠDen is
ĠInstitut o
ĠRap id
ĠColor ado
ĠScienti st
ĠSEL ECTED
Ġant ology
IND OWS
Ġistori ografija
Ġsara jevske
Ġlju de
B ap
B ASE
D ER
k rs
p ros
0426 100
ĠS XC
11 59
Ġs and
Ġs ale
16 21
at ovac
Ġf ight
Ġh an
um ann
Ġiz az
ali tion
bar ossa
Ġpa ideja
ĠPan asonic
Ġgr cka
ĠPH ON
Ġid s
Ġdrust venih
2014199 6
Ġbalkan skom
Ġvred nosne
tsch afts
ĠEffe cts
ĠCrow ne
ĠCrk ve
Ġprosl ost
ĠOcc up
Ġbalk anu
Ġfantasti ci
Ġegzisten cija
ĠLitter aria
K it
b ian
h s
h uman
s ap
0440 16
201 450
an ske
Ġj ako
Ġj anjic
ĠS es
al ed
ĠP LC
ol it
ĠD ul
Ġk latno
Ġf ramework
Ġl aza
ir in
ĠQ Q
Ġ; -)
ress ion
tel li
ĠIN OVAC
139 8
ĠBar on
Ġnov akovic
Ġknjizev no
kon taktu
ĠDi abetes
Ġvid jenja
Ġpsih oloske
Ġistor iju
Ġnauc nih
ĠJas enovac
vaj dzic
Ġbel li
Sta te
Ġport foli
dEV NA
Ġprimen jena
Kar l
balkan ske
ĠLingu istics
ĠImper io
Ġafektiv no
ĠWhit ney
Ġbug ars
Ġlup us
Ġznac enja
Ġpodneb lja
ĠINOVAC IJE
G a
m ovies
00 99
0425 14
al ter
ĠM F
ĠP ig
15 70
15 79
ac ritic
ĠT ank
ĠR OS
ce a
ro bat
ĠU Z
fe o
ĠIn frastructure
cc p
ess age
li je
20132 17
Ġsu vajdzic
AP I
po ezija
04432 5
ĠPri de
Ġus avrsavanje
IM ANJA
ĠBel g
Ġfil ologia
Ġkom edi
Ġprav u
ĠFri da
Ġ!!! !\
Ġzdrav kovic
04453 0
Ġtri funovic
Ġnauc noj
Ġistraz ivanjima
Ġmas inski
ijas port
Ġgor skog
ĠPRA KSI
etnick im
Ġstarosloven ski
nNas lov
Ġposthuman izam
ĠRAN OM
Ġvezan ost
Ġerot skog
Ġumetn icka
Ġsrem ac
ĠESSA YS
ĠKREAT IVNOSTI
ĠLINGVI STI
ĠMETAF ORA
3 02013
4 302013
0 4302013
P U
S ky
T OR
k ven
s ci
t T
0447 10
00 81
ĠP ID
ĠP ART
09 49
ĠF is
219 6
ur as
Ġe kst
201319 32
pp ed
pp ing
eC an
307 5
Ġpri mary
eN ASA
oph ila
ĠPo or
unda tions
ograf skim
ĠProf it
Ġpsih oloski
Ġsud imac
Ġpedag oskim
Ġljub inko
ĠPAR AS
ĠSAM OPO
Ġposthuman izmu
ĠJK V
Ġivan ic
Ġaplik ativni
Ġjak ova
Ġkoz uh
Ġakci ona
Ġrumun iji
Ġognj ista
Ġjunak inje
Ġdome ti
Ġdijalekat ske
Ġbugars tice
( (\
h im
t godisnjak
t filozofski
t psihologija
t balkanske
Ġj go
Ġj ordana
Ġs retanje
16 13
ed d
ĠD raft
ĠL B
ĠH SE
Ġc ira
un ge
ĠJ UG
ik t
ot urski
ĠIn sp
af u
ts rpski
ts ociologija
Ġan glistika
Ġte mis
ĠTh ess
eC atena
pl ac
Ġle tic
ali um
can o
ier i
Ġist ocne
Ġba konja
Ġdis kontaktu
Ġel n
Ġab stract
jo y
CH EM
Ġbr and
Ġbr ne
ĠSz erbia
lag en
ĠAN SI
Ġsoci oloski
Ġsoci oloska
Ġsoci oloske
GRA D
]]. <
Ġzbornik balkanski
tz bornik
ĠHal upka
Ġzlo ubo
Ġnauc ne
Ġdj oric
Ġdj igic
Ġbre vity
Ġhuman isticki
Ġkultur oloski
hard t
Ġkomunik ativna
Mi ut
Ġmulti etnickim
ĠGR AND
Ġvez banka
tan glistika
ĠCourse book
Ġstoj iljkovi
Ġstoj ancevic
Ġnec istoj
ĠSTUD KON
Ġdjord jic
Ġzb ornici
Ġsrpsk oturski
Ġboris ava
ĠNASTAV NOJ
ĠHear ts
Ġmilj kovica
ĠSAVREM ENOJ
Ġdz onic
Ġafektiv na
Ġfacijal no
Ġfacijal nih
ĠDIDAKTI KA
Ġmatavul j
Ġmatavul ja
Ġprak tikum
Ġvuk icevic
Ġhaj deger
ĠNek nji
Ġdvor odnost
socijal izacije
Ġboz ilovic
Ġautob igraphy
Ġvalam int
Ġgorg iev
Ġogle davanja
ĠRAZRED OM
Ġtemporal nosti
Ġphilolog iamediana
Ġslut nje
Ġvij ase
Ġsocioling vistika
Ġstank ovica
Ġboem skog
Ġdijalekt ologija
ĠSINFON IJA
Ġbiobibli ografija
Ġprouca vanje
Ġignja tovica
Ġmetodolos ka
Ġvrsnj acko
ĠPSIHOLOG IJI
Ġportfoli om
Ġkomedi ografi
ĠSAMOPO IMANJA
Ġjgo istocna
Ġtemis varu
ĠHalupka Re
Ġzloubo treba
A qu
C F
C ON
G H
H and
T weet
b ilo
g ro
n ung
p ra
0428 213
Ġ20 99
01 18
000 9
ar en
ti ta
11 53
ĠM ani
Ġp las
ao a
Ġa ffe
ĠV H
ov is
07 45
07 42
Ġc orn
Ġb icycle
co are
ĠThe ology
Ġ! ,
nj iga
ven ess
mo de
Ġch allenge
ĠNe bojsa
140 7
Ġcon struction
04307 0
Ġpot opon
Ġri m
Ġ(?! ).\
Ġpass word
sub st
ĠLGBT Q
Ġconc ern
nBe ograd
sluz ba
@ @
c loud
p ute
t ari
01 95
ĠS vi
Ġ/ .\
es th
ĠP OWER
Ġs uz
ĠX y
ĠW anna
ĠB IS
ĠR asp
09 23
Ġw ide
Ġv ikipediji
53 41
ni us
ef est
ĠCh art
ĠSp ir
ati m
our cing
201419 79
Ġun f
04305 2
ĠComp uters
OV O
ĠChrome book
ugh ter
ĠTrad ition
dat um
ĠBA E
Ġmlad ih
ĠBeau tiful
1 431
O U
S or
f ier
h men
Ġ( ''
ĠT ick
ĠV ESTI
ew are
Ġh ero
Ġv ent
Ġ63 00
to ck
ks on
Ġne eds
tis te
eM a
men te
ĠItal iana
ĠSal es
nje m
ĠGreen wood
ĠSwed en
Ġzem lja
atu red
Ġkas nije
Ġmani fest
4 3002
= %
j j
Ġ( [\
0417 0
Ġ20 80
ĠI ako
ĠC ob
ĠP UBL
ĠW en
16 22
ba sk
ĠG ael
Ġk ing
Ġg ay
Ġsp as
Ġvo de
ĠBook a
inter net
nXX I
ĠFilozof ski
ĠMonitor ing
Quer cus
- ...\
W olf
b order
e VII
p isk
s il
0458 3
ĠM OB
ba u
Ġm akes
ĠF F
be ck
ĠY Y
017 4
ju k
201419 03
04141 00
EM S
sh ire
309 5
Ġkom entari
ĠBu ch
nZ oran
NA SA
Ġgra ta
post s
Ġnema m
god ine
ĠFair y
mf ub
Ġengine ering
ribu ted
Ġori entalis
Tur k
Ġtran sk
3 02018
l ata
31 75
ĠI a
al us
ĠC ISC
Ġs ales
16 23
14 69
ĠR ate
ĠD ije
it her
ĠV reme
Ġk J
ĠN K
be le
et am
ĠJ ose
ut ni
Ġb od
Ġde ci
af ar
Ġpro jekt
ment al
aw ay
Ġal ban
201419 15
Ġph arm
Ġsrp sko
Ġstran i
ĠTr ends
stru ct
Por tugal
Ġsy mp
tuel no
nop rav
ĠCog ent
ĠFUT URE
M os
O Z
P lease
d ija
g m
g ine
41 76
0421 22
Ġ( ).
Ġ( !!!
000 38
ĠM eyer
ĠP un
Ġs ast
Ġa bb
500 00
Ġ06 02
ij ani
art utorial
nP red
eS c
cd v
Ġca mera
:: ::\
eL ive
Ġqu estions
nZ d
pos ition
EST E
Ġdin ara
Ġtag ged
Ġbas is
zas zentmikl
ĠSof ia
C i
J S
e at
l abel
m ers
r ny
ĠC ARE
ĠE tym
ĠF ebru
ĠV ig
Ġk omm
am ar
em er
ĠIS SAI
Ġpro vid
uc tion
ici ent
142 8
Ġ550 8
au ch
Ġop rema
ĠPo etry
Ġsk in
ĠMet ro
tr ack
ĠSP R
tio dactyla
si da
ĠNik ov
ush in
ĠMad onna
ĠPur ple
Ġdat abase
0 43002
C enter
M N
R ank
b orn
041 432
Ġ0 99
... --\
Ġo vih
ĠB ras
ĠK in
\".\ "\
26 63
Ġh old
Ġb ab
Ġe ID
co e
Ġg it
vi ii
ĠZ immer
for mer
nT ijana
ĠInter pre
Ġti pa
132 3
Ġpost s
131 9
eN e
eR ock
Ġper o
osp upin
ĠGB U
ĠLen ovo
Ġstvar no
ĠConstant ine
ĠJug osloven
KR IVE
Ġinteres uje
ĠStad ium
ĠMonth ly
emor ative
ospupin zemun
E very
c ut
g ot
k ultur
35 44
31 25
ĠB und
ĠB OS
ĠV l
24 60
Ġb ureauc
Ġ42 17
lo cal
301 1
ne te
az y
lj iva
110 70
ĠON E
178 55
2013195 9
Ġ???? ????
Ġzaj edno
Bu haM
sum atovac
Ġdovol jno
sumatovac ka
8 260
: _____________
; (
f estival
h ram
m ulti
0440 21
\" ....\
ĠC ut
ic em
05 44
ĠT ec
16 25
16 94
14 82
ĠK aw
ĠE kk
ĠF oto
Ġ36 350
Ġ\" /
ul iana
Ġl u
Ġ00 140
20132 13
ĠThe odor
uc ker
ĠSh ip
eB i
141 9
Ġist ina
ĠNov embar
ital iano
ĠST ART
154 3
Ġzdrav stven
juba v
Ġgroup s
Ġzap o
ĠTest ing
Ġzam ob
Ġros tilj
Ġnec ess
ĠGn ome
ĠScot land
4 302018
0 4302018
D ESC
d ionica
e urope
f it
0412 20
0425 13
0428 216
Ġ0 38
ĠC vet
ic ide
il nik
Ġm ts
Ġt ras
09 95
ĠD ry
ĠF X
27 00
-- >\
and um
ma ker
Ġ" |
ĠOn tario
04241 8
sh are
ĠNe ue
ild er
CH ANGE
leks ibil
kri eg
Ġear th
ĠIM AP
Ġprojek ta
Ġviv endi
moj asrednjaskola
E CE
F DC
J N
K U
Ġ rav
01 16
Ġ0 54
ĠC XXX
is ka
ĠW R
ĠW ille
Ġ23 34
ĠE ld
ĠE rich
ĠL IFE
Ġf ut
Ġg iven
Ġst ore
ate nt
ĠAl berto
nO pen
306 9
ans on
ĠCon text
CO V
Ġpre thod
Ġpri jemni
dd d
Ġsv ako
Ġjed ne
Ġreg ional
Ġkon stru
ĠVal ue
Ġnas lov
ĠDom ini
cD anas
ĠNic ola
ynam ics
enni fer
ĠDouble Click
Ġvoz ila
Bi H
ĠIo T
ĠQuarter ly
dD anas
f ab
s oz
t rib
0414 95
Ġp ogle
15 88
ĠK oz
ĠK nji
as o
ĠV on
Ġf u
Ġf ore
fc ns
ack oj
AL OM
lav e
nS ch
ĠAd i
eM er
142 3
erman ent
teri j
ask rs
ĠOb server
Ġ----------------- -
Ġ----------------- --------------------------------
So faScore
ĠDre ams
B rasil
C yr
J im
b de
r ast
s cc
042 436
00 75
Ġ17 800
ĠS j
ĠM ack
ĠC p
15 22
ĠW S
25 1843
ĠG oji
ma ke
ve ti
20132 46
201319 08
az ione
201419 60
ign on
145 4
Ġcon ference
ĠGe ological
ria m
ĠWeb er
Ġfac tors
ĠMin ecraft
ĠMi G
Ġsrb ijasport
04309 0
Ġsub ject
Ġsav et
fcl t
ĠCard i
% "}
G OVI
b ug
c ase
er or
ĠM ale
15 72
ud yp
17 19
ĠR ic
do va
ĠK un
ĠD ost
ĠG M
ĠG ates
Ġb li
Ġe conomy
Ġ00 148
erb er
201419 34
raz voj
ĠTh ought
eL ove
++ ++
MA IL
04300 3
ĠBas ed
ĠCorpor ate
ĠNic olas
ĠTIM E
ĠArchae ology
ĠPz Kpfw
ĠTih i
ĠZusammen arbeit
repto coccus
M r
V EST
p av
s ea
32 01
Ġp aint
15 94
15 91
Ġt witter
ĠL OG
ĠL INK
Ġn ovo
id novost
ers e
---- -
20132 35
20132 58
201419 19
201419 50
AD M
mo on
ĠPo ints
ĠBu bble
ograf ski
ĠSil va
ĠFer r
ĠPRI X
peti tion
Ġpom og
akes pe
ĠOt ac
ĠPow ers
ĠFlav ius
Hen ry
ĠVET ERIN
ĠEdin burgh
0 2012
K h
j anje
s q
w g
0420 12
ad ja
de us
Ġs ev
15 48
ĠB ap
ce ae
Ġv era
ak ovi
20132 28
uc he
AC O
ng el
ĠBl ag
ĠAut om
ĠSil ence
Ġud ruzenje
ĠPRI RO
fri end
Ġserb ica
ĠLj iljana
king dom
ĠRol ing
A ge
B enz
P DR
U KA
d ari
042 435
0420 20
11 73
ĠB ike
ĠB att
16 52
14 78
14 75
ĠG EL
og lasi
Ġh ip
ir ili
vi ja
%), \
201319 11
nK ako
qu ot
ĠSerb i
20133 35
rat us
ĠIN C
138 3
por od
ĠMet all
Ġgra ph
Ġ................................................................ ................................................................
ĠRelig ious
ĠPhilip pe
ĠKOM ORE
Ġzabor av
ĠSatur day
c id
h ist
... [\
ĠS andra
05 19
ĠT RAN
16 54
14 70
14 98
14 62
ĠK I
ĠD over
ĠD acia
ĠL S
Ġk ez
Ġi gn
Ġd ictionary
20132 29
ĠSt ro
Ġne kom
Ġbe au
IC O
pl atno
ĠSh ap
sch ung
ĠMan ufacturing
Ġex ample
Ġpl ac
Ġ440 6
ĠInd iana
04307 5
stat us
hop lov
ĠRena issance
Ġmach ines
! ?.
3 441
J EM
M ovie
V ision
X NUMX
c St
s che
20 78
Ġs ok
16 11
16 51
Ġt ot
ĠF ED
Ġc linical
Ġv apor
cc uo
th rop
lan tic
ke te
Ġte ll
nP age
ĠAd van
ven e
men u
04432 9
ĠInd ic
lim ited
MP EG
Ġdob io
ĠDem ok
054 3
ĠVas il
ĠRay mond
ĠGraph ics
ĠOtt oman
Ġniv ou
ĠSimply Freddie
0 2020
D aniel
E le
E PA
J AN
V R
] </
m ik
t ter
w or
33 03
0428 215
06 86
15 17
16 02
09 09
ce u
ĠL VIII
221 28
em s
!! ?\
ep is
ĠSt ri
Ġst rong
308 2
rat ory
nJ E
2265 10
ĠMic he
Ġraz loga
04307 4
Le on
ĠAust rian
Ġmat ter
ĠSU B
ogni tive
ĠZDRAV STV
Ġizm ena
kiew icz
ĠHivatal os
P J
j t
Ġ- ).\
ad x
000 37
25 000
ed ng
ed ded
ĠR oz
Ġm int
do u
Ġt weet
221 29
ow e
ĠSt ones
AR K
man a
ĠRead s
Ġen erg
Ġpos lov
ula ted
fin ans
ĠGener ator
Ġsci enti
ĠDemoc ratic
nen abavke
eFor ce
ĠTomas evich
1 433
D ok
c v
o C
0428 217
ĠT ell
17 32
ĠR over
ĠD IG
07 29
Ġf all
ĠU SP
ci um
Ġ47 00
ĠMar vel
eA rt
AD S
Ġ\\ \\
oph ilus
ĠSP EC
ĠWe iss
Ġglobal security
Alex ander
ĠBAN K
aller ies
ĠFrances co
ĠPren tice
Ġwer den
I ch
S ize
S mart
X Z
g ie
0436 2
0428 214
ĠM ER
ĠR n
ro dal
ĠF oster
ae c
Ġf ides
ĠIn ters
ĠZ ent
rad ic
ije ljina
ĠAl ess
Ġiz gub
201419 74
ĠNe uro
04432 1
Ġinter face
Ġsta tion
AK O
ĠSav o
Ġlook ing
\"/ \"\
Fr ont
Ast ron
ĠStic ky
9 2017
: %
A mer
C os
R s
Ġ ara
32 06
041 451
Ġ15 0000
ad d
ĠI MS
er ence
le ti
ra i
ĠF Y
ir u
ran j
ka ma
all as
Ġfor ces
ĠAr gent
ass ault
Ġsp eak
ĠCon quer
ĠFor s
ali ae
OP A
ĠDel uxe
ĠSe attle
ĠUb ica
ĠLaz ic
Ġbol esti
lot te
omon as
nde z
mog at
nIS BN
ĠAllgem eine
* -\
C ir
G rill
r fa
Ġ ena
0434 9
01 70
2019 3
Ġ17 011
al do
ĠM OV
ĠC ruz
15 51
ac r
027 8
he z
ĠK ay
ob son
ĠSt av
ĠZ u
lic i
ĠNew ton
lj anja
OT EC
04308 0
Ġ________________ _____
Ġem ber
unarod na
ĠAca alexaca
0 2015
3 432
A udio
W ho
n ick
Ġ2 375
Ġ6 200
an tic
an go
ĠS ON
da tion
Ġp neum
16 09
ĠD riv
ĠL iga
ĠN orton
07 41
07 18
ew ater
un ded
ĠJ ur
Ġ\" +
?! ...
ĠCO BIB
ih aj
201419 17
201419 75
04141 17
Ġex am
Ġob ris
ze ti
ĠLa ura
Ġac quis
ĠBlog This
ĠPre mi
ĠEl is
ĠBar ry
Ph oto
ĠJul ius
remen o
ĠPix el
Ġrepresent ing
ĠSouthe ast
ĠEURA XESS
SHORT DESC
( '
C ro
G ood
n orsk
or od
... ?!
ar ency
ĠW ei
16 71
Ġt oj
ĠE thernet
ul ata
ot form
20132 44
IN TER
ss a
307 4
Ġdes et
nG oran
nu o
Ġsim ple
Ġseptem bra
Ġmol im
ĠKN J
Ġchar acters
ĠKis hegyes
Ġdigital na
ĠThunderb olt
nfor vm
Ġancest ors
ografskim uzej
* (\
- ,,
G eo
H AR
g usta
h igh
r ao
0412 109
0415 21
Ġ6 206
ĠS hel
ĠS au
11 51
ĠB U
16 35
14 77
ĠR alph
Ġ. ,\
ao kup
ĠF unk
23 07
bo at
ff ield
132 5
du je
141 6
22121 5
ĠMon aco
Ġaut omob
Ġsve ti
ĠGo es
2013195 1
ĠSS E
ĠDec laration
ĠSC ADA
ĠMM R
ĠCir cle
ĠTag alog
Ġlaw gem
ĠConc ert
ĠTol kien
Ġroman v
A ve
K M
d J
d ena
f ce
f act
h es
k od
r be
w eebly
63 38
ĠM ental
15 09
16 68
Ġm ight
Ġm ala
ol ve
ent ry
ec he
ta ti
Ġto wards
la tes
nS in
nS ource
ani us
ĠLe ks
140 1
131 5
UN WTO
ĠLin coln
ĠAm nesty
ĠSu isse
ĠAug mentation
Ġpok lon
ĠMuseum s
cre te
dag og
Ġtele fon
ĠRap tor
Ġtest ing
Ġdire ktor
ĠJP EG
ĠArm strong
akespe are
3 02012
4 302012
0 4302012
L ex
R en
32 40
33 00
0410 319
ĠS na
ab eth
15 14
ĠB ET
ĠK ak
Ġa qu
ĠG S
fo od
23 040
ĠU g
fa x
cc u
af er
ĠZ akon
ĠZ vezda
ost ud
04301 01
sp lit
rin i
Ġob ja
alis ti
ĠST ORY
ĠSal on
Ġpred log
ĠGo ethe
ĠPan thera
ĠEp ic
ĠPhys i
0 348
E rn
O JE
x in
Ġ8 086
ĠP utin
ab ar
ĠB org
ov ali
et ter
Ġi p
em ar
ost ridium
Ġ; )"}
?! ).
Ġbe low
ĠAd min
141 1
Ġhe ld
309 0
etn ografskimuzej
ĠSer g
Ġperson a
ĠAut omotive
ĠWal t
ĠSin isa
ĠMit tel
abil ities
ĠMu ham
ĠChristian ity
ĠSYSTEM S
ĠJim my
Eng ine
Ġimag ery
1 2030
c aster
.. ).
ĠC od
de ga
15 45
ĠB ETA
16 82
ĠR ig
ĠE o
ĠL D
ĠN iel
07 15
08 72
219 8
un ion
Ġ" '\
od no
ore an
fc z
Ġ-- ~~~~
Ġ00 006
Ġ800 00
ric ht
ĠCo x
20142 011
ĠNe il
)- (\
ĠNov om
tak ti
Ġzn an
ĠJos ip
ivanje m
ĠTheme Grill
ĠFI BA
ĠHaw k
Ġbic ikl
ĠMys tery
ĠScienti x
0 326
N est
S wiss
Z n
t O
u ac
Ġ( #\
ad vo
Ġj ud
ĠS ova
ĠM US
ĠC anner
ĠA chiev
Ġp am
15 56
ĠB order
16 28
ĠK alo
Ġ. --->
it atus
Ġh id
Ġl ite
Ġ41 00
Ġg res
Ġ000 97
ĠIn di
Ġx i
Ġfor t
ij ing
ij sko
nA frikaans
142 9
cl os
ĠStud ia
ĠUni face
ĠBra tis
Ġpan el
osavlje vi
Ġlet ter
ĠMcD onald
FER ENCE
ĠJess ica
ĠGrip en
C IT
S CI
i ent
p ore
20 84
\" )"}
Ġ0 88
Ġo da
ĠM ili
ĠC af
ĠP K
re ak
ĠT ran
ĠT ART
14 67
Ġm atch
09 07
ĠK ara
ĠL VII
ĠF amil
ĠV lah
Ġd ili
ul in
Ġ000 79
20132 36
est he
ija t
ĠCh en
Ġdo prin
306 5
ind ust
04306 1
Ġak ademija
ĠSloven sk
ĠCIT Y
Par ti
ĠNaj boljim
ĠTOP OLY
F ET
P os
T ON
n ok
r ace
s jed
0417 10
0428 220
Ġ20 47
ĠI K
en zo
63 32
ĠS b
028 5
ĠA CC
ĠP am
Ġs s
Ġp ru
16 27
16 75
ol and
ĠD ana
ĠL XI
ĠV LIW
ew here
co dy
Ġ; .\
ast y
ten los
AL D
ult an
ĠMil k
rop tera
Ġop tions
ĠPet ra
ĠSup p
Ġap t
Ġpok ret
uta ire
Ex plorer
Ġtak mi
Ġhistor ical
Ġbureauc rat
* :
- "}
n tag
35 250
042 450
20 76
or tu
Ġp amet
Ġ40 96
il il
ol ica
ro va
ĠL ane
ĠF IR
ĠV est
ĠJ ol
Ġin vol
Ġl atest
lo u
ĠAn other
nM ay
ide mi
ĠRep ubblica
men i
za h
211 63
ĠQu estion
mark et
ĠEmp ires
ĠAdria tic
ilia te
ĠErn est
Ġconnec tion
role um
ĠTOPOLY A
0 355
G old
V EL
s bb
31 22
ĠS anja
da tes
Ġs witch
15 77
ĠW u
ĠL op
ĠL ak
ĠV PS
ĠV irus
Ġw alk
ĠN it
ĠH isp
tion e
ĠY e
nP r
Ġsp re
Ġle ge
ĠIN T
Ġsh adow
.[ -]\
nR elated
we ight
ĠTr ack
ĠEv idence
ĠMat th
ĠSig ma
Ġcoll apse
ĠMAR KET
sw ers
Ġgy ere
ĠScholar ship
ĠSele ction
Ġziv ot
Ġ____________________ _\
ĠAuth ors
3 435
T rib
n ea
o ter
p id
Ġ( ?)\
Ġ( ~~~~
ĠC hel
ĠC LU
16 56
16 58
17 23
ĠD obro
ĠL ug
ĠG le
08 73
un ning
Ġin troduction
ni ja
vi ded
qu in
rav da
AL S
305 2
ang ed
ĠAd ri
Ġsp ot
ain en
oci al
eB ad
eO pera
ĠNor way
04309 5
ĠTur ner
742 251843
ĠCIT ES
ĠEm bassy
ĠUs ing
Ġten nis
Nov osti
Ġljud ima
ĠMeteor ological
VIL LE
ĠAstronom ical
3 0109
00 37
in ery
ĠP late
ĠW aters
ac in
ĠT art
ĠT ry
ĠK lim
ĠD ijalog
ĠN ear
at ok
ul se
ĠY i
fe q
20132 37
olog ic
Ġbe at
Ġar ts
ĠPress e
Ġch ocolate
tiv ely
04306 8
Ġres ources
ĠDes cription
Ġima ges
ĠPost Net
Ġfo g
ĠMax im
teneg ro
ĠBO OK
ĠMig ration
ĠSant os
cla ir
Ġmell itus
3 02015
= |
N IC
d ist
g ran
w ill
0441 12
0422 50
te gr
er ra
ĠC K
05 59
Ġp ublish
Ġt oku
ĠD imitrije
og er
Ġc lean
Ġ45 001
ul li
co ja
ig es
ea te
ir ana
Ġde pend
300 9
tic ism
ĠSp lit
ĠUn ic
nK ey
ph in
ĠMar cel
ĠBo om
EL S
ĠLe an
131 1
ood le
Ġ(- {
Ġcon temporary
.); .
ĠTop ol
04308 1
04309 6
ĠImp rov
Ġprin ce
Kis wah
4 302015
0 4302015
7 105
: ]]
C NC
H I
O l
P RI
b ibliote
d ire
n pera
t by
32 33
445 0
00 2014
er asmus
Ġo zb
ĠM ember
om in
Ġp x
15 01
15 29
15 62
ed tott
09 13
ĠG ive
ĠJ ICA
Ġi us
ĠY ev
79 46
20132 56
ow itz
ĠZ U
Ġ76 00
ach en
201419 80
ĠEx am
Ġch rys
04305 7
cl usion
139 9
Ġbro wn
yp rin
aO J
div ot
ĠCond itions
* (
c ss
e ties
l ut
w el
z zo
Ġ able
ĠI J
ĠS tern
ĠC atimini
Ġs tig
ĠB MI
16 95
ed ing
ĠK uk
os um
ĠH us
Ġh ands
av ski
Ġd or
20132 54
ard ing
201319 07
ass et
ĠTh umb
esti English
307 9
ĠSch l
Ġor u
Ġac t
04306 7
ĠGre gory
Ġres urs
nX VIII
004 3
Ġplan e
04308 5
ĠVel iki
Ġfre kven
tegra tion
voz den
Uni on
ĠAdvent ures
ĠVent ure
% ?
L ocal
S ti
W D
b ad
31 88
0410 300
00 46
te au
Ġ3 370
on u
Ġp ron
Ġ26 84
ĠG I
Ġk aj
28 01
Ġc ilj
Ġd uc
ul ous
Ġg ate
ĠAn onymous
gov ori
ph il
ang i
Ġle gen
eB o
144 7
Ġco operation
nX VII
Pro gram
Ġcomp uting
ĠBra un
\\\\ \
Ġelect ronics
ĠSche me
Ġsigur no
alon iki
ĠBUL LET
! ):
] ).\
b More
000 35
Ġ0 49
Ġj ag
al in
028 9
06 01
ĠT rop
ĠB orn
ud fd
ĠR ising
Ġm aps
ĠV og
ca v
ĠY P
ak at
20132 65
Ġre ve
ĠPro dig
df ul
rig a
mo te
136 4
UN A
oph ora
voj vodine
ĠTrans formation
dn oj
Ġlong er
Ġkos tenlos
Ġflight global
ĠPrivil ege
3 442
A uto
i red
n ERASMUS
38 00
Ġ7 0000
on ac
ĠM IC
Ġs ir
14 73
ĠR w
ĠE LE
ĠJ ED
Ġf at
Ġi dentity
Ġe pis
!! !.
20132 42
uss ion
201319 27
qu ia
ich ia
201419 10
700 4
ome ter
eB ig
sh q
Ġsk ol
Ġsk oro
ĠAm or
04354 3
ĠAut onom
ĠJul ia
ĠProgram s
ĠBO X
dun ari
Ġ:)) )\
ĠProble ms
ĠArtist s
ĠBULLET IN
4 30109
0 430109
7 275
G U
T ab
d iji
h ren
u va
0421 01
000 8
ĠM undo
ĠC es
ĠP ent
Ġs ix
Ġp in
15 83
ĠT un
27 12
Ġn b
48 020
ĠH of
Ġc ut
Ġc ash
Ġf ir
Ġ+ +\
Ġh ilj
Ġ300 000
Ġ000 67
Ġ000 72
Ġde cl
20132 97
Ġda je
iss er
ĠSh aw
nV el
INE SS
Ġinter pret
Ġdis kus
rt rs
ovan ju
`, `
ĠMed line
ĠCC NA
una utaire
ĠLeon ard
ĠJeff rey
ĠWalk er
ĠGEL IO
4 3063
L u
M uz
V an
Y D
a R
g nu
t avt
~ ,
ĠS AF
ĠB ah
ĠR aven
as ed
ĠD ow
ik la
Ġv arious
CE SS
ep age
Ġre ason
307 7
ĠCol omb
Ġcomm emorative
ais Gaeilge
ĠAssocia tes
ĠSk ills
Ġsec tion
ĠClass ification
ĠSara h
ensch aften
Ġljub omora
hib it
Mel ayu
Ġhist ori
! +
C AN
P EL
k B
42 78
ad va
or ac
ĠS ites
ĠC ontinental
ĠP N
Ġp ush
ĠT P
ĠT ai
ud fc
Ġ26 50
ro bi
ĠF loyd
ĠN j
07 21
): -
ul are
ul ouse
Ġ" --
em ark
ĠXX XX
20141 427
20132 09
20132 26
rad o
ron es
ĠSh ot
ĠCol onia
ĠSP ARC
umb old
........................ ....\
isp it
sto uns
Ġpute va
ĠSOCI ETY
Ġpil ot
Ġ### ##
. ]"}
0 43063
E J
M ak
R oll
0442 16
in di
63 07
ar izacija
ti en
ĠM bit
ĠP AP
Ġk rat
ĠH uff
46 793
ur ban
Ġe f
co ck
Ġl ov
od ik
Ġde termin
ija ma
Ġst vor
Ġpro vide
', '\
nV eter
ĠTim othy
ĠHe ine
eN arod
144 6
ĠSRPS KA
jav nosti
ĠAb u
Ġost var
Ġkoris nik
Ġsvoj oj
Ġgener ation
Or gan
ĠCamp bell
Ġnau ke
He alth
ĠSti ftung
ĠRothsch il
Filip in
OTE H
rub rike
F ar
d ic
e Vi
m ila
u omis
32 32
433 05
0447 2
0410 375
Ġ( !!!)
ad as
ad ansk
21 165
er in
da st
Ġp les
ab c
15 39
15 59
il lie
ĠE ury
ĠF SC
'' "}
Ġi phone
Ġl itera
lo o
71 03
est vari
ĠAl ba
302 1
Ġan imal
Ġor bi
ĠSR EM
ĠCan al
04307 3
rick MIL
04309 9
Ġpot pis
olf ran
ĠBal can
plan eta
tin adansk
Ġfur ther
nXXX I
dinas loven
dinas uomis
leksibil no
dinasuomis venska
A CE
B rain
C IA
L os
c ina
f ia
y at
y ugoslavia
0445 50
01 36
01 94
\" ..."}
ĠP ione
ac er
16 78
Ġm n
Ġt ree
ĠG ib
07 31
ĠJ anu
ul ietuvi
Ġ00 120
ss ze
Ġte x
ath om
20142 1
04305 9
eD is
Ġsh ared
IF F
rbaycan Afrikaans
Ġ272 43305
ira ta
zbek Filipin
Ġkoje m
ips loven
Deutsche estiEnglish
ĠIndonesia Melayu
ĠJav orina
Nederlands norsk
ĠCho ice
ĠTodor ovi
ĠStu art
hrvatski italiano
ĠAfghan istan
magyar Nederlandsnorsk
opolski Portugu
ilil atvie
Kiswah ililatvie
shq ipsloven
aisGaeilge hrvatskiitaliano
rickMIL Bar
tinadansk DeutscheestiEnglish
dinasuomisvenska Ti
rbaycanAfrikaans Bahasa
zbekFilipin opolskiPortugu
ĠIndonesiaMelayu catal
aisGaeilgehrvatskiitaliano Kiswahililatvie
tinadanskDeutscheestiEnglish espa
' ."}
4 3064
0 43064
C OR
C roatian
f lag
m oll
440 0
bb A
ĠM eni
is ia
Ġs ense
Ġs ibil
16 70
il ey
je g
ĠV ER
Ġd iagnos
ĠY ug
iv ati
Ġ41 13
20141 969
20132 27
ĠZ H
ĠCo V
137 3
ĠOr al
urg ical
Ġqu ick
ĠST AN
ĠReg ister
Ġev ents
isti ke
ĠRE AD
ĠWall s
ĠED U
Ġdrag an
bec se
sup port
ĠOT RS
Ġnih ilo
Ġsas vim
E rasmus
G ram
R AL
c IT
31 05
on ing
ĠS BB
ti ke
ĠT ita
16 41
ĠR ib
ĠL um
ĠF ID
ĠG ill
Ġk rs
ĠH ron
og r
ew e
Ġh aving
st ock
ian um
20132 38
ĠIS AC
ij ad
Ġse qu
nC on
nC reative
ver i
eM ichael
sz e
307 8
ĠLa ter
226 42
act wv
ĠMet aph
dis krimin
04307 2
Ġtr uth
Ġpred lo
ĠBlack well
anj estvari
ĠOs ob
ĠIst o
Mil ens
ĠGes ch
ĠMess age
ĠOR TH
Cla ude
Ġissu es
Ġpartic ular
ĠMick ey
Ġuslovi ma
ĠDije go
? [
F ri
I ce
L ight
O ver
S ource
c im
u ed
33 90
.. {
). (\
ar ro
Ġ/ >\
Ġ21 50
ĠW erner
25 50
Ġm ej
Ġk lju
ĠN ederland
ĠH els
Ġh ier
Ġ\" ;
st reet
em en
20132 52
ht o
ru k
Ġ57 00
Ġ$ $
201319 25
Ġdo kaz
end ix
eT op
res earch
eC ol
04242 0
ĠMet acritic
isk ovi
ĠLab our
Ġpis mo
ĠRank ings
ĠDocument ation
ĠCZ K
ĠVacc ine
G es
L AND
R ajko
T OP
d ila
e das
f ti
z ie
ĠS aw
ĠS eneka
ar c
da C
ĠC d
06 20
Ġp one
Ġp ier
ĠR end
Ġa ureus
ĠF ur
ĠV EN
ĠG nevu
ĠO sp
Ġl iving
ok rug
Ġ000 82
ĠAn ej
ll ishing
ns ylvania
ĠCD N
ĠLu cije
uff alo
ĠRev en
Ġorgan ization
ĠDE I
ĠLex icon
ĠNation ale
ĠPil ip
ĠLeb ens
Ġpub llishing
idh lig
ĠFreder ick
ĠRoling stouns
rickMILBar barossa
T aj
h it
r ho
0415 60
Ġ0 73
2014 70
ĠI con
11 34
ĠC and
ĠA ja
is tent
ĠB res
ĠR GB
09 64
Ġn ivo
Ġd pi
sk ich
Ġz e
20132 31
ow ia
301 6
Ġfor mer
ens or
nP ogledajte
ear th
hn er
lad u
UT NIK
any a
Ġapp ar
ĠMer chant
Ġcom bat
Ġmail to
Ġglas anje
Ġnjegov e
Ġcond itio
Ins ulate
ĠEu tels
Ġkategor iji
sab ornost
ĠInfin ity
9500 500
cob iss
ĠEmi rates
S vi
0445 21
ĠI ST
ĠP ou
16 46
17 47
he alth
le ted
ĠL INE
'' )\
Ġf ive
am t
op ers
ok en
Ġ00 119
pp en
201419 65
erv is
mi x
yn ich
04282 31
ĠCent ro
rib us
ator um
Ch am
Ġer ectus
ĠTrans late
Ġak tuelnosti
ĠAG EN
thodo xy
ĠTra ffic
heim er
Des ign
ĠArmen ian
ĠEvro pe
phot os
H Q
O per
0408 9
21 54
ĠS enior
ĠA AI
ĠP eg
ĠG ad
ĠG ust
Ġn pr
Ġi Tunes
ist vo
20141 389
20141 958
20132 23
ĠSt orage
ĠAn te
Ġpro pos
ĠSp eak
201319 05
ĠDe lete
iss ima
Ġvi da
que z
ĠCol ic
136 1
Ġsk ills
ĠDo or
ĠAM RAAM
ling ua
IB OR
Ġot ac
ĠAdo lf
624 650
Ġzap ravo
ĠStart up
Ġfl ash
cti ous
Pr unus
Ġfab ric
Ġinflu ence
ĠBIBL ID
ĠAdvis ory
9500500 624650
! /\
0 347
C Y
K OLA
N OV
P lat
31 50
36 00
Ġ5 100
Ġp ec
17 05
ĠE is
ĠL iver
Ġw oman
Ġin tro
ĠY v
Ġe i
ag in
cc vo
ST D
Ġto uring
vi um
ĠZ F
ru ma
AN Y
go z
Ġal le
per ia
eK o
kt ora
.+ "}
ors che
241 7
ĠNet flix
Ġpr va
ĠLin es
war eness
ĠBur ning
ĠLar ry
ĠKir che
Ġrev olution
UDDE ADM
ĠJAV A
Ġcler ks
C ore
E mp
F OTEH
S ave
T W
b ko
c ki
e IT
Ġ( ..)
00 82
0428 218
Ġ0 98
da tor
ĠB K
16 07
il lic
Ġm un
221 224
fc y
ve o
Ġ< -
IN O
ort unities
Ġ' )
enti eth
dit o
Ġdes ktop
ĠEU LEX
ĠStud i
ĠEl s
Ġvol ume
ĠAnti war
OUT UBE
Ġtan ul
oljub ve
Ġlin ks
omor pha
Ġphys ical
ĠAni mation
Ġsporaz uma
ĠLIB ER
glav nom
ĠPRIRO DA
+ _
L uc
S av
b z
00 48
Ġ18 400
11 64
da la
ĠM eta
ĠC J
de z
ĠP w
Ġp ip
Ġp ix
ĠW GS
ĠW affen
Ġk ids
ri i
ur ns
75 49
221 5
20132 32
20132 19
ĠSt aats
Ġr is
oc racy
und ing
her r
ĠDe ux
ros e
ĠMa urice
20142 6
ĠMan y
141 4
ĠPri mary
EE K
ĠPe tit
340 5
OP IS
Ġmin utes
...... ...\
eI l
rov olj
ĠMem bers
Ġair war
ĠMathema tica
Ġmen u
Ġpass im
nNaj bolja
Ed ge
roati a
ĠEmer gency
lec tual
ĠNin tendo
ĠMethod s
ĠPub Med
ĠTEH NI
ĠTART ALOM
6 211
p aste
00 39
ĠM IG
ĠA O
05 87
15 32
ĠB ER
16 73
ĠK ry
[...]
